, 456531
. 324687
the 134896
and 96889
in 92762
und 91428
die 79440
to 79046
of 74173
a 73642
that 59873
sie 56381
i 55426
es 55214
das 51459
ich 50378
der 49760
it 49730
ist 49557
&quot; 46673
you 45820
wir 42755
is 42638
we 42066
zu 41308
&apos;s 36495
was 34668
so 34141
this 32249
? 28096
ein 26000
dass 25388
eine 24655
-- 24596
von 24557
an 23046
nicht 22859
: 22834
they 21065
den 20840
on 20069
for 18929
are 18420
mit 18191
er 18143
man 18082
wie 17922
have 17304
what 17106
auf 16992
but 16817
with 15948
sind 15687
haben 15639
aber 15390
can 15354
all 15202
wenn 15184
um 14726
für 14704
&apos;t 14069
als 13902
as 13850
sich 13788
also 13754
at 13744
about 13691
be 13609
there 13604
war 13205
diese 12832
do 11777
one 11772
not 11605
– 11237
my 10947
&apos;re 10919
people 10664
if 10241
like 10172
he 10119
or 10115
einen 10113
im 10113
from 10067
-@@ 9940
des 9561
können 9353
werden 9329
now 9319
these 9182
dem 9069
just 8964
me 8781
ver@@ 8639
uns 8627
our 8542
re@@ 8469
oder 8321
because 8220
when 8211
very 8192
an@@ 7983
über 7935
out 7923
gibt 7913
hat 7868
s@@ 7823
how 7775
by 7738
kann 7697
be@@ 7642
un@@ 7477
up 7442
know 7402
sehr 7334
te 7312
them 7302
einem 7267
er@@ 7242
going 7183
hier 7148
s 7113
wird 7048
us 6975
ihnen 6969
aus 6930
which 6912
einer 6845
more 6819
here 6815
see 6793
ge@@ 6788
sehen 6760
had 6741
think 6728
sein 6710
ing 6624
nur 6600
ed 6555
k@@ 6471
who 6392
your 6331
menschen 6319
mich 6292
really 6292
get 6198
their 6187
then 6127
will 6118
were 6111
would 6084
t@@ 5980
a@@ 5949
&apos;ve 5921
world 5844
in@@ 5830
ten 5820
dann 5788
d@@ 5733
e@@ 5714
auch 5692
time 5665
some 5639
dieser 5603
&apos;m 5573
en@@ 5485
g@@ 5481
way 5399
tun 5389
etwas 5383
has 5371
don 5350
wirklich 5328
actually 5304
en 5192
ihre 5183
into 5182
ti@@ 5155
habe 5132
go 5123
welt 5107
o@@ 5084
where 5052
nach 5018
alle 5000
i@@ 4986
things 4969
ab@@ 4968
machen 4959
am 4915
years 4871
t 4837
e 4828
b@@ 4794
c@@ 4766
vor 4700
other 4689
p@@ 4651
no 4603
well 4592
meine 4548
wurde 4542
y 4535
mehr 4517
could 4503
want 4448
aus@@ 4443
leben 4425
dieses 4330
dinge 4325
make 4318
mir 4315
di@@ 4311
; 4301
right 4265
been 4255
said 4252
wissen 4245
de@@ 4225
new 4224
art 4217
leute 4216
li@@ 4212
weil 4205
ein@@ 4165
ch@@ 4138
r@@ 4111
immer 4101
m 4100
she 4089
something 4039
m@@ 4031
ma@@ 4029
kind 4000
h@@ 3984
al 3958
than 3949
noch 3916
first 3855
g 3849
two 3828
those 3793
look 3752
his 3749
sagte 3738
al@@ 3737
u@@ 3734
le@@ 3732
ar@@ 3723
viel 3695
thing 3692
sagen 3669
ri@@ 3667
unsere 3666
little 3655
keine 3637
z@@ 3629
viele 3625
jetzt 3624
f@@ 3619
y@@ 3615
ung 3599
got 3597
zum 3585
hatte 3579
gen 3551
se@@ 3548
gehen 3541
zeit 3541
st@@ 3533
diesem 3525
o 3525
much 3518
life 3479
back 3467
sch@@ 3455
durch 3437
work 3437
say 3435
nun 3428
l@@ 3384
most 3372
over 3359
problem 3347
denn 3318
ro@@ 3307
de 3290
tatsächlich 3285
d 3267
diesen 3247
se 3247
only 3234
ted 3207
zwei 3204
even 3187
end 3163
take 3159
waren 3150
andere 3140
ge 3137
her 3131
ter 3107
able 3097
n@@ 3092
wo 3087
system 3081
many 3072
bin 3061
ts 3053
jahren 3044
eines 3022
po@@ 3018
auf@@ 3010
vielleicht 3010
einfach 3008
did 3007
need 2976
co@@ 2973
le 2951
or@@ 2947
würde 2946
good 2944
lot 2906
um@@ 2871
around 2869
let 2858
müssen 2848
why 2843
v@@ 2841
geht 2825
down 2822
on@@ 2814
bi@@ 2809
use 2807
come 2803
w@@ 2784
&apos;ll 2768
ie 2751
selbst 2747
alles 2745
über@@ 2745
mein 2729
ent@@ 2720
anderen 2713
el@@ 2710
k 2704
&apos; 2699
different 2691
every 2686
si@@ 2675
ische 2673
da 2671
through 2664
kommen 2648
warum 2638
day 2614
geben 2613
pro@@ 2605
bis 2577
vor@@ 2540
at@@ 2526
zu@@ 2521
same 2520
p 2516
as@@ 2512
its 2507
ihr 2506
being 2498
put 2494
du 2489
bei 2479
macht 2478
land 2466
ungen 2459
geschichte 2453
lo@@ 2442
einige 2441
ischen 2439
am@@ 2438
ert 2438
muss 2433
l 2419
ers 2407
doing 2400
ra@@ 2398
th@@ 2393
ds 2390
sten 2364
gemacht 2351
eren 2350
mal 2342
la@@ 2339
denken 2338
gut 2338
darüber 2327
con@@ 2311
ging 2307
ni@@ 2301
ende 2297
me@@ 2294
ger 2279
three 2278
person 2251
bo@@ 2240
called 2238
könnte 2237
men 2237
dis@@ 2234
ta@@ 2234
10 2231
jahre 2221
any 2209
talk 2187
hatten 2182
werde 2181
mi@@ 2177
made 2162
percent 2156
! 2149
davon 2149
ly 2149
&apos;d 2144
heute 2139
paar 2128
j@@ 2112
ber@@ 2110
te@@ 2104
wollen 2101
tion 2097
drei 2093
es@@ 2089
b 2086
her@@ 2083
ke 2083
ated 2082
möchte 2081
today 2079
kinder 2077
great 2075
ad@@ 2073
h 2073
st 2070
after 2063
par@@ 2048
ck@@ 2036
mo@@ 2033
ne@@ 2025
ation 2020
vi@@ 2014
ha@@ 2007
tell 2003
big 1999
damit 1995
seine 1990
is@@ 1984
ck 1983
c 1982
liche 1980
denke 1967
year 1967
human 1966
ob 1957
he@@ 1954
ve 1952
last 1946
it@@ 1936
bringen 1929
mar@@ 1927
ch 1925
fact 1917
another 1913
lassen 1911
find 1909
op@@ 1903
zur 1895
nehmen 1887
pe@@ 1887
own 1875
gab 1865
ex@@ 1863
ent 1861
n 1861
wurden 1861
idea 1855
sp@@ 1847
to@@ 1845
tag 1843
form 1837
ac@@ 1834
didn 1830
change 1829
give 1827
weg 1827
before 1825
passiert 1823
gt 1817
teil 1817
20 1816
ate 1815
wieder 1811
weise 1802
design 1801
ken 1801
went 1800
okay 1799
should 1796
ter@@ 1794
do@@ 1793
während 1790
started 1784
r 1783
show 1783
ding 1782
sh@@ 1777
thought 1775
ur@@ 1775
ting 1767
sa@@ 1763
tions 1753
moment 1749
jahr 1744
pi@@ 1742
pa@@ 1741
ale 1736
off 1736
ihren 1730
ste 1730
ins 1724
jeder 1722
ihn 1719
ko@@ 1715
story 1709
com@@ 1708
ja 1707
sti@@ 1707
finden 1703
3@@ 1700
meiner 1700
bu@@ 1699
gi@@ 1694
fe@@ 1691
never 1687
fi@@ 1685
better 1683
genau 1683
course 1681
still 1681
again 1679
important 1678
sprechen 1677
lichen 1672
per@@ 1671
start 1669
wäre 1668
ce 1661
weiß 1661
sondern 1642
dies 1641
su@@ 1640
frage 1636
him 1631
does 1626
glaube 1625
kommt 1624
ei@@ 1623
im@@ 1623
water 1620
tra@@ 1619
ziemlich 1614
stellen 1612
neue 1610
next 1610
ru@@ 1610
part 1608
might 1607
ago 1604
each 1601
oh 1600
unter@@ 1600
nie 1599
sagt 1599
together 1598
place 1597
f 1596
beispiel 1592
mon@@ 1592
used 1592
technology 1588
brain 1586
pre@@ 1584
sk@@ 1579
bekommen 1578
den@@ 1573
natürlich 1573
came 1568
idee 1568
prozent 1567
ok 1564
computer 1560
thank 1559
bit 1558
arbeit 1556
der@@ 1554
kon@@ 1554
x 1549
zurück 1547
ar 1544
arbeiten 1540
50 1537
car@@ 1533
elle 1532
ger@@ 1532
school 1529
no@@ 1520
ern 1519
ten@@ 1519
tet 1519
zwischen 1517
long 1516
qu@@ 1515
hin@@ 1514
million 1508
el 1507
ks 1507
zeigen 1500
ste@@ 1496
kein 1493
au@@ 1492
unserer 1491
ho@@ 1485
too 1484
dort 1483
erste 1480
große 1480
verstehen 1480
between 1479
point 1477
würden 1472
man@@ 1471
denen 1470
few 1470
na@@ 1470
fall 1469
looking 1466
ating 1461
sen@@ 1461
hi@@ 1457
dollar 1456
z 1452
erte 1442
children 1439
mu@@ 1439
mean 1437
30 1435
est 1435
ir@@ 1430
chen 1425
hand 1425
sen 1425
du@@ 1422
daran 1419
em@@ 1415
tr@@ 1412
sache 1409
for@@ 1408
try 1408
ty 1408
maybe 1397
done 1395
unter 1395
ine 1394
sort 1394
so@@ 1390
tes 1389
sogar 1387
ever 1381
lich 1380
isch 1377
ihrer 1376
found 1373
da@@ 1372
fragen 1370
millionen 1369
less 1367
ges 1366
ded 1363
kam 1363
wa@@ 1363
w 1362
whole 1362
ous 1361
question 1359
data 1358
real 1355
sieht 1355
seite 1354
unser 1353
sc@@ 1351
doesn 1350
love 1350
gesehen 1349
inter@@ 1349
konnte 1349
.@@ 1347
gra@@ 1347
red 1345
war@@ 1345
br@@ 1340
fast 1338
light 1338
könnten 1337
weiter 1337
ersten 1336
ä@@ 1335
technologie 1333
live 1332
nen 1332
example 1329
ben 1328
letzten 1323
may 1323
understand 1323
tive 1319
wanted 1318
four 1310
gen@@ 1309
bild 1306
ere 1306
dazu 1303
information 1301
ct 1296
etwa 1296
ohne 1294
... 1292
indem 1290
sta@@ 1290
wer 1290
ses 1289
working 1286
old 1284
using 1281
min@@ 1279
age 1277
women 1273
meisten 1272
son 1271
ze 1270
city 1268
fen 1266
trying 1263
ic 1262
durch@@ 1261
dafür 1260
einmal 1259
call 1253
away 1249
ganze 1249
times 1248
danke 1245
je@@ 1243
power 1242
vier 1242
ant 1238
ens 1236
raum 1236
wichtig 1235
nichts 1234
ction 1232
daten 1232
money 1232
fa@@ 1229
schen 1224
vom 1223
everything 1221
kids 1219
always 1217
schauen 1217
ellen 1213
ally 1212
em 1212
frauen 1212
geld 1211
space 1210
tionen 1210
wasser 1209
believe 1207
ons 1206
4@@ 1205
dachte 1204
mann 1204
100 1201
lin@@ 1201
ot@@ 1201
internet 1200
meinem 1200
feel 1199
tri@@ 1198
il@@ 1197
five 1195
ves 1193
gu@@ 1192
mis@@ 1191
ary 1189
ak@@ 1187
bar@@ 1185
ph@@ 1185
bar 1181
ihrem 1181
country 1178
ö@@ 1177
mit@@ 1175
ganzen 1173
x@@ 1173
bauen 1172
essen 1172
meinen 1172
et@@ 1171
pri@@ 1169
sollten 1168
help 1167
king 1167
großen 1166
zi@@ 1161
thinking 1155
ka@@ 1153
kleinen 1153
us@@ 1149
kan@@ 1147
bri@@ 1144
ps 1143
we@@ 1143
versuchen 1141
number 1140
comes 1139
create 1138
heraus 1137
kt 1134
wahrscheinlich 1132
- 1131
dra@@ 1131
food 1131
ort 1130
d-@@ 1128
wollte 1127
zusammen@@ 1127
took 1126
second 1123
zen 1123
weniger 1122
jedes 1118
ker 1118
om@@ 1118
bedeutet 1117
kleine 1117
sollte 1113
brauchen 1112
gerade 1110
energy 1109
enden 1107
lernen 1106
tu@@ 1106
sense 1105
th 1105
ol@@ 1103
video 1103
wi@@ 1102
cht 1101
hand@@ 1100
science 1100
ungs@@ 1100
means 1099
jemand 1098
men@@ 1097
u 1097
ul@@ 1097
fo@@ 1095
making 1092
vielen 1090
hal@@ 1089
har@@ 1084
ment 1082
ms 1080
menge 1079
tion@@ 1078
wei@@ 1078
getting 1077
future 1075
china 1072
become 1071
quite 1070
side 1070
15 1069
5@@ 1066
ans 1065
enough 1065
best 1063
schon 1063
building 1062
ben@@ 1060
small 1059
darauf 1057
says 1056
ag@@ 1055
probably 1051
ü@@ 1051
fünf 1049
nutzen 1049
gehirn 1048
zusammen 1047
alen 1046
besser 1043
e-@@ 1043
home 1039
ster@@ 1037
tro@@ 1036
ability 1035
ft 1032
ster 1031
half 1027
pl@@ 1027
without 1026
play 1024
tt@@ 1024
2 1023
earth 1020
cor@@ 1019
social 1019
jeden 1015
glauben 1013
left 1013
stuff 1010
chte 1009
interesting 1009
nein 1009
nach@@ 1008
ways 1007
body 1006
talking 1004
los 1002
che@@ 1000
room 996
star@@ 996
unseren 995
cken 993
set 993
tic 991
gr@@ 990
spielen 990
all@@ 987
teilen 983
africa 982
coming 982
punkt 982
ble 981
happened 981
ties 977
trans@@ 977
ci@@ 976
line 974
seen 974
hen 973
york 973
dollars 969
sah 967
ser@@ 967
halten 966
ange@@ 965
sub@@ 964
ies 959
hei@@ 958
6@@ 957
build 956
kom@@ 953
zurück@@ 953
ll@@ 952
res@@ 951
global 950
anything 944
ask 944
str@@ 943
wor@@ 942
ali@@ 940
cted 940
gel@@ 940
probleme 940
ance 938
frau 937
iert 937
keinen 937
ff@@ 935
sagten 935
kl@@ 934
lei@@ 931
goes 929
project 929
while 929
eln 926
go@@ 926
high 926
planet 926
7@@ 925
job 924
ca@@ 923
erde 922
re 922
simple 922
makes 920
pretty 920
days 919
lives 917
case 915
ju@@ 915
mer@@ 915
move 915
stand 914
gute 913
ws 913
told 911
zukunft 911
across 910
zer@@ 909
det 907
health 906
ing@@ 906
such 906
ja@@ 905
konnten 904
once 904
eigenen 903
erten 903
ungefähr 903
happen 901
problems 901
per 900
jo@@ 898
lebens@@ 898
chten 897
sage 897
car 896
living 896
tan@@ 895
&#91; 894
bad 894
basically 894
stadt 893
funktioniert 892
ors 892
&#93; 891
book 891
pro 890
helfen 889
tor@@ 888
bisschen 887
licher 887
film 886
flo@@ 886
seit 885
später 885
else 884
grund 884
saw 884
energie 882
ma 880
ges@@ 879
8@@ 878
imagine 878
lu@@ 878
yet 878
che 877
picture 877
tung 877
team 876
40 875
ones 875
rei@@ 873
licht 871
stellt 871
begann 870
ieren 870
countries 869
super@@ 869
benutzen 867
erung 866
happens 866
care 865
gesch@@ 865
the@@ 865
bei@@ 864
cy 864
dar@@ 863
8 862
ner 862
3 860
namens 860
having 859
sche 858
ari@@ 857
sts 856
family 855
mind 855
jede 854
stra@@ 854
1@@ 853
braucht 853
ku@@ 852
ausge@@ 851
ings 851
lange 851
name 851
zeigt 851
ell 850
arten 849
ged 848
gl@@ 848
hard 848
schule 847
experience 846
erzählen 845
genug 844
business 843
mor@@ 843
asked 842
sure 842
young 841
later 840
9@@ 839
ne 838
tz@@ 838
rest 837
ganz 835
gs 833
nature 833
ideas 832
rate 831
oft 830
sicher 830
ver 830
and@@ 829
19@@ 828
liebe 828
schaffen 828
learn 827
körper 826
ideen 825
y-@@ 824
dr@@ 823
pen@@ 822
ful 821
machte 821
mutter 821
ke@@ 820
kor@@ 820
test 818
tig 818
20@@ 817
ure 817
cher 813
hätte 813
inside 813
tieren 812
cu@@ 811
dung 811
cks 810
anders 807
wissenschaft 807
ßen 806
everybody 805
nu@@ 805
history 804
top 804
six 802
5 801
tische 801
ga@@ 800
process 800
schnell 800
buch 799
führen 798
pres@@ 798
ken@@ 797
&amp; 796
pu@@ 796
fl@@ 795
planeten 795
reason 795
states 795
bes@@ 794
billion 794
child 794
state 794
saying 793
over@@ 792
seiner 792
ton 792
allen 791
nothing 791
both 790
stri@@ 790
überall 790
ely 789
single 789
systems 789
ihm 788
informationen 787
s-@@ 787
sing 785
sur@@ 784
wunder@@ 783
än@@ 783
1 782
tation 782
gesagt 781
neu@@ 781
open 781
within 779
whether 778
almost 777
ry 777
et 774
hu@@ 774
4 773
des@@ 773
hören 773
looks 773
natur 773
ity 772
under@@ 772
ars 771
bevor 771
far 771
cells 770
grunde 769
bring 765
kte 765
music 765
already 762
tern 762
ell@@ 760
wrong 760
7 757
gets 757
ap@@ 756
remember 756
tige 756
neuen 755
ba@@ 754
cancer 754
keep 754
sion 754
hö@@ 753
heit 752
tre@@ 752
6 751
ki@@ 750
ven@@ 750
kten 749
guy 748
true 747
house 745
les 744
milliarden 744
possible 744
ban@@ 743
under 743
afrika 742
tigen 742
ler 740
material 740
richtig 740
0s 739
ator 738
hope 737
level 737
order 737
ches 736
heard 736
mil@@ 736
lang 735
manchmal 732
setzen 732
zed 732
beautiful 731
looked 731
els 730
gleiche 730
nennen 730
out@@ 730
pp@@ 730
tete 729
nächsten 728
gegen 726
often 725
bio@@ 724
entwickelt 724
face 724
matter 724
community 723
heraus@@ 723
yes 723
group 720
mädchen 720
gefühl 719
liches 719
ments 719
ates 718
gruppe 718
cre@@ 717
piece 715
research 715
sechs 714
ischer 713
kr@@ 713
ness 713
public 713
schließlich 713
ters 712
built 711
ling 711
read 711
ents 710
fand 710
hin 708
fr@@ 707
india 707
off@@ 707
zwei@@ 706
leuten 705
months 705
verändern 704
alt 703
amazing 703
answer 703
lebens 703
works 703
heißt 702
stück 702
fan@@ 701
head 701
late 701
united 701
god 700
col@@ 699
can@@ 698
12 697
meter 696
stories 696
ner@@ 695
seinen 695
someone 695
ber 694
lan@@ 694
teile 694
universe 694
dna 693
gehört 693
möglich 693
taking 693
ts@@ 693
ence 692
mal@@ 691
myself 691
tional 691
bur@@ 690
cke 690
anzu@@ 689
places 689
tischen 689
ung@@ 689
welt@@ 689
tur@@ 688
ved 688
verschiedene 688
seinem 687
ia 686
instead 686
ob@@ 686
sha@@ 685
words 685
education 684
ase 683
since 683
va@@ 683
projekt 682
gh@@ 681
until 681
revolution 680
gel 679
unserem 679
bewegen 678
oben 678
kat@@ 677
versch@@ 677
fu@@ 676
isn 676
ving 676
ig@@ 675
ourselves 675
species 675
wal@@ 675
mel@@ 674
treffen 674
government 673
sometimes 673
weit 673
control 671
niemand 671
fe 669
led 669
kennen 668
night 668
199@@ 667
ces 667
fühlen 667
lichkeit 667
25 666
bel@@ 666
bor@@ 666
generation 666
anderes 665
geschichten 665
turn 665
bilder 664
einzige 664
tions@@ 664
dan@@ 662
mm@@ 662
decided 661
nor@@ 661
gener@@ 660
je 660
front 659
id 659
somebody 659
happy 658
verschiedenen 657
ou@@ 655
por@@ 655
zellen 654
9 652
couple 652
bas@@ 651
situation 651
language 650
schi@@ 650
familie 649
heart 649
middle 649
tter@@ 649
rather 648
stehen 648
turns 648
stop 647
innovation 646
unternehmen 646
welche 646
v 645
eg@@ 644
wert 644
bt 643
fer 643
fähigkeit 643
besonders 642
exactly 642
nung 642
vo@@ 642
fol@@ 640
dy 639
large 639
haus 638
mer 638
sau@@ 638
är@@ 638
vater 637
wer@@ 637
ene 636
minuten 636
sprache 636
act 635
obwohl 635
darum 634
musste 634
wasn 634
antwort 633
irgendwie 633
kinds 633
word 633
everyone 632
run 632
though 632
fahr@@ 631
society 631
wo@@ 630
woman 630
yeah 630
cht@@ 629
company 629
evolution 629
cra@@ 628
ev@@ 627
itself 627
sam@@ 627
lage 626
tat 626
lich@@ 625
mother 625
ändern 624
completely 623
themselves 622
tisch 622
wenig 621
animals 620
erhalten 620
game 620
minutes 620
fil@@ 619
shows 619
ab 618
bringt 618
students 618
ations 617
bau@@ 617
kal@@ 617
möglichkeit 617
share 617
char@@ 616
elt 616
indien 616
nimmt 616
fla@@ 615
oper@@ 615
spiel@@ 615
became 614
cr@@ 614
ven 614
musik 613
news 612
cal 610
model 610
teil@@ 610
enti@@ 609
win@@ 609
zeit@@ 609
experiment 608
kamen 608
must 608
2@@ 607
0@@ 606
gesellschaft 606
irgend@@ 606
kopf 606
80 605
air 605
table 605
happening 604
hause 604
gott 603
erreichen 602
kol@@ 602
ment@@ 602
verändert 601
ce@@ 600
environment 599
learned 599
regierung 599
60 598
created 598
jedem 598
wel@@ 598
america 597
friends 597
hear 597
oil 597
sel@@ 597
study 597
fer@@ 595
huge 595
tiere 595
hren 594
ic@@ 594
herum 593
ton@@ 593
ur 593
view 593
dich 592
hours 592
sal@@ 592
sho@@ 591
tä@@ 591
ics 590
natural 590
os 590
schul@@ 590
tten 590
american 589
auszu@@ 589
auto 589
bat@@ 589
pac@@ 589
sound 589
third 589
bl@@ 588
fin@@ 588
länder 588
menschlichen 588
arm 587
dro@@ 587
end@@ 587
gebäude 586
ie@@ 586
psych@@ 586
reden 586
century 585
und@@ 584
beginnen 583
cur@@ 583
ess 583
regi@@ 583
vision 583
% 582
draußen 582
eigentlich 582
lation 582
won 582
stic 580
tiven 580
wachsen 580
disease 579
spiel 579
flu@@ 578
gene 578
up@@ 578
guys 577
sed 577
vorstellen 577
tiert 576
t-@@ 575
wieder@@ 575
falsch 574
gar@@ 574
along 573
entwickeln 573
alten 572
fish 572
isches 572
wasser@@ 572
worked 572
.000 571
gestellt 571
ele@@ 570
pan@@ 569
syn@@ 569
auto@@ 568
center 568
hätten 568
lar@@ 568
market 568
hoch 567
questions 567
patienten 566
stunden 566
area 565
bal@@ 565
figure 565
fü@@ 565
self-@@ 565
staaten 565
don@@ 564
perhaps 564
unglaublich 564
gerne 563
particular 563
/ 562
moving 562
ran@@ 562
turned 562
ß@@ 562
based 561
early 561
knew 561
ys 561
angst 560
gkeit 560
ted@@ 560
bra@@ 559
visu@@ 559
against 558
mp@@ 558
couldn 557
hoch@@ 557
lots 557
others 557
stat@@ 557
gend 556
stor@@ 556
tze 556
einander 555
formen 555
national 555
18@@ 554
erfahrung 554
gingen 554
population 553
sted 553
clo@@ 552
ka 552
learning 552
lesen 552
ocean 552
zing 552
gave 551
machine 551
stre@@ 551
during 550
hr@@ 550
known 550
pos@@ 550
krebs 549
laufen 549
onen 549
past 549
tal@@ 549
tru@@ 549
ked 548
kraft 548
position 548
lose 547
wing 547
weiter@@ 546
wirtschaft 546
darin 545
my@@ 545
online 545
takes 545
lau@@ 544
schreiben 544
0.000 543
0ern 543
cri@@ 543
kti@@ 543
lt 542
menschliche 542
plan 542
besch@@ 541
kop@@ 541
männer 541
tiv 541
cally 540
land@@ 540
bs 539
cell 539
dabei 539
frei@@ 539
scale 539
usa 539
least 538
version 538
200 537
nachdem 537
tut 537
wort 537
fangen 536
hor@@ 536
nächste 536
ture 536
yo@@ 536
cts 535
free 535
führt 535
kunst 535
fort@@ 534
produ@@ 534
schw@@ 534
flie@@ 533
mittel@@ 533
outside 533
pf@@ 533
phone 533
beiden 532
erinnern 532
mus 532
sü@@ 532
ziehen 532
aren 531
geb@@ 531
finally 530
groß 530
schaft 530
500 529
eth@@ 529
father 529
gern 529
ground 529
isi@@ 529
maschine 529
san@@ 529
eins 528
lösen 528
culture 527
gro@@ 527
key 527
patient 527
difference 526
gan@@ 526
david 525
kindern 525
ren@@ 525
wonderful 525
ying 525
einigen 524
liegt 524
schla@@ 524
schwer 524
seven 524
cing 523
close 523
deshalb 523
entire 523
needs 523
besten 522
glück 522
rec@@ 522
sto@@ 522
taken 522
met 521
ther@@ 521
letzte 520
schü@@ 520
google 519
mäch@@ 519
ec@@ 518
fanden 518
ined 518
eltern 517
media 517
möglichkeiten 517
pt 517
hab@@ 516
hol@@ 516
mes 516
physi@@ 516
poli@@ 516
anstatt 515
baby 515
krei@@ 515
passieren 515
dri@@ 514
kaufen 514
universum 514
unten 514
verhalten 514
erkennen 513
force 513
pas@@ 513
fra@@ 512
green 511
hl@@ 511
krieg 510
modell 510
dingen 509
gre@@ 509
thousands 509
versucht 509
chance 508
fre@@ 508
kultur 508
tage 508
verbunden 508
aller 507
rück@@ 507
tt 507
kar@@ 506
mache 506
powerful 506
zuerst 506
ders 505
wissenschaftler 505
cool 504
gene@@ 504
lö@@ 504
ini@@ 503
parts 503
mü@@ 502
nahmen 502
selbst@@ 502
uni@@ 502
whatever 502
stage 501
yourself 501
chter 500
len 500
bekommt 499
changed 499
image 499
labor 499
net 499
seeing 499
software 499
del@@ 498
ori@@ 498
enen 497
klar 497
ün@@ 497
aten 496
augen 496
cost 496
grow 496
junge 496
spezi@@ 496
beginning 495
prozess 495
walk 495
behind 494
ern@@ 494
given 494
stellte 494
certain 493
leave 493
wh@@ 493
wollten 493
ani@@ 492
sive 492
bildung 491
eyes 491
gang 491
ant@@ 490
bom@@ 490
ls 490
pped 490
stoff 490
west 490
fly 489
forschung 489
innerhalb 489
bon@@ 488
gte 488
size 488
spend 488
web 488
wind 488
ien 487
kre@@ 487
audience 486
beste 486
far@@ 486
sei 486
tragen 486
vortrag 486
gemeinschaft 485
low 485
nachdenken 485
parents 485
amount 484
bil@@ 484
zuvor 484
ard 483
gebaut 483
nan@@ 483
street 483
top@@ 483
bre@@ 482
death 482
easy 482
pal@@ 482
sei@@ 482
full 481
terms 481
18 480
hiv 480
ism 480
enten 479
neuro@@ 479
region 479
vis@@ 479
alter 478
interested 478
zahlen 478
zei@@ 478
,@@ 477
bro@@ 477
gebracht 477
ide@@ 477
tages 477
cannot 476
code 476
deal 476
economic 476
normal 476
blu@@ 475
buy 475
eight 475
lehr@@ 475
anti@@ 474
ats 474
bewegung 474
fis@@ 474
sor@@ 474
air@@ 473
neu 473
scho@@ 473
tter 473
boden 472
cap@@ 472
cy@@ 472
gemein@@ 472
kin@@ 472
books 471
common 471
fac@@ 471
mechan@@ 471
wahr 471
hy@@ 470
indi@@ 470
jemals 470
pla@@ 470
tief@@ 470
week 470
ckt 469
direkt 469
felt 469
getan 469
äl@@ 469
dern 468
mission 468
weg@@ 468
cho@@ 467
difficult 467
field 466
sieben 466
tors 466
wohl@@ 466
zweite 466
ach@@ 465
began 465
glücklich 465
kosten 465
local 465
vari@@ 465
betrachten 464
black 464
dessen 464
reihe 464
drei@@ 463
gone 463
unterschied 463
bin@@ 462
cities 462
ship 461
taten 461
verwenden 461
ame 460
dete 460
jungen 460
om 460
zeug 460
ziert 460
10@@ 459
arti@@ 459
dau@@ 459
nahm 458
suchen 458
baren 457
bereit 457
hands 457
medi@@ 457
ously 457
ser 457
ust 457
überhaupt 457
friend 456
ill@@ 456
rau@@ 456
spi@@ 456
hlt 455
value 455
wegen 455
benutzt 454
eller 454
lehrer 454
sterben 454
beginnt 453
fel@@ 453
hold 453
jobs 453
ned 453
needed 453
publikum 453
schä@@ 453
0-@@ 452
blue 452
lösung 452
paper 452
recht 452
ales 451
longer 451
nis 451
simply 451
son@@ 451
tte 451
bare 450
ess@@ 450
wusste 450
box 449
cting 448
lieben 448
minute 448
realized 448
spent 448
autos 447
cher@@ 447
damals 447
dank 447
either 447
erschaffen 447
humans 447
incredible 447
ns 447
sum@@ 447
gri@@ 446
ologie 446
wir@@ 446
meines 445
ris@@ 445
kü@@ 444
sin@@ 444
south 444
chan@@ 443
genommen 443
sex 443
step 443
tried 443
pat@@ 442
gleich 441
größte 441
bank 440
born 440
dre@@ 440
belie@@ 439
dat@@ 439
dly 439
enth@@ 439
fliegen 439
hey 439
normalerweise 439
forward 438
growth 438
interessant 438
kri@@ 438
pe 438
pur@@ 438
atom@@ 437
aufge@@ 437
bereits 437
fru@@ 437
squ@@ 437
ther 437
hnen 436
komplett 436
len@@ 436
mittel 436
offensichtlich 436
surface 436
feet 435
haus@@ 435
hü@@ 435
muster 435
posi@@ 435
quickly 435
sozi@@ 435
tend 435
cer@@ 434
sitting 434
companies 433
watch 433
woche 433
wür@@ 433
ality 432
clear 432
führ@@ 432
gleich@@ 432
gleichen 431
ice 431
kes 431
white 431
ß 431
asi@@ 430
complex 430
micro@@ 430
roboter 430
fal@@ 429
girl 429
prin@@ 429
a-@@ 428
arch@@ 428
fri@@ 428
lost 428
structure 428
bes 427
enz 427
gefunden 427
identi@@ 427
kur@@ 427
plan@@ 427
source 427
tatsache 427
verwendet 427
mas@@ 426
wider@@ 426
0,000 425
allem 425
bel 425
fro@@ 425
knowledge 425
lang@@ 425
reise 425
straße 425
wouldn 425
growing 424
mikro@@ 424
od@@ 424
anfang 423
miles 423
sea 423
cker 422
fel 422
il 422
pay 422
religion 422
rie@@ 422
genden 421
john 421
lung 421
oren 421
tin@@ 421
virus 421
zer 421
ey 420
inten@@ 420
län@@ 420
mag@@ 420
refle@@ 420
sun 420
anzahl 419
college 419
equ@@ 419
kurz 419
sting 419
anfangen 418
mussten 418
scheint 418
sehe 418
ta 418
11 417
markt 417
giving 416
mine 416
political 416
poor 416
technologies 416
personal 415
schwier@@ 415
sinn 415
fle@@ 414
gas 414
reality 414
viel@@ 414
wol@@ 414
198@@ 413
aussehen 413
eat 413
o-@@ 413
span@@ 413
economy 412
fun 412
positive 412
vereinigten 412
zahl 412
zen@@ 412
amerika 411
animal 411
geist 411
la 411
links 411
weeks 411
ative 410
freunde 410
histor@@ 410
mati@@ 410
stoff@@ 410
tat@@ 410
testen 410
tives 410
ball 409
behavior 409
board 409
cked 409
designer 409
diejenigen 409
entwicklung 409
gesicht 409
sil@@ 409
u.s. 409
university 409
haupt@@ 408
morning 408
opportunity 408
spricht 408
struktur 408
systeme 408
tau@@ 408
,000 407
cking 407
funktionieren 407
hinter 407
theorie 407
bot@@ 406
gei@@ 406
gers 406
pra@@ 406
technologien 406
veränderung 406
brought 405
changes 405
developed 405
gten 405
monate 405
yp@@ 405
zes 405
gegen@@ 404
na 404
student 404
körper@@ 403
museum 403
eli@@ 402
firma 402
telling 402
wall 402
wrote 402
wären 402
acht 401
anyone 401
größe 401
patients 401
scientists 401
cal@@ 400
dachten 400
sig@@ 400
wochen 400
ße 400
ang@@ 399
fing 399
groß@@ 399
ig 399
ill 399
jahrhundert 399
soziale 399
70 398
bitte 398
cul@@ 398
fahren 398
starting 398
tical 398
write 398
äu@@ 398
bleiben 397
colle@@ 397
cut 397
lie@@ 397
mag 397
setzt 397
coun@@ 396
genannt 396
gung 396
las@@ 396
namen 396
oni@@ 396
plötzlich 396
program 396
schrieb 396
theory 396
feeling 395
findet 395
spr@@ 395
han@@ 394
90 393
ffe 393
holen 393
images 393
lab 393
nice 393
sters 393
vers 393
areas 392
demon@@ 392
law 392
thema 392
ham@@ 391
hilfe 391
ning 391
verbindung 391
cs 390
fragte 390
gives 390
hinter@@ 390
richtung 390
sy@@ 390
bed 389
cam@@ 389
ched 389
grün@@ 389
karte 389
pun@@ 389
stimmt 389
blo@@ 388
climate 388
ihres 388
mate 388
morgen 388
sicher@@ 388
tho@@ 388
ah 387
ha 387
hn@@ 387
radi@@ 387
understanding 387
wen@@ 387
cat@@ 386
geboren 386
investi@@ 386
operation 386
politik 386
ppe 386
selben 386
ze@@ 386
yed 385
aler 384
ama@@ 384
attention 384
denkt 384
discovered 384
general 384
glob@@ 384
herauszufinden 384
modern 384
nte 384
wand@@ 384
ziel 384
dig 383
erst 383
erzählt 383
glück@@ 383
computer@@ 382
fied 382
ley 382
mt 382
potential 382
pr@@ 382
prote@@ 382
short 382
absolut 381
cli@@ 381
literally 381
swe@@ 381
tools 381
cars 380
deep 380
elektr@@ 380
impro@@ 380
rat@@ 380
speak 380
cket 379
guten 379
head@@ 379
she@@ 379
einfache 378
ente 378
forms 378
gesundheit 378
messen 378
mm 378
pping 378
schu@@ 378
seems 378
ths 378
argu@@ 377
eigene 377
gewal@@ 377
lam@@ 377
lässt 377
machten 377
neues 377
non-@@ 377
numbers 377
rech@@ 377
wil@@ 377
challenge 376
dlich 376
dr. 376
fallen 376
gegeben 376
größten 376
kli@@ 376
mus@@ 376
playing 376
produce 376
komme 375
moral 375
nachzudenken 375
phy@@ 375
stelle 375
wahl 375
wand 375
zieren 375
average 374
begannen 374
fully 374
gezeigt 374
main 374
realize 374
tas@@ 374
vel@@ 374
bevölkerung 373
entfernt 373
infe@@ 373
ländern 373
plat@@ 373
bekam 372
bist 372
ently 372
ige 372
inv@@ 372
map 372
passierte 372
sli@@ 372
access 371
billi@@ 371
linie 371
sorgen 371
verste@@ 371
diagno@@ 370
died 370
ented 370
erklären 370
hlen 370
ismus 370
kle@@ 370
tö@@ 370
verlassen 370
voll 370
ad 369
clu@@ 369
dom@@ 369
gelernt 369
herum@@ 369
mars 369
musi@@ 369
schön 369
stimme 369
tät 369
vent@@ 369
zt 369
absolutely 368
changing 368
ese 368
nei@@ 368
sing@@ 368
16 367
bottom 367
est@@ 367
ical 367
multi@@ 367
north 367
ore 367
schaut 367
tic@@ 367
bücher 366
egal 366
krankheit 366
movement 366
running 366
uses 366
voll@@ 366
dru@@ 365
girls 365
kel 365
oberfläche 365
physical 365
treten 365
zo@@ 365
developing 364
ht 364
hundreds 364
pul@@ 364
shape 364
alone 363
auth@@ 363
digital 363
individual 363
pflanzen 363
spo@@ 363
traum 363
tun@@ 363
zentr@@ 363
afghanistan 362
chi@@ 362
cop@@ 362
english 362
mathemati@@ 362
wohn@@ 362
ansehen 361
creating 361
ement 361
millions 361
result 361
ss@@ 361
ker@@ 360
kontrolle 360
leben@@ 360
lebt 360
nacht 360
nobody 360
program@@ 360
anderer 359
cent 359
gebiet 359
laden 359
medical 359
teten 359
beziehung 358
chris 358
deli@@ 358
development 358
london 358
orte 358
schle@@ 358
tex@@ 358
analy@@ 357
flug@@ 357
ology 357
quality 357
schwierig 356
studie 356
computers 355
hälfte 355
materials 355
recently 355
sch 355
compassion 354
eu@@ 354
ierte 354
town 354
ums 354
lin 353
mental 353
tier 353
wn 353
digen 352
focus 352
ktion 352
möglichen 352
product 352
produzieren 352
sicht@@ 352
solution 352
umgebung 352
wish 352
brachte 351
flü@@ 351
gruppen 351
luft 351
niedri@@ 351
nten 351
connected 350
cou@@ 350
dungen 350
gefü@@ 350
lea@@ 350
showed 350
zelle 350
300 349
lat@@ 349
offen@@ 349
ppen 349
relationship 349
spiele 349
tal 349
chinese 348
cin@@ 348
listen 348
mat@@ 348
tausende 348
verbinden 348
blood 347
cro@@ 347
designed 347
einge@@ 347
freund 347
genauso 347
knows 347
major 347
mögen 347
zä@@ 347
anybody 346
enor@@ 346
industry 346
kid 346
proje@@ 346
studenten 346
uren 346
vol@@ 346
class 345
ctions 345
kleines 345
miteinander 345
tiny 345
arbeitet 344
krankheiten 344
mieren 344
obviously 344
seem 344
seiten 344
sicherheit 344
sonne 344
städte 344
völlig 344
dark 343
east 343
fall@@ 343
haven 343
hi 343
interessan@@ 343
moved 343
schritt 343
tics 343
chen@@ 342
ingly 342
preis 342
save 342
sie@@ 342
soon 342
tor 342
bewegt 341
ed@@ 341
hast 341
industri@@ 341
likely 341
nation 341
support 341
talked 341
versuche 341
western 341
üb@@ 341
dic@@ 340
ften 340
issue 340
park 340
— 340
aids 339
begin 339
beide 339
ebene 339
extra@@ 339
fli@@ 339
fähigkeiten 339
herausforderung 339
incredibly 339
jemanden 339
log@@ 339
security 339
wäl@@ 339
öl 339
allow 338
available 338
especially 338
hoffe 338
hon@@ 338
person@@ 338
pli@@ 338
ball@@ 337
bewusst 337
dete@@ 337
essen@@ 337
high-@@ 337
liter@@ 337
sprach 337
training 337
writing 337
zehn 337
ared 336
fische 336
human@@ 336
network 336
type 336
197@@ 335
arbeitete 335
bran@@ 335
cles 335
mot@@ 335
basis 334
gerät 334
happiness 334
richard 334
talks 334
becomes 333
bekannt 333
dynam@@ 333
fehl@@ 333
fir@@ 333
orten 333
richtige 333
solve 333
appe@@ 332
beyond 332
bru@@ 332
ca 332
effect 332
größer 332
lived 332
spezies 332
funktion@@ 331
impact 331
leu@@ 331
perfect 331
present 331
proz@@ 331
schreck@@ 331
techni@@ 331
ve@@ 331
aff@@ 330
explain 330
ining 330
onto 330
sicht 330
steht 330
worth 330
continu@@ 329
dead 329
ession 329
games 329
gue 329
hour 329
mitte 329
pil@@ 329
schöne 329
sus@@ 329
teilt 329
tzen 329
überrasch@@ 329
app@@ 328
bigger 328
dem@@ 328
gest@@ 328
office 328
please 328
wat@@ 328
action 327
gedanken 327
guess 327
resources 327
sionen 327
unseres 327
bab@@ 326
blin@@ 326
nt 326
foto 325
lab@@ 325
passen 325
realität 325
reasons 325
smo@@ 325
wann 325
1,@@ 324
algorith@@ 324
depen@@ 324
drive 324
kleiner 324
künstler 324
regeln 324
respe@@ 324
schlecht 324
zimmer 324
active 323
beim 323
europe 323
fear 323
gesundheits@@ 323
scientific 323
sol@@ 323
tel 323
xi@@ 323
zeiten 323
ak 322
desig@@ 322
dig@@ 322
dou@@ 322
ff 322
ignor@@ 322
lines 322
mod@@ 322
ord@@ 322
strong 322
device 321
ergebnis 321
groups 321
nation@@ 321
putting 321
scht 321
send 321
verloren 321
wahr@@ 321
bereich 320
liert 320
mass 320
schließen 320
ör@@ 320
biolog@@ 319
tab@@ 319
tells 319
bill 318
essi@@ 318
gal@@ 318
les@@ 318
stand@@ 318
werte 318
ast 317
eless 317
individu@@ 317
ingenie@@ 317
meet 317
quad@@ 317
rules 317
ute 317
boy 316
ise 316
ot 316
schools 316
stan@@ 316
14 315
ced 315
color 315
gende 315
hle 315
international 315
kinder@@ 315
med 315
soll 315
fälle 314
gesprochen 314
redu@@ 314
road 314
special 314
teach 314
wachstum 314
zeige 314
hoffnung 313
lieren 313
sions 313
solar 313
thi@@ 313
vie@@ 313
voice 313
vorher@@ 313
ye@@ 313
alte 312
hun@@ 312
pictures 312
q@@ 312
roll@@ 312
similar 312
sonnen@@ 312
zentrum 312
cle@@ 311
europa 311
hel@@ 311
several 311
towards 311
mitgefühl 310
nutz@@ 310
ssen 310
activity 309
demo@@ 309
involved 309
issues 309
kapit@@ 309
klasse 309
male 309
nachhal@@ 309
teachers 309
virtu@@ 309
door 308
fas@@ 308
gol@@ 308
großartig 308
hit 308
ina 308
interessiert 308
ny 308
projects 308
ass 307
außer 307
bedro@@ 307
bli@@ 307
break 307
cla@@ 307
klu@@ 307
musli@@ 307
ozean 307
particularly 307
port@@ 307
risk 307
rolle 307
rus@@ 307
sachen 307
schei@@ 307
schulen 307
speed 307
stische 307
village 307
wählen 307
ßt 307
asking 306
dy@@ 306
geworden 306
indeed 306
liber@@ 306
new@@ 306
partner 306
sell 306
sl@@ 306
solche 306
suddenly 306
teri@@ 306
hop@@ 305
sitzen 305
sozialen 305
weitere 305
basic 304
eye 304
mini@@ 304
resi@@ 304
robot 304
symme@@ 304
winzi@@ 304
wussten 304
ble@@ 303
explo@@ 303
sahen 303
sm@@ 303
cha@@ 302
sounds 302
back@@ 301
entscheidungen 301
evidence 301
finger 301
folgen 301
foot@@ 301
fun@@ 301
industrie 301
list 301
plant 301
ray 301
ressourcen 301
tan 301
typ 301
arb@@ 300
bet@@ 300
carbon 300
certainly 300
erhö@@ 300
hundred 300
klas@@ 300
langen 300
lle 300
mc@@ 300
medien 300
mic 300
ped 300
prä@@ 300
truth 300
versuchte 300
effizi@@ 299
esti@@ 299
nine 299
nisse 299
nämlich 299
sent 299
ward 299
ären 299
15@@ 298
ching 298
econom@@ 298
form@@ 298
page 298
sammeln 298
spro@@ 298
website 298
wä@@ 298
außergewöhn@@ 297
definition 297
formed 297
hält 297
iran 297
message 297
monaten 297
object 297
ra 297
recor@@ 297
sand 297
spaß 297
stay 297
ank@@ 296
bessere 296
fehler 296
kam@@ 296
sun@@ 296
umwelt 296
wait 296
zugang 296
anyway 295
ators 295
cen@@ 295
choice 295
fisch 295
professor 295
smart 295
starts 295
wahrheit 295
wow 295
24 294
geschrieben 294
grand@@ 294
heiten 294
hospital 294
ots 294
our@@ 294
programm 294
qui@@ 294
rela@@ 294
star 294
ures 294
wants 294
400 293
ath@@ 293
brei@@ 293
down@@ 293
drücken 293
ergebnisse 293
gaben 293
month 293
plasti@@ 293
row 293
trieben 293
blick 292
brea@@ 292
cations 292
everywhere 292
gs@@ 292
herz@@ 292
journ@@ 292
kab@@ 292
lon@@ 292
mathematik 292
ren 292
sollen 292
sprachen 292
walking 292
13 291
dec@@ 291
exc@@ 291
fire 291
manche 291
mark 291
punkte 291
satz 291
shu@@ 291
ss 291
tou@@ 291
wes@@ 291
zier@@ 291
aufgabe 290
eher 290
examples 290
firmen 290
gele@@ 290
interessante 290
plants 290
stimmen 290
wert@@ 290
aufzu@@ 289
erlaubt 289
frequ@@ 289
großartige 289
kö@@ 289
matic 289
platz 289
tier@@ 289
tik 289
verlieren 289
äch@@ 289
dd@@ 288
dorthin 288
ligh@@ 288
tel@@ 288
zero 288
exi@@ 287
fine 287
ines 287
interest 287
japan 287
medicine 287
reach 287
showing 287
wichtige 287
ationen 286
bul@@ 286
en-@@ 286
exciting 286
further 286
ik 286
imm@@ 286
loo@@ 286
menschheit 286
ming 286
pain@@ 286
pattern 286
peace 286
raus 286
ready 286
san 286
skin 286
vertrauen 286
ähnlich 286
allein 285
ander@@ 285
ature 285
edi@@ 285
fest@@ 285
größ@@ 285
notice 285
ordnung 285
perfe@@ 285
riesige 285
store 285
intervie@@ 284
leg@@ 284
lied 284
nennt 284
ras@@ 284
sieren 284
steu@@ 284
196@@ 283
befinden 283
buchstäblich 283
democracy 283
doch 283
einzelne 283
entdecken 283
erfolg 283
ft@@ 283
geschwindigkeit 283
ket@@ 283
kontin@@ 283
mul@@ 283
self 283
zeich@@ 283
add 282
develop 282
großer 282
irgendwo 282
journey 282
köni@@ 282
nuclear 282
ony 282
ow@@ 282
produkt 282
ral 282
ration 282
spe@@ 282
totally 282
verb@@ 282
überleben 282
ably 281
biggest 281
danach 281
eit 281
follow 281
foot 281
gekommen 281
materialien 281
measure 281
service 281
tod 281
ants 280
ases 280
deten 280
er-@@ 280
extraordinary 280
gewinnen 280
glichen 280
grew 280
hen@@ 280
hil@@ 280
hit@@ 280
nachrichten 280
sit 280
sper@@ 280
ständig 280
main@@ 279
named 279
period 279
berech@@ 278
ehr@@ 278
erreicht 278
erstens 278
grundle@@ 278
kn@@ 278
kunst@@ 278
ließ 278
milli@@ 278
ops 278
selts@@ 278
sh 278
sky 278
teacher 278
trau@@ 278
verstanden 278
vier@@ 278
among 277
beri@@ 277
comp@@ 277
druck 277
ended 277
geschäft 277
grenzen 277
klein@@ 277
mei@@ 277
rein@@ 277
sobald 277
strei@@ 277
val@@ 277
voller 277
bedeu@@ 276
dance 276
dest 276
dir 276
grad 276
hl 276
hung 276
klei@@ 276
mes@@ 276
peri@@ 276
pick 276
sou@@ 276
sym@@ 276
tam@@ 276
techn@@ 276
ans@@ 275
cru@@ 275
demokratie 275
globalen 275
jen@@ 275
kil@@ 275
lead 275
not@@ 275
poverty 275
schaften 275
temp@@ 275
arab@@ 274
cl@@ 274
eventually 274
fron@@ 274
high@@ 274
igen 274
kultur@@ 274
los@@ 274
repli@@ 274
rise 274
studien 274
tzung 274
wichtiger 274
ähn@@ 274
äre 274
ages 273
berei@@ 273
ctive 273
ences 273
fig@@ 273
on-@@ 273
organization 273
pit@@ 273
sofort 273
stern 273
wards 273
1.@@ 272
acc@@ 272
buildings 272
cultural 272
eng@@ 272
erstaunlich 272
frü@@ 272
hom@@ 272
interak@@ 272
non@@ 272
points 272
posed 272
standing 272
audi@@ 271
aufmerksamkeit 271
band 271
benutz@@ 271
ereig@@ 271
except 271
extremely 271
glo@@ 271
largest 271
meilen 271
meinung 271
samen 271
stellten 271
tere 271
öffnen 271
alized 270
approach 270
bilden 270
bus@@ 270
camera 270
cause 270
inst@@ 270
island 270
nis@@ 270
schwer@@ 270
success 270
tagen 270
visual 270
zeichnet 270
chines@@ 269
chirur@@ 269
ear@@ 269
essentially 269
gehirns 269
globale 269
grund@@ 269
herstellen 269
innova@@ 269
mö@@ 269
netz@@ 269
ologen 269
one-@@ 269
rich 269
shot 269
usually 269
watching 269
zeichnen 269
arzt 268
aussieht 268
bestimmten 268
creative 268
gas@@ 268
hinzu@@ 268
ian 268
j 268
kohlen@@ 268
obser@@ 268
path@@ 268
power@@ 268
products 268
schrei@@ 268
stration 268
sä@@ 268
ursprün@@ 268
vorstellung 268
übrigens 268
17 267
bö@@ 267
continue 267
kranken@@ 267
lege 267
objects 267
roman@@ 267
rop@@ 267
verbessern 267
öl@@ 267
aging 266
ast@@ 266
besu@@ 266
bühne 266
cies 266
ish 266
lü@@ 266
massive 266
older 266
reich 266
sische 266
stoffe 266
tically 266
verletz@@ 266
werkzeuge 266
ank 265
gew@@ 265
gewicht 265
ingen 265
instru@@ 265
ll 265
organisation 265
results 265
series 265
spread 265
tiger 265
to-@@ 265
trees 265
bedeutung 264
beispiele 264
iger 264
nenne 264
organ@@ 264
paul 264
schnitt 264
stars 264
station 264
win 264
x-@@ 264
cian 263
electr@@ 263
electricity 263
faces 263
kul@@ 263
kämpfen 263
pol@@ 263
repor@@ 263
safe 263
stam@@ 263
studi@@ 263
verwen@@ 263
wan@@ 263
wed 263
domin@@ 262
ght 262
großes 262
konzentrieren 262
serious 262
sexu@@ 262
somewhere 262
treiben 262
washington 262
west@@ 262
brains 261
einfluss 261
heben 261
minds 261
sichti@@ 261
tly 261
touch 261
wün@@ 261
zü@@ 261
clin@@ 260
cover 260
doctor 260
gesetzt 260
gewesen 260
haut 260
legen 260
medizin 260
red@@ 260
schneller 260
schüler 260
text 260
tigt 260
vergessen 260
ier@@ 259
impossible 259
kno@@ 259
movie 259
poin@@ 259
schn@@ 259
square 259
betra@@ 258
conver@@ 258
effe@@ 258
expect 258
gesamte 258
has@@ 258
hundert 258
illu@@ 258
models 258
mom 258
nahrung 258
oli@@ 258
ordin@@ 258
schlechte 258
somehow 258
spreche 258
studies 258
tree 258
umwelt@@ 258
bewusstsein 257
dent 257
emp@@ 257
fair 257
flow 257
geschlossen 257
hände 257
leaders 257
nar@@ 257
pers 257
schie@@ 257
tom@@ 257
unt 257
berg 256
crazy 256
erstaun@@ 256
gewalt 256
herausfinden 256
lern 256
minister 256
neun 256
papier 256
satelli@@ 256
tigkeit 256
vation 256
charles 255
fest 255
halte 255
higher 255
larger 255
rechte 255
shi@@ 255
thousand 255
traf 255
untersuchen 255
wife 255
öff@@ 255
ach 254
ands 254
blind 254
dad 254
details 254
energi@@ 254
erinnere 254
expensive 254
facebook 254
killed 254
maschinen 254
meaning 254
nicht-@@ 254
prei@@ 254
qualität 254
screen 254
tele@@ 254
thre@@ 254
transpar@@ 254
trotzdem 254
videos 254
african 253
amerikaner 253
amerikanischen 253
attra@@ 253
dun@@ 253
farbe 253
fügen 253
gewöhn@@ 253
israel 253
kauf@@ 253
organisi@@ 253
private 253
scher 253
shown 253
volle 253
äumen 253
al-@@ 252
allowed 252
co2 252
engineering 252
liste 252
reser@@ 252
retten 252
sorts 252
trust 252
vergangenheit 252
worte 252
above 251
alität 251
argument 251
bestimmte 251
einzigen 251
erzähl@@ 251
erzählte 251
feld 251
finding 251
hau@@ 251
pieces 251
site 251
tzt 251
zweiten 251
ang 250
architecture 250
conditions 250
ei 250
fä@@ 250
including 250
ität 250
leicht 250
mensch 250
omen 250
sar@@ 250
upon 250
video@@ 250
written 250
beauty 249
biology 249
f-@@ 249
ful@@ 249
fühlte 249
gearbeitet 249
objekt 249
provi@@ 249
reading 249
runter 249
spa@@ 249
therefore 249
zin@@ 249
armut 248
ckte 248
führte 248
hörte 248
jun@@ 248
rel@@ 248
sekunden 248
stes 248
traditional 248
aspe@@ 247
chtet 247
connect 247
crisis 247
digung 247
dischen 247
entschied 247
ered 247
excited 247
gos 247
income 247
ium 247
nete 247
ods 247
tively 247
verkaufen 247
200@@ 246
cep@@ 246
dige 246
exp@@ 246
gor@@ 246
heli@@ 246
individuals 246
lli@@ 246
ney 246
production 246
quar@@ 246
schicken 246
song 246
tom 246
typ@@ 246
anschauen 245
bacteria 245
besteht 245
depres@@ 245
di 245
din@@ 245
eigenschaften 245
entweder 245
fluss 245
freedom 245
früher 245
gesam@@ 245
goal 245
hä@@ 245
meeting 245
myster@@ 245
party 245
press 245
produziert 245
rat 245
rich@@ 245
stei@@ 245
stu@@ 245
supposed 245
swi@@ 245
taught 245
web@@ 245
blas@@ 244
bun@@ 244
complicated 244
content 244
daten@@ 244
dream 244
handeln 244
hypo@@ 244
ically 244
kannst 244
monat 244
mä@@ 244
perspective 244
respon@@ 244
thes@@ 244
trag@@ 244
truly 244
us-@@ 244
central 243
dorf 243
drugs 243
families 243
getroffen 243
hielt 243
hing 243
llt 243
shor@@ 243
st-@@ 243
treatment 243
wander@@ 243
wär@@ 243
2000 242
abstra@@ 242
beteili@@ 242
extrem 242
familien 242
famous 242
fundamental 242
hervor@@ 242
hyper@@ 242
medikamente 242
reali@@ 242
sowohl 242
spielt 242
tool 242
tungen 242
violence 242
zumindest 242
bodies 241
brechen 241
combin@@ 241
date 241
dge 241
drug 241
erwar@@ 241
faster 241
favorite 241
gutes 241
hea@@ 241
healthy 241
kill 241
seconds 241
tent 241
tv 241
12@@ 240
45 240
communities 240
fantastic 240
flugzeug 240
frühen 240
genes 240
herr@@ 240
himmel 240
kompli@@ 240
kämp@@ 240
motor 240
nam@@ 240
steigen 240
stisch 240
strom 240
struc@@ 240
tren@@ 240
ät 240
armen 239
auswirkungen 239
bald 239
bing 239
cent@@ 239
einstein 239
einzu@@ 239
exper@@ 239
fight 239
geri@@ 239
hört 239
logi@@ 239
richtigen 239
role 239
rou@@ 239
schwe@@ 239
slo@@ 239
stieg 239
stän@@ 239
zy@@ 239
arbeits@@ 238
ash 238
compu@@ 238
erinn@@ 238
fotos 238
geschaffen 238
gründe 238
hot 238
lands 238
math 238
neben 238
pfen 238
reg@@ 238
schützen 238
stör@@ 238
terri@@ 238
theater 238
trä@@ 238
alive 237
apo@@ 237
balance 237
gewis@@ 237
himself 237
humanity 237
kern 237
krea@@ 237
letztes 237
matisch 237
nä@@ 237
optimi@@ 237
radio 237
reich@@ 237
scan@@ 237
transpor@@ 237
verrückt 237
artikel 236
emotional 236
energie@@ 236
gesi@@ 236
hole 236
ils 236
ly@@ 236
michael 236
n-@@ 236
neurons 236
ober@@ 236
oc@@ 236
response 236
ries 236
spek@@ 236
uhr 236
unglaubliche 236
well-@@ 236
außerhalb 235
bit@@ 235
conven@@ 235
denk@@ 235
dritte 235
freiheit 235
lern@@ 235
obje@@ 235
schlagen 235
stischen 235
tin 235
werfen 235
worse 235
zz@@ 235
bemerkens@@ 234
bus 234
cases 234
chtung 234
graph@@ 234
künst@@ 234
meant 234
mier@@ 234
original 234
range 234
september 234
sicherlich 234
staat@@ 234
straßen 234
successful 234
throughout 234
warten 234
werk@@ 234
wesen 234
za@@ 234
zation 234
ade 233
although 233
architektur 233
betrachtet 233
block 233
botschaft 233
christ@@ 233
dor@@ 233
fy 233
genome 233
klein 233
le-@@ 233
lernte 233
lies 233
phil@@ 233
skills 233
ty@@ 233
unmöglich 233
van@@ 233
bakterien 232
bedingungen 232
bunch 232
dreht 232
ky 232
ph 232
price 232
produkte 232
zeuge 232
aid 231
anda 231
babies 231
fühlt 231
gh 231
inclu@@ 231
langsam 231
machines 231
mehr@@ 231
ners 231
pain 231
phones 231
physics 231
que 231
rele@@ 231
skelet@@ 231
sohn 231
stunde 231
univer@@ 231
worüber 231
35 230
arbeite 230
beru@@ 230
büro 230
drehen 230
entdeckt 230
ep@@ 230
gesetz 230
herzustellen 230
kept 230
malaria 230
mur@@ 230
pflan@@ 230
policy 230
spieler 230
stecken 230
tain 230
17@@ 229
acy 229
earlier 229
einhalb 229
entscheiden 229
fore@@ 229
gehirn@@ 229
gotten 229
konsu@@ 229
landes 229
military 229
rechts 229
schein@@ 229
three-@@ 229
weren 229
wonder 229
actual 228
beings 228
bieten 228
boo@@ 228
clearly 228
dan 228
fein@@ 228
gewinn@@ 228
ima@@ 228
nächstes 228
repres@@ 228
riesigen 228
strange 228
tar@@ 228
behandlung 227
bürger@@ 227
chem@@ 227
concept 227
context 227
dist@@ 227
einzigarti@@ 227
erwarten 227
james 227
mani@@ 227
patterns 227
philosop@@ 227
recognize 227
rights 227
smaller 227
spei@@ 227
tivity 227
verfolgen 227
vic@@ 227
was@@ 227
zustand 227
zw@@ 227
änder@@ 227
$ 226
adop@@ 226
americans 226
era 226
flüs@@ 226
george 226
glass 226
kamera 226
medizin@@ 226
unded 226
vely 226
after@@ 225
alisi@@ 225
choose 225
consi@@ 225
cycle 225
familiar 225
frieden 225
gehe 225
genen 225
inspiri@@ 225
k-@@ 225
niemals 225
print 225
progress 225
reaktion 225
schl@@ 225
schönheit 225
veröffent@@ 225
visi@@ 225
waste 225
au 224
hydro@@ 224
hän@@ 224
lä@@ 224
ror 224
samm@@ 224
spitze 224
standard 224
suche 224
typen 224
universität 224
wood 224
600 223
belo@@ 223
connection 223
consider 223
costs 223
enter 223
ero@@ 223
fund@@ 223
gedacht 223
gleichzeitig 223
invented 223
listening 223
mme 223
passt 223
record 223
schönen 223
sensor@@ 223
siert 223
thanks 223
ttern 223
values 223
allows 222
anywhere 222
divi@@ 222
dness 222
fei@@ 222
fällen 222
greater 222
insi@@ 222
kontrollieren 222
konzentri@@ 222
lösungen 222
nes 222
part@@ 222
slow 222
solutions 222
stark 222
treat 222
unterstützen 222
waiting 222
150 221
ack 221
agi@@ 221
contribu@@ 221
desto 221
eigen@@ 221
einfachen 221
entschieden 221
foundation 221
got@@ 221
green@@ 221
hilft 221
hunderte 221
jahrzehn@@ 221
lie 221
meeres@@ 221
osten 221
plastic 221
tür 221
umzu@@ 221
weight 221
chung 220
clean 220
draw 220
ender 220
ets 220
fanta@@ 220
für@@ 220
läuft 220
magic 220
ory 220
president 220
sches 220
säu@@ 220
trifft 220
va 220
verbringen 220
vielfalt 220
weiterhin 220
wör@@ 220
biologie 219
bren@@ 219
daraus 219
driving 219
falls 219
freund@@ 219
ganzes 219
ited 219
netzwerk 219
projekte 219
publi@@ 219
scre@@ 219
sischen 219
solar@@ 219
stream 219
ai@@ 218
decisions 218
depression 218
endlich 218
erfolgreich 218
flying 218
folgt 218
gü@@ 218
interesse 218
jer@@ 218
llen 218
provide 218
rob@@ 218
signal 218
sinne 218
stein 218
stick 218
surgery 218
train 218
weib@@ 218
alisieren 217
arbei@@ 217
cated 217
critical 217
dangerous 217
effective 217
ek 217
ends 217
forest 217
gras@@ 217
moral@@ 217
performance 217
robots 217
thomas 217
wers 217
195@@ 216
effekt 216
ember 216
england 216
erlauben 216
feed 216
grade 216
gste 216
held 216
komplex@@ 216
lok@@ 216
ogra@@ 216
re-@@ 216
related 216
seh@@ 216
studio 216
sustainable 216
trade 216
travel 216
aware 215
beziehungen 215
boys 215
conser@@ 215
entfern@@ 215
erstaunliche 215
experiments 215
geschäfts@@ 215
however 215
islam@@ 215
keln 215
neuronen 215
none 215
perspektive 215
photograph@@ 215
politics 215
profi@@ 215
protect 215
remarkable 215
sele@@ 215
sten@@ 215
stone 215
teaching 215
2008 214
bla@@ 214
conference 214
diver@@ 214
diversity 214
dog 214
forming 214
frei 214
fuel 214
fühle 214
intelligence 214
konzept 214
kosten@@ 214
nachricht 214
organis@@ 214
ring 214
suff@@ 214
tests 214
two-@@ 214
verdienen 214
walked 214
whose 214
zweitens 214
99 213
anymore 213
artist 213
brauch 213
conc@@ 213
conversation 213
current 213
direction 213
dische 213
eis 213
ements 213
emotion@@ 213
erd@@ 213
exist 213
herz 213
häuser 213
irs 213
krie@@ 213
leidenschaft 213
mile 213
ozean@@ 213
poten@@ 213
protein 213
som@@ 213
technik 213
worden 213
zieht 213
becoming 212
bits 212
clim@@ 212
esen 212
explor@@ 212
fur@@ 212
gend@@ 212
gic 212
heit@@ 212
hum@@ 212
kt@@ 212
legs 212
leistung 212
philosoph@@ 212
ran 212
rule 212
sharing 212
stopp@@ 212
trin@@ 212
zell@@ 212
aller@@ 211
gefähr@@ 211
gie 211
hoff@@ 211
kehren 211
masse 211
nur@@ 211
organisationen 211
pass 211
schwar@@ 211
sex@@ 211
stem 211
stet 211
verständnis 211
wissenschaft@@ 211
afrikan@@ 210
co 210
docum@@ 210
glaub@@ 210
hart 210
in-@@ 210
kollegen 210
krise 210
nehme 210
nigeria 210
ong 210
slide 210
spon@@ 210
stellung 210
understood 210
veränderungen 210
westen 210
whe@@ 210
zeichen 210
chts@@ 209
englisch 209
genetic 209
hne 209
innen 209
lief 209
liegen 209
linien 209
nel 209
plus 209
practice 209
privi@@ 209
robo@@ 209
scientist 209
stro@@ 209
track 209
töten 209
will@@ 209
äf@@ 209
ehe@@ 208
ells 208
erforschen 208
erfunden 208
floor 208
fran@@ 208
geni@@ 208
ghts 208
hed 208
immediately 208
invol@@ 208
kel@@ 208
lations 208
mobile 208
pen 208
prototyp@@ 208
pull 208
raum@@ 208
schwan@@ 208
specific 208
subject 208
tradition 208
tumor 208
union 208
wege 208
abend 207
aktivität 207
ambi@@ 207
bat 207
bele@@ 207
cians 207
ferti@@ 207
finanzi@@ 207
frank@@ 207
fte 207
function 207
greatest 207
haft 207
ham 207
hinaus 207
increase 207
krankenhaus 207
nummer 207
reach@@ 207
syste@@ 207
tech 207
total 207
van 207
verursacht 207
cas@@ 206
encoura@@ 206
enormous 206
faszinier@@ 206
fes@@ 206
fs 206
führer 206
gegangen 206
halt 206
ial 206
lower 206
markets 206
stell@@ 206
thetic 206
weisen 206
wuchs 206
ann 205
arts 205
chemical 205
decade 205
eigent@@ 205
enga@@ 205
entation 205
environmental 205
graben 205
größeren 205
inn@@ 205
institu@@ 205
jan@@ 205
kampf 205
occu@@ 205
pher@@ 205
produced 205
reduzieren 205
schil@@ 205
speaking 205
status 205
unde 205
abzu@@ 204
ads 204
antworten 204
ately 204
brauchte 204
cold 204
conclu@@ 204
dam@@ 204
deine 204
designs 204
dur@@ 204
intui@@ 204
note 204
prof@@ 204
scri@@ 204
sequence 204
services 204
sla@@ 204
statt@@ 204
stattdessen 204
terror@@ 204
tivität 204
ärzte 204
atlan@@ 203
bac@@ 203
besit@@ 203
bezahlen 203
chtes 203
commit@@ 203
creativity 203
disappe@@ 203
genom@@ 203
kurzem 203
kün@@ 203
lights 203
nahe 203
networks 203
politi@@ 203
raise 203
reisen 203
schlag 203
soli@@ 203
some@@ 203
spar@@ 203
tausend 203
teams 203
yer 203
auge 202
chair 202
charak@@ 202
dlichen 202
experim@@ 202
feuer 202
following 202
forth 202
frem@@ 202
gän@@ 202
informa@@ 202
jac@@ 202
mess@@ 202
rever@@ 202
shared 202
urban 202
verbindungen 202
wichtigsten 202
wü@@ 202
alism 201
bung 201
complete 201
dün@@ 201
forces 201
forget 201
führung 201
gründen 201
matically 201
nasa 201
photograph 201
physik 201
sa 201
sand@@ 201
schritte 201
stun@@ 201
sum 201
television 201
temperature 201
thro@@ 201
vac@@ 201
wikipedia 201
ack@@ 200
agree 200
amp 200
ana 200
assu@@ 200
bäume 200
capit@@ 200
comm@@ 200
elte 200
etc 200
fertig 200
fiziert 200
freude 200
keits@@ 200
meer 200
police 200
produktion 200
recogni@@ 200
religi@@ 200
sonst 200
survive 200
tz 200
ular 200
various 200
ards 199
bahn 199
bewe@@ 199
bly 199
erzeugen 199
essed 199
extra 199
inspired 199
länger 199
ol 199
pa 199
played 199
stock 199
unfortunately 199
useful 199
versuch 199
zufällig 199
aktu@@ 198
behandeln 198
birds 198
budget 198
darwin 198
einzelnen 198
entscheiden@@ 198
finan@@ 198
großarti@@ 198
guter 198
ing-@@ 198
konferenz 198
licht@@ 198
modelle 198
near 198
summer 198
surro@@ 198
unique 198
ahead 197
alismus 197
boot 197
conflict 197
discover 197
doctors 197
dok@@ 197
elles 197
entwerfen 197
erkannte 197
evolved 197
feu@@ 197
folge 197
gerä@@ 197
hinein@@ 197
leider 197
mp 197
negative 197
offi@@ 197
path 197
repar@@ 197
verl@@ 197
anz 196
bezug 196
bringing 196
classi@@ 196
fassen 196
frieden@@ 196
harvard 196
integri@@ 196
ktor 196
kunden 196
loved 196
mr. 196
portra@@ 196
possibly 196
recent 196
rein 196
restaurant 196
sac@@ 196
sekunde 196
tac@@ 196
ue 196
work@@ 196
behaup@@ 195
bitten 195
ehrlich 195
ever@@ 195
fenster 195
fernsehen 195
final 195
gesellschaften 195
helped 195
passion 195
pris@@ 195
regierungen 195
vin@@ 195
werkzeug 195
zogen 195
actions 194
arme 194
beobachten 194
consciousness 194
dasselbe 194
däch@@ 194
ep 194
fern@@ 194
financial 194
francisco 194
funny 194
gefühle 194
instal@@ 194
ji@@ 194
kommen@@ 194
magne@@ 194
mensch@@ 194
moder@@ 194
moon 194
natürliche 194
netz 194
pair 194
paradig@@ 194
pic@@ 194
profession@@ 194
rede 194
robert 194
rock 194
societies 194
sorry 194
steve 194
stä@@ 194
trick 194
types 194
anti-@@ 193
deu@@ 193
directly 193
effects 193
eigenes 193
fällt 193
gehalten 193
großbritannien 193
institutions 193
jahrhunderts 193
john@@ 193
kä@@ 193
levels 193
mehrere 193
mond 193
mostly 193
ple 193
politische 193
sat 193
see@@ 193
tens 193
75 192
alternative 192
amerikanische 192
ba 192
brenn@@ 192
brü@@ 192
destro@@ 192
enter@@ 192
fit 192
ge-@@ 192
herzen 192
imag@@ 192
kilometer 192
objekte 192
sich@@ 192
valley 192
verein@@ 192
wee@@ 192
wie@@ 192
apple 191
beeinflusst 191
indian 191
instrument 191
kra@@ 191
laptop 191
männ@@ 191
nah 191
promis@@ 191
schien 191
search 191
sign 191
trägt 191
ände 191
alization 190
anima@@ 190
drü@@ 190
größere 190
heat 190
industrial 190
küste 190
mix@@ 190
neben@@ 190
obvious 190
raten 190
reagieren 190
ries@@ 190
stige 190
val 190
verantwortung 190
wärts 190
ams 189
below 189
career 189
chter@@ 189
cortex 189
exten@@ 189
ffen 189
ii 189
link 189
manipu@@ 189
materie 189
pfer@@ 189
rock@@ 189
sleep 189
stance 189
uring 189
öffentlichen 189
0 188
amer@@ 188
bleibt 188
capital 188
element 188
film@@ 188
frie@@ 188
hat@@ 188
hes 188
kontrolli@@ 188
menschen@@ 188
merk@@ 188
profit 188
ruf 188
schafft 188
sel 188
toll 188
trei@@ 188
unge@@ 188
verwand@@ 188
vot@@ 188
winter 188
workers 188
year-old 188
zeigte 188
band@@ 187
by@@ 187
challenges 187
circu@@ 187
daughter 187
esses 187
focused 187
geln 187
inge 187
islam 187
jemandem 187
ktionen 187
luft@@ 187
mr@@ 187
ological 187
onic 187
prü@@ 187
rain 187
schwi@@ 187
shel@@ 187
sle@@ 187
stir@@ 187
unterschiede 187
verrück@@ 187
wohin 187
alisierung 186
ater 186
biological 186
bought 186
demokra@@ 186
event 186
extreme 186
fortun@@ 186
glas@@ 186
governments 186
hinder@@ 186
hte 186
hör@@ 186
interven@@ 186
karten 186
kla@@ 186
laws 186
ruhi@@ 186
schalten 186
sis 186
terrible 186
tran@@ 186
2007 185
ancient 185
ased 185
birth 185
capacity 185
explore 185
haf@@ 185
klima@@ 185
komplexität 185
loch 185
popular 185
schau@@ 185
schen@@ 185
spec@@ 185
task 185
term 185
verfügbar 185
öko@@ 185
agre@@ 184
artists 184
begeg@@ 184
bewer@@ 184
brau@@ 184
california 184
decide 184
decision 184
designers 184
eating 184
elektro@@ 184
farben 184
fuß@@ 184
gelegenheit 184
graph 184
hig@@ 184
infrastruktur 184
modernen 184
modi@@ 184
ping 184
willing 184
ami 183
carto@@ 183
dn@@ 183
expected 183
freunden 183
fundament@@ 183
gold 183
greifen 183
hängt 183
kommunikation 183
mach@@ 183
natur@@ 183
race 183
regel 183
schwester 183
twitter 183
waffen 183
5,000 182
agen@@ 182
ameras 182
bekamen 182
beschle@@ 182
blut@@ 182
causes 182
cell@@ 182
cham@@ 182
chs@@ 182
communication 182
connec@@ 182
defini@@ 182
dep@@ 182
flexi@@ 182
fäl@@ 182
hero@@ 182
ine@@ 182
instance 182
las 182
mente 182
meters 182
ologists 182
sal 182
schaff@@ 182
tiver 182
turning 182
twice 182
unsicht@@ 182
alter@@ 181
complexity 181
einkommen 181
existiert 181
festi@@ 181
gewebe 181
grenze 181
hrt 181
impli@@ 181
institute 181
jam@@ 181
low-@@ 181
paid 181
prakti@@ 181
purpose 181
push 181
seines 181
shed 181
tauchen 181
tungs@@ 181
wächst 181
yers 181
acade@@ 180
carry 180
closer 180
cros@@ 180
defin@@ 180
dying 180
efficient 180
emer@@ 180
enting 180
evol@@ 180
flu 180
geräte 180
gui@@ 180
infrastructure 180
inspiration 180
intelligenz 180
leg 180
leisten 180
lets 180
pressure 180
sam 180
schluss 180
schätzen 180
spending 180
sphere 180
straight 180
tes@@ 180
train@@ 180
trial 180
wissen@@ 180
worry 180
zehn@@ 180
zierte 180
zone 180
accu@@ 179
ahnung 179
baum 179
break@@ 179
character 179
coo@@ 179
druck@@ 179
ecke 179
hot@@ 179
kombin@@ 179
kommunizieren 179
kraft@@ 179
lauf@@ 179
mountain 179
op 179
phi@@ 179
predic@@ 179
rational 179
rema@@ 179
slightly 179
staat 179
af@@ 178
anth@@ 178
decades 178
del 178
devices 178
diseases 178
drop 178
gefä@@ 178
herausgefunden 178
kreativität 178
mand@@ 178
molecules 178
schaft@@ 178
secret 178
surprising 178
youtube 178
alisiert 177
astero@@ 177
berühm@@ 177
citizens 177
cyber@@ 177
echte 177
gate 177
gebe 177
gent@@ 177
hur@@ 177
mitten 177
ours 177
p-@@ 177
quali@@ 177
que@@ 177
reak@@ 177
regu@@ 177
schlä@@ 177
shir@@ 177
steigt 177
tail 177
vering 177
address 176
beeinflussen 176
bildschirm 176
broken 176
charge 176
dire@@ 176
erstellen 176
erweiter@@ 176
ette 176
farm 176
gliche 176
gran@@ 176
jün@@ 176
landwirtschaft 176
loss 176
materi@@ 176
nungen 176
nütz@@ 176
ority 176
quelle 176
tei@@ 176
treib@@ 176
uns@@ 176
wu@@ 176
zerstör@@ 176
zurückzu@@ 176
acting 175
brot 175
cate 175
ckten 175
dence 175
descri@@ 175
dimensional 175
eis@@ 175
ency 175
garten 175
gewä@@ 175
halb 175
hnt 175
lebte 175
mein@@ 175
memory 175
mili@@ 175
näher 175
open-@@ 175
pakistan 175
passi@@ 175
plac@@ 175
quick 175
rad 175
starb 175
stuhl 175
universi@@ 175
unterneh@@ 175
versuchten 175
veröffentlicht 175
wichtigste 175
2010 174
answers 174
aufre@@ 174
beschrei@@ 174
boston 174
brilliant 174
check 174
ear 174
educ@@ 174
einfach@@ 174
erle@@ 174
familien@@ 174
fängt 174
geh@@ 174
ink 174
jon@@ 174
kümmern 174
magazine 174
perfekt 174
published 174
river 174
significant 174
stau@@ 174
strukturen 174
tochter 174
trouble 174
universums 174
verbracht 174
10,000 173
ala 173
aro@@ 173
aufgaben 173
bildet 173
bridge 173
calls 173
chern 173
coffee 173
degrees 173
eding 173
epide@@ 173
erklärt 173
ermöglicht 173
extre@@ 173
fotogra@@ 173
früh@@ 173
fuß 173
gradu@@ 173
intelligent 173
klassen@@ 173
miss@@ 173
stü@@ 173
tremendous 173
vorstell@@ 173
wunsch 173
ausbildung 172
beu@@ 172
chti@@ 172
counter@@ 172
dest@@ 172
edge 172
eline 172
ening 172
fellow 172
innen@@ 172
inse@@ 172
interagieren 172
inti@@ 172
leiden 172
losen 172
orche@@ 172
orien 172
rechten 172
religiö@@ 172
schte 172
sigkeit 172
subje@@ 172
supply 172
toler@@ 172
tradition@@ 172
16@@ 171
achie@@ 171
apart 171
atmosphere 171
babys 171
bert 171
const@@ 171
dea@@ 171
entwickelten 171
fabri@@ 171
feedback 171
gender 171
grei@@ 171
hearing 171
hr 171
law@@ 171
lieb@@ 171
memor@@ 171
nahrungs@@ 171
onie 171
oth 171
passed 171
prize 171
proto@@ 171
puzz@@ 171
rä@@ 171
saß 171
sche@@ 171
sterne 171
weite 171
worst 171
worten 171
0er 170
brie@@ 170
brown 170
chr@@ 170
creates 170
crimin@@ 170
dimension@@ 170
endes 170
fühl@@ 170
justice 170
leads 170
nord@@ 170
phili@@ 170
pon@@ 170
prot@@ 170
rooms 170
speci@@ 170
teren 170
zahl@@ 170
alien 169
bers 169
blä@@ 169
budd@@ 169
chri@@ 169
collabor@@ 169
communicate 169
corpo@@ 169
differences 169
electric 169
erfü@@ 169
fying 169
gefängnis 169
improve 169
interpre@@ 169
ir 169
kontext 169
management 169
notion 169
oxygen 169
persön@@ 169
politischen 169
relevant 169
schutz 169
sely 169
setzte 169
stron@@ 169
structures 169
suppor@@ 169
tis@@ 169
tissue 169
unterschiedliche 169
verk@@ 169
vertei@@ 169
10.000 168
ables 168
alle@@ 168
ansatz 168
attac@@ 168
barkeit 168
behalten 168
berü@@ 168
besor@@ 168
bird 168
brachten 168
chicago 168
ef@@ 168
ermöglichen 168
finde 168
flies 168
forsch@@ 168
inno@@ 168
mark@@ 168
nat@@ 168
noticed 168
plu@@ 168
pump@@ 168
roten 168
sion@@ 168
stances 168
tory 168
travel@@ 168
ware 168
wild 168
.com 167
accep@@ 167
asia 167
assem@@ 167
aufgenommen 167
bay 167
beginn 167
detail 167
entdeck@@ 167
entwicklungs@@ 167
gestern 167
haiti 167
hunder@@ 167
iges 167
impf@@ 167
individuen 167
jahr@@ 167
medium 167
miert 167
mming 167
phenomenon 167
republi@@ 167
responsibility 167
stag 167
thy 167
unbe@@ 167
uss 167
volu@@ 167
ya 167
1,000 166
begren@@ 166
blau@@ 166
cious 166
conne@@ 166
fen@@ 166
gebäu@@ 166
gesetze 166
golf 166
gsten 166
klang 166
kogni@@ 166
kompon@@ 166
marketing 166
morgens 166
organisms 166
seemed 166
shop 166
tiv@@ 166
twi@@ 166
tür@@ 166
wald 166
&apos;@@ 165
ah@@ 165
beweise 165
colleagues 165
dauern 165
dopp@@ 165
easily 165
erzeugt 165
fleisch 165
flight 165
gebiete 165
helping 165
heutzutage 165
hotel 165
jahres 165
konstru@@ 165
meas@@ 165
moments 165
nations 165
pel 165
pin@@ 165
predi@@ 165
repe@@ 165
rieben 165
schlu@@ 165
stolz 165
süd@@ 165
ted-@@ 165
tief 165
weile 165
ar-@@ 164
betr@@ 164
chin@@ 164
corner 164
einfacher 164
farmers 164
feels 164
fix 164
ford 164
giant 164
gif@@ 164
hauptsächlich 164
investieren 164
konkur@@ 164
landschaft 164
mau@@ 164
mischen 164
mov@@ 164
phase 164
possibility 164
problemen 164
pus@@ 164
religious 164
sheit 164
shift 164
statt 164
studying 164
sucht 164
tially 164
tle 164
vege@@ 164
verbesser@@ 164
versorgung 164
wissenschaftliche 164
absor@@ 163
achieve 163
allo@@ 163
anten@@ 163
astronom@@ 163
augen@@ 163
bia 163
bo 163
brauchten 163
condition 163
direc@@ 163
entschul@@ 163
erinnert 163
fett@@ 163
getötet 163
hell 163
kenne 163
männern 163
nearly 163
necessarily 163
neugi@@ 163
obama 163
organi@@ 163
organismen 163
ought 163
particles 163
planets 163
programs 163
quote 163
rhyth@@ 163
scot@@ 163
teen@@ 163
verur@@ 163
vorzu@@ 163
wide 163
window 163
wirtschaftlichen 163
zuhören 163
2005 162
accoun@@ 162
archi@@ 162
bush 162
centi@@ 162
consu@@ 162
core 162
dent@@ 162
eig@@ 162
entworfen 162
erungs@@ 162
fossi@@ 162
gar 162
heili@@ 162
herausforderungen 162
ierten 162
inner 162
instin@@ 162
insu@@ 162
methode 162
noten 162
organizations 162
painting 162
partner@@ 162
pfund 162
s. 162
stär@@ 162
tee 162
temperatur 162
tradi@@ 162
verwandeln 162
vorher 162
wachen 162
wahre 162
yn@@ 162
21 161
acht@@ 161
basiert 161
bauern 161
bestimmt 161
boat 161
british 161
c. 161
cool@@ 161
defen@@ 161
deser@@ 161
ela 161
erfahrungen 161
erin 161
figured 161
funktion 161
gam@@ 161
gefragt 161
gesamten 161
gezogen 161
hair 161
imagination 161
irgendwann 161
karriere 161
landscape 161
lieblings@@ 161
limit@@ 161
lungen 161
massen@@ 161
meister 161
met@@ 161
milliarde 161
nachbar@@ 161
ples 161
plo@@ 161
pose 161
post@@ 161
pounds 161
process@@ 161
return 161
senden 161
stress 161
vorbei 161
yle 161
zeug@@ 161
14@@ 160
architec@@ 160
atmosphäre 160
bemer@@ 160
blog@@ 160
bone 160
discovery 160
dom 160
drüben 160
exponenti@@ 160
gegensatz 160
gur@@ 160
iraq 160
ison 160
knowing 160
krimin@@ 160
legal 160
ologe 160
reduce 160
streets 160
technologi@@ 160
throw 160
trag 160
transformation 160
ury 160
vorberei@@ 160
yl@@ 160
basier@@ 159
beschäftigt 159
blog 159
brief 159
bürger 159
civil 159
communic@@ 159
drittel 159
ele 159
entlich 159
finished 159
gemeinsam 159
hall 159
hier@@ 159
highly 159
institution 159
ists 159
kostet 159
lucky 159
motion 159
neighb@@ 159
priv@@ 159
präsident 159
recht@@ 159
thir@@ 159
tricks 159
träge 159
ungspro@@ 159
whi@@ 159
wid@@ 159
öffnet 159
überprü@@ 159
attemp@@ 158
beine 158
benefit 158
bildungs@@ 158
choices 158
cir@@ 158
coast 158
dents 158
drin@@ 158
ering 158
hard@@ 158
hoffentlich 158
iled 158
invest@@ 158
kern@@ 158
mail 158
nap@@ 158
necessary 158
nutri@@ 158
paris 158
pollen 158
relationships 158
smar@@ 158
sommer 158
stopped 158
stücke 158
symptom@@ 158
wahrscheinlichkeit 158
zeugen 158
adap@@ 157
ager 157
bildern 157
consum@@ 157
engine 157
fication 157
figu@@ 157
holt 157
ili@@ 157
institutionen 157
intensi@@ 157
interact 157
klimawandel 157
kommuni@@ 157
mol@@ 157
opportunities 157
produk@@ 157
puts 157
reichen 157
sir 157
sparen 157
tent@@ 157
teste 157
umgehen 157
versus 157
wenden 157
woher 157
achten 156
baut 156
despite 156
differently 156
elli@@ 156
entscheidung 156
erlaub@@ 156
ernsthaf@@ 156
erwartet 156
filme 156
folie 156
forever 156
gegenüber 156
geschafft 156
großteil 156
inspiriert 156
ior 156
lagen 156
leid 156
missing 156
organic 156
ple@@ 156
prison 156
quanti@@ 156
rain@@ 156
report 156
sites 156
ti 156
tierte 156
unden 156
verantwortlich 156
vergleich 156
via 156
xes 156
yellow 156
anwen@@ 155
arian 155
ath 155
außer@@ 155
bled 155
brings 155
card 155
dop@@ 155
engage 155
ernst 155
fix@@ 155
fizieren 155
heu@@ 155
hohe 155
interessieren 155
kaum 155
klingt 155
kolle@@ 155
kurze 155
lying 155
läu@@ 155
marki@@ 155
members 155
motor@@ 155
nen@@ 155
post 155
respect 155
steuern 155
stung 155
teilchen 155
tial 155
ultimately 155
ultra@@ 155
vat@@ 155
verkauft 155
zog 155
ön@@ 155
2.@@ 154
ania 154
antwor@@ 154
ate@@ 154
attack 154
behandelt 154
clip 154
custom@@ 154
deren 154
dh 154
digt 154
effort 154
erungen 154
foreign 154
fragt 154
ily 154
lichsten 154
moves 154
mögliche 154
nieder@@ 154
noise 154
passionate 154
peter 154
poly@@ 154
rt 154
räume 154
rü@@ 154
sahar@@ 154
scheinen 154
stimu@@ 154
verstand 154
00@@ 153
2-@@ 153
bezahlt 153
cial 153
comfortable 153
engli@@ 153
entlang 153
forscher 153
genie@@ 153
gical 153
intelligen@@ 153
join 153
knochen 153
leading 153
mathematics 153
nähe 153
organ 153
oten 153
port 153
resol@@ 153
rus 153
russi@@ 153
scen@@ 153
sculp@@ 153
struk@@ 153
städ@@ 153
themen 153
tures 153
visit 153
wen 153
2009 152
addi@@ 152
agriculture 152
angeneh@@ 152
arbeiteten 152
arms 152
asien 152
atur 152
base 152
benefits 152
bir@@ 152
bread 152
büro@@ 152
colum@@ 152
covered 152
emotions 152
fairly 152
falsche 152
fortschritt 152
ght-@@ 152
glas 152
gress 152
gy@@ 152
ish@@ 152
kehr@@ 152
konfli@@ 152
ktive 152
lesson 152
obs@@ 152
offen 152
polio 152
reve@@ 152
stands 152
städten 152
surge@@ 152
trauri@@ 152
tue 152
untersu@@ 152
warm 152
wesentlichen 152
wunderbare 152
yn 152
zeu@@ 152
-year-old 151
absolute 151
antly 151
aufgrund 151
autor@@ 151
broad@@ 151
bruch 151
cide 151
euch 151
funk@@ 151
fähi@@ 151
gon@@ 151
gressi@@ 151
helps 151
kontro@@ 151
lun@@ 151
ota 151
pharma@@ 151
prob@@ 151
schlüssel 151
sitzt 151
sky@@ 151
stent 151
strategi@@ 151
tations 151
trend 151
uganda 151
virg@@ 151
wirtschafts@@ 151
wisdom 151
19 150
adam 150
angesehen 150
arbeiter 150
bees 150
besseren 150
bility 150
calcul@@ 150
cation 150
contra@@ 150
diert 150
elements 150
emplo@@ 150
engineers 150
erwä@@ 150
experimente 150
expla@@ 150
fashion 150
geschen@@ 150
hund 150
hunger 150
höch@@ 150
introdu@@ 150
lic@@ 150
mom@@ 150
olymp@@ 150
praktisch 150
roll 150
saving 150
sinn@@ 150
standar@@ 150
suffering 150
symbo@@ 150
todes@@ 150
toi@@ 150
treibt 150
verhindern 150
vollen 150
weltweit 150
üs@@ 150
afford 149
afraid 149
apply 149
aufnahme 149
autis@@ 149
chaos 149
chs 149
conscious 149
dienst@@ 149
electro@@ 149
engineer 149
expec@@ 149
extin@@ 149
fields 149
fold 149
freu@@ 149
ght@@ 149
heads 149
heim@@ 149
kreis 149
leiden@@ 149
load 149
lot@@ 149
matters 149
monit@@ 149
ome 149
phänomen 149
rot 149
shares 149
sity 149
slowly 149
titel 149
titude 149
typical 149
u.@@ 149
verwal@@ 149
zeitpunkt 149
25@@ 148
ace 148
adults 148
appreci@@ 148
begeistert 148
bestehen 148
billions 148
bling 148
color@@ 148
concent@@ 148
creatures 148
dien@@ 148
endet 148
erfin@@ 148
female 148
fighting 148
filled 148
french 148
fres@@ 148
gebro@@ 148
gewonnen 148
gras 148
hai 148
interface 148
ite 148
kräfte 148
lag 148
laun@@ 148
mothers 148
mouse 148
navi@@ 148
ologi@@ 148
ologist 148
pingu@@ 148
regen@@ 148
responsible 148
suit 148
sung 148
vern@@ 148
virtual 148
willi@@ 148
wur@@ 148
zierten 148
zukünf@@ 148
zustellen 148
ök@@ 148
appar@@ 147
außen@@ 147
behinder@@ 147
brand 147
brother 147
chip 147
cle 147
degree 147
gation 147
gerung 147
gun 147
isra@@ 147
kari@@ 147
motivation 147
net@@ 147
netzwerke 147
opti@@ 147
raised 147
rö@@ 147
seltsam 147
shar@@ 147
ski@@ 147
spre@@ 147
stimm@@ 147
symbol 147
tim 147
verdi@@ 147
walls 147
wit@@ 147
wonder@@ 147
zie@@ 147
ziele 147
überzeugen 147
alize 146
aner 146
astro@@ 146
begins 146
calcu@@ 146
capable 146
cheap 146
chromo@@ 146
cloud 146
compar@@ 146
competition 146
constru@@ 146
crime 146
fascinating 146
fasst 146
finanz@@ 146
gentle@@ 146
gesprä@@ 146
glich 146
haufen 146
menten 146
phen 146
präsentieren 146
reas@@ 146
tem 146
verlangen 146
wahl@@ 146
wr@@ 146
wörter 146
zon 146
ück@@ 146
aktivi@@ 145
bett 145
buch@@ 145
caught 145
chron@@ 145
dagegen 145
diam@@ 145
distance 145
dritt@@ 145
dry 145
easier 145
ermu@@ 145
experiences 145
fill 145
gift 145
gli@@ 145
grand 145
grundlegende 145
home@@ 145
hopefully 145
influence 145
int 145
iphone 145
lou@@ 145
militär@@ 145
normalen 145
ried 145
risiko 145
sector 145
separ@@ 145
separate 145
sequen@@ 145
sign@@ 145
statistics 145
supp@@ 145
texas 145
tolle 145
traffic 145
vast 145
wurz@@ 145
zuhause 145
öffentliche 145
ökon@@ 145
übertragen 145
analysis 144
auen 144
colors 144
contro@@ 144
controll@@ 144
dritten 144
duc@@ 144
ernä@@ 144
experten 144
expres@@ 144
fau@@ 144
fördern 144
gelangen 144
handy 144
holding 144
identity 144
ki 144
leaving 144
lim@@ 144
moleküle 144
nega@@ 144
normale 144
poster 144
profound 144
rab@@ 144
recei@@ 144
respond 144
schlie@@ 144
sick 144
sterb@@ 144
sy 144
technolog@@ 144
verbreiten 144
wunder 144
öffentlichkeit 144
20. 143
27 143
abge@@ 143
activ@@ 143
ai 143
and-@@ 143
beach 143
circle 143
cont@@ 143
dauert 143
doppelt 143
embra@@ 143
facili@@ 143
fotografi@@ 143
geru@@ 143
händen 143
impul@@ 143
investment 143
kee@@ 143
legi@@ 143
meat 143
mouth 143
nee 143
nel@@ 143
ome@@ 143
opfer 143
pig@@ 143
platt@@ 143
popu@@ 143
promise 143
rand@@ 143
rid 143
rufen 143
schmerz 143
sicherheits@@ 143
simpli@@ 143
sor 143
spring 143
telefon 143
tem@@ 143
trie 143
ution 143
yo 143
2,@@ 142
behand@@ 142
beschreiben 142
bild@@ 142
church 142
compe@@ 142
derek 142
desert 142
economics 142
enjoy 142
enorme 142
europä@@ 142
events 142
fragten 142
greif@@ 142
grün 142
ille 142
impres@@ 142
jum@@ 142
kei@@ 142
korea 142
lebten 142
mix 142
og@@ 142
ograph@@ 142
pati@@ 142
powered 142
pyrami@@ 142
reli@@ 142
simul@@ 142
soldaten 142
thri@@ 142
tischer 142
tting 142
tured 142
tus 142
u-@@ 142
uner@@ 142
unterstützung 142
vement 142
wenig@@ 142
wirst 142
wohl 142
ücken 142
2004 141
affen 141
beginn@@ 141
bis@@ 141
breast 141
brech@@ 141
cel@@ 141
concep@@ 141
count 141
describe 141
diabetes 141
fif@@ 141
fischen 141
gemäl@@ 141
gewi@@ 141
hou@@ 141
höhe 141
importantly 141
insekten 141
integra@@ 141
ites 141
jährigen 141
kauft 141
mates 141
measu@@ 141
offer 141
otherwise 141
paint 141
schafts@@ 141
schwimmen 141
shouldn 141
sold 141
speech 141
sphäre 141
spirit 141
studied 141
trained 141
unternehmer 141
urs 141
viren 141
zin 141
anten 140
baum@@ 140
beat 140
campaign 140
cele@@ 140
dreams 140
durchschnittliche 140
elektrizität 140
frank 140
galaxy 140
habit@@ 140
happ@@ 140
insects 140
invest 140
iso@@ 140
kid@@ 140
mobili@@ 140
normally 140
occur@@ 140
radik@@ 140
rätsel 140
spiegel 140
tlich 140
verzwei@@ 140
wear 140
wenige 140
000 139
aci@@ 139
aling 139
beob@@ 139
catch 139
challen@@ 139
consumption 139
dein 139
determin@@ 139
diplo@@ 139
einheit 139
folgendes 139
geogra@@ 139
iel 139
igkeiten 139
independent 139
invisible 139
körpers 139
ld 139
möchten 139
principles 139
präsentiert 139
rief 139
ritual 139
schlimmer 139
sister 139
sudden 139
sz@@ 139
telescop@@ 139
teure 139
theore@@ 139
therapy 139
tiefe 139
viet@@ 139
vollständig 139
warming 139
wave 139
zug 139
2,000 138
bf 138
bibliothe@@ 138
damage 138
de-@@ 138
deckt 138
everyday 138
factory 138
g-@@ 138
geladen 138
grüne 138
hinein 138
inci@@ 138
juli@@ 138
jährige 138
klin@@ 138
kreu@@ 138
ließen 138
mexico 138
molecule 138
persönliche 138
photo 138
placed 138
polizei 138
quie@@ 138
robot@@ 138
sauerstoff 138
seriously 138
speak@@ 138
steps 138
stände 138
tern@@ 138
träume 138
ungskraft 138
vergleichen 138
verpflich@@ 138
vorfahren 138
zeitalter 138
älter 138
00 137
airplane 137
ald 137
anrei@@ 137
arc@@ 137
arm@@ 137
aufhören 137
belief 137
berg@@ 137
besser@@ 137
chten@@ 137
civilization 137
creation 137
dolph@@ 137
einzel@@ 137
entirely 137
fung 137
gelöst 137
geno@@ 137
gespielt 137
gieren 137
herr 137
ishing 137
keeping 137
konser@@ 137
krank 137
languages 137
leistungen 137
liebt 137
mel 137
operating 137
opposite 137
ox@@ 137
professional 137
qua@@ 137
recycl@@ 137
schlimm@@ 137
spac@@ 137
spli@@ 137
standards 137
strö@@ 137
tag@@ 137
th-@@ 137
transform 137
verbreitet 137
werk 137
zusätz@@ 137
22 136
5.000 136
allge@@ 136
baute 136
bewegungen 136
ception 136
cis@@ 136
compli@@ 136
davor 136
dp 136
emergen@@ 136
emis@@ 136
enz@@ 136
func@@ 136
gerü@@ 136
horizon@@ 136
husband 136
inen 136
jung@@ 136
ktiv 136
lack 136
lady 136
leb@@ 136
legt 136
lic 136
limited 136
llan@@ 136
läch@@ 136
mund 136
origin@@ 136
patent 136
schlechten 136
schutz@@ 136
sequenzen 136
small@@ 136
spir@@ 136
spor@@ 136
springen 136
stin 136
tain@@ 136
ves@@ 136
ägyp@@ 136
acceler@@ 135
akzep@@ 135
argue 135
article 135
assi@@ 135
atta@@ 135
automo@@ 135
beantworten 135
bee@@ 135
cers 135
concerned 135
deliver 135
desire 135
disco@@ 135
doku@@ 135
ference 135
free@@ 135
geführt 135
gehei@@ 135
gessen 135
großartigen 135
h-@@ 135
hell@@ 135
hintergrund 135
infin@@ 135
janu@@ 135
jud@@ 135
laut 135
match 135
maus 135
meistens 135
mie 135
nets 135
nissen 135
origami 135
ough 135
pfe 135
photo@@ 135
play@@ 135
principle 135
propor@@ 135
refer@@ 135
rücken 135
samer 135
stuck 135
tsch@@ 135
unabhängi@@ 135
viruses 135
vögel 135
zunehmen 135
äne 135
65 134
advantage 134
ausdruck 134
background 134
believed 134
bi 134
commercial 134
deeply 134
designing 134
diagra@@ 134
dieselbe 134
dynamic 134
echten 134
erende 134
erforsch@@ 134
geschehen 134
guar@@ 134
hate 134
horri@@ 134
illusion 134
insel 134
invi@@ 134
krebs@@ 134
ktiven 134
ler@@ 134
managed 134
nationen 134
ols 134
opened 134
opini@@ 134
plane 134
schreib@@ 134
solchen 134
tis 134
toward 134
ungsk@@ 134
universal 134
vir@@ 134
vö@@ 134
yesterday 134
zerstören 134
-up 133
3d 133
95 133
bles 133
childhood 133
electrical 133
equal 133
erfinden 133
erleben 133
ersetzen 133
erstes 133
ery 133
evil 133
exhi@@ 133
failed 133
fläche 133
followed 133
geburt 133
gere 133
graduate 133
handel 133
hohen 133
ills 133
increasingly 133
influ@@ 133
kus 133
lektion 133
majority 133
manhattan 133
markt@@ 133
mee 133
natürlichen 133
oceans 133
ok@@ 133
partici@@ 133
pfei@@ 133
predict 133
schmu@@ 133
spaces 133
stru@@ 133
stufe 133
sty 133
tural 133
weißen 133
whenever 133
worl@@ 133
194@@ 132
anischen 132
anony@@ 132
autonom@@ 132
bares 132
chap@@ 132
cker@@ 132
clou@@ 132
definieren 132
distribu@@ 132
driven 132
entschei@@ 132
fan 132
fit@@ 132
gates 132
generate 132
gerechtigkeit 132
gestorben 132
irak 132
kalifornien 132
klini@@ 132
mitg@@ 132
märkte 132
mütter 132
opening 132
ories 132
oxford 132
pag@@ 132
pages 132
prinzip 132
prinzipien 132
rup@@ 132
schwarze 132
statistiken 132
stenz 132
surprise 132
sw 132
tasche 132
tate 132
terie 132
therapie 132
thinks 132
tomorrow 132
tot@@ 132
verschmu@@ 132
vo 132
2003 131
according 131
approach@@ 131
are@@ 131
block@@ 131
brow@@ 131
constantly 131
due 131
edu@@ 131
eland 131
elegan@@ 131
erenden 131
gemeinden 131
geregt 131
humor 131
konzep@@ 131
maker 131
martin 131
mengen 131
mid@@ 131
narra@@ 131
organized 131
participa@@ 131
perfectly 131
random 131
schauten 131
schicht 131
schöpf@@ 131
sport 131
spot 131
statisti@@ 131
stian 131
stit@@ 131
systemen 131
vice 131
voices 131
wealth 131
wearing 131
whom 131
zung 131
ade@@ 130
aku@@ 130
alisten 130
bol@@ 130
brust@@ 130
camp 130
cer 130
cky 130
cognitive 130
crow@@ 130
dar 130
drawing 130
failure 130
forma@@ 130
fourth 130
freien 130
fund 130
galaxie 130
ghana 130
heal@@ 130
ingu@@ 130
japan@@ 130
jump 130
kins 130
lernt 130
meiste 130
microsoft 130
motiv@@ 130
norden 130
null 130
player 130
post-@@ 130
practic@@ 130
prevent 130
sat@@ 130
schneiden 130
seas@@ 130
soil 130
survival 130
tenden@@ 130
tigung 130
trends 130
trotz 130
verhaltens@@ 130
wissenschaftlichen 130
zauber@@ 130
2006 129
aktiv 129
besonder@@ 129
compare 129
corruption 129
currently 129
define 129
dicht 129
dimensions 129
dio@@ 129
drink 129
erken@@ 129
erneu@@ 129
fahrer 129
fell 129
fingen 129
fort 129
gegensei@@ 129
gehabt 129
genutzt 129
goo@@ 129
graphi@@ 129
harder 129
ht@@ 129
identität 129
jungs 129
kas 129
letter 129
letz@@ 129
master 129
moderne 129
nützlich 129
photos 129
pus 129
raft 129
schlüssel@@ 129
secre@@ 129
shif@@ 129
signals 129
starke 129
stie@@ 129
tanz 129
tiges 129
tot 129
transplan@@ 129
unless 129
volunte@@ 129
wagen 129
welches 129
ökonom@@ 129
alist 128
athei@@ 128
atures 128
aug@@ 128
ay 128
bienen 128
cans 128
care@@ 128
classroom 128
cular 128
digit@@ 128
dimensionen 128
dliche 128
elimin@@ 128
esse 128
evolution@@ 128
explan@@ 128
fiel 128
friend@@ 128
gather@@ 128
geome@@ 128
glei@@ 128
gleichheit 128
gry 128
hoffen 128
journalist 128
jähri@@ 128
ko 128
leadership 128
metaphor 128
mär@@ 128
option 128
ordinary 128
parti@@ 128
producing 128
roots 128
schalt@@ 128
secon@@ 128
shall 128
stal@@ 128
starten 128
steine 128
stil 128
tour 128
vertrau@@ 128
wahrschein@@ 128
wake 128
wind@@ 128
überqu@@ 128
affect 127
atem@@ 127
bag@@ 127
cen 127
chemi@@ 127
chts 127
deut@@ 127
direct 127
emotion 127
emotionen 127
ene@@ 127
entreprene@@ 127
equivalent 127
experiment@@ 127
experts 127
fing@@ 127
führten 127
galaxies 127
gand@@ 127
gemeinde 127
geräusche 127
hierher 127
isol@@ 127
laufe 127
leaves 127
library 127
linken 127
maß@@ 127
methoden 127
nahme 127
persönlich 127
progra@@ 127
sensi@@ 127
sequenz 127
streng@@ 127
südafri@@ 127
tur 127
ulti@@ 127
unfall 127
werke 127
1.000 126
actor 126
ameisen 126
angeles 126
anthropo@@ 126
bedürfnisse 126
blauen 126
blocks 126
blut 126
brauche 126
caused 126
dialo@@ 126
dinosaurier 126
dutz@@ 126
email 126
empfin@@ 126
ens@@ 126
epi@@ 126
erfolgrei@@ 126
exists 126
falten 126
fie 126
gain 126
gay 126
harmon@@ 126
invited 126
itäten 126
jedoch 126
katastrop@@ 126
kurzen 126
lebenden 126
liebte 126
liefern 126
maga@@ 126
meta@@ 126
miss 126
nde 126
nerven@@ 126
ologische 126
one@@ 126
pes 126
rural 126
schlei@@ 126
schwierigkeiten 126
sour@@ 126
stanford 126
succe@@ 126
syl@@ 126
tough 126
transition 126
treated 126
verschie@@ 126
weird 126
worldwide 126
worried 126
zivilisation 126
250 125
activi@@ 125
agenda 125
artificial 125
aufnahmen 125
aut 125
bemerkt 125
blau 125
brasili@@ 125
chil@@ 125
compared 125
construction 125
continent 125
cure 125
debate 125
dichte 125
dinner 125
distribution 125
establi@@ 125
galaxien 125
hidden 125
hn 125
inger 125
ingt 125
jugend@@ 125
kers 125
keys 125
lunch 125
market@@ 125
melt 125
nden 125
nes@@ 125
oll@@ 125
paying 125
phosp@@ 125
privat@@ 125
seat 125
shapes 125
sichten 125
spu@@ 125
steel 125
suppose 125
teuer 125
tons 125
täten 125
weiten 125
wirtschaftliche 125
worfen 125
wunden 125
währ@@ 125
zon@@ 125
23 124
40@@ 124
arkti@@ 124
bauten 124
bby 124
bet 124
businesses 124
cock@@ 124
dieren 124
favor@@ 124
garden 124
gelassen 124
genom 124
hang 124
hasn 124
holes 124
japanese 124
komplexe 124
künstler@@ 124
l-@@ 124
layer 124
mach 124
medikament 124
nai@@ 124
negoti@@ 124
nern 124
oned 124
planning 124
shoes 124
sna@@ 124
spra@@ 124
stein@@ 124
steller 124
threat 124
toren 124
täu@@ 124
unding 124
vehicle 124
verti@@ 124
ville 124
weapons 124
wein@@ 124
welle 124
woo@@ 124
zten 124
zählen 124
2001 123
appear 123
appli@@ 123
appro@@ 123
architekten 123
aufregend 123
bed@@ 123
begonnen 123
berührt 123
bright 123
bruder 123
bä@@ 123
ce-@@ 123
chemicals 123
chemikalien 123
circum@@ 123
copy 123
deta@@ 123
dow 123
elling 123
eric 123
european 123
gall@@ 123
generationen 123
glam@@ 123
großmutter 123
helden 123
howard 123
jack 123
joy 123
muscle 123
neighborhood 123
prop@@ 123
rechts@@ 123
represent 123
saturn 123
schuhe 123
sec@@ 123
thesis 123
tiker 123
trieb 123
trip 123
verwandelt 123
wa 123
wea@@ 123
wettbewerb 123
zeichnungen 123
zusammenarbeit 123
überrascht 123
ür@@ 123
admini@@ 122
alex@@ 122
amin@@ 122
andre@@ 122
army 122
aturen 122
ausgeben 122
außerdem 122
bahn@@ 122
bear 122
bietet 122
bot 122
cken@@ 122
collect 122
collective 122
described 122
develop@@ 122
diagramm 122
double 122
dunkl@@ 122
embar@@ 122
erklär@@ 122
expedi@@ 122
explosion 122
expression 122
facts 122
fire@@ 122
franzö@@ 122
früh 122
gegenwär@@ 122
gehirne 122
highest 122
incre@@ 122
komm@@ 122
lear@@ 122
maßen 122
mentioned 122
mortality 122
nachbarn 122
names 122
nannte 122
orienti@@ 122
papi@@ 122
pet 122
preser@@ 122
probe 122
proud 122
skla@@ 122
sozial@@ 122
strate 122
strategy 122
teu@@ 122
thers 122
toll@@ 122
transl@@ 122
waves 122
wichti@@ 122
witz 122
zun@@ 122
20th 121
32 121
acts 121
alists 121
alzheimer 121
art@@ 121
bie@@ 121
britain 121
cents 121
charakter 121
chemistry 121
contr@@ 121
cour@@ 121
dinosaurs 121
eleph@@ 121
feelings 121
generations 121
glaubt 121
grown 121
hinsicht 121
hirn@@ 121
honest 121
houses 121
immer@@ 121
inn 121
ket 121
lässi@@ 121
massi@@ 121
mexiko 121
mon 121
musst 121
nachts 121
parado@@ 121
presse 121
proce@@ 121
rin@@ 121
scan 121
schwei@@ 121
sektor 121
skep@@ 121
stabili@@ 121
steckt 121
stran@@ 121
tch 121
tili@@ 121
une 121
vote 121
weather 121
wra@@ 121
wri@@ 121
zwar 121
addition 120
altet 120
bedürf@@ 120
berühr@@ 120
blogs 120
blü@@ 120
brothers 120
butt@@ 120
canada 120
cau@@ 120
characteri@@ 120
chicken 120
clinical 120
closed 120
club 120
colli@@ 120
digitalen 120
discipl@@ 120
display 120
durchschnitt@@ 120
emerging 120
erwachsene 120
fünf@@ 120
gab@@ 120
gst 120
hielten 120
iden@@ 120
interaction 120
kampagne 120
klo@@ 120
leader 120
lee 120
liefer@@ 120
lock 120
lokalen 120
microscop@@ 120
mitarbeiter 120
mo 120
multiple 120
olog@@ 120
orbit 120
percei@@ 120
psycho@@ 120
ration@@ 120
stens 120
syndro@@ 120
than@@ 120
tie@@ 120
toile@@ 120
traditionellen 120
unbedingt 120
unterrichten 120
violent 120
vorhersagen 120
webseite 120
wired 120
zwan@@ 120
ähnliche 120
abhängig 119
associ@@ 119
associated 119
bell 119
beschloss 119
bine 119
black@@ 119
cambridge 119
cape 119
chain 119
ckets 119
debat@@ 119
diesel@@ 119
existieren 119
fat 119
forced 119
frag@@ 119
geschma@@ 119
heavy 119
ination 119
korruption 119
langwei@@ 119
launched 119
mikrosk@@ 119
nant 119
normal@@ 119
notwen@@ 119
olo@@ 119
optimis@@ 119
orig@@ 119
persönlichen 119
pre-@@ 119
schwarzen 119
sever@@ 119
sey 119
survi@@ 119
tnis 119
tzlich 119
verbrachte 119
wars 119
werten 119
zität 119
zz 119
überzeu@@ 119
ading 118
announ@@ 118
bau 118
beschäftigen 118
celebra@@ 118
democratic 118
diszi@@ 118
entfernen 118
florida 118
four@@ 118
gelei@@ 118
grünen 118
innovative 118
intellectual 118
jo 118
kulturen 118
lec@@ 118
losing 118
malen 118
marine 118
married 118
maßstab 118
migra@@ 118
mittleren 118
nü@@ 118
oning 118
phan@@ 118
pole 118
poor@@ 118
real@@ 118
schluss@@ 118
schmerzen 118
shoul@@ 118
spectrum 118
technical 118
temper@@ 118
tles 118
transi@@ 118
tumor@@ 118
unterscheiden 118
verwir@@ 118
voraus@@ 118
wach@@ 118
weißt 118
winden 118
ändert 118
authenti@@ 117
befindet 117
buchstab@@ 117
consequences 117
coral 117
dameri@@ 117
department 117
dna-@@ 117
echtz@@ 117
ee@@ 117
entdeckung 117
equipment 117
eres 117
erweitern 117
feuer@@ 117
gelesen 117
gemeinsame 117
glücklicherweise 117
grandmother 117
halbe 117
interview 117
key@@ 117
killing 117
kopf@@ 117
kürzlich 117
letters 117
lustig 117
mas 117
mitglieder 117
molecular 117
molekul@@ 117
movies 117
neten 117
nin@@ 117
od 117
online-@@ 117
patri@@ 117
pleasure 117
practical 117
rates 117
remote 117
richtungen 117
rio 117
rote 117
sation 117
stac@@ 117
trials 117
wechsel@@ 117
werbung 117
wärmung 117
1. 116
26 116
abilities 116
aring 116
atz 116
avoid 116
awful 116
chol@@ 116
coal 116
conf@@ 116
contact 116
disaster 116
drückt 116
dul@@ 116
elemente 116
enjo@@ 116
expan@@ 116
fossil 116
fährt 116
geschickt 116
gramm 116
han 116
herunter@@ 116
homes 116
häusern 116
indu@@ 116
inf@@ 116
inieren 116
internet@@ 116
kb 116
kür@@ 116
makers 116
medien@@ 116
northern 116
ost@@ 116
pad 116
pho@@ 116
plä@@ 116
quellen 116
resource 116
roughly 116
schaute 116
schmer@@ 116
seien 116
setting 116
setzung 116
sexual 116
sight 116
smell 116
spä@@ 116
steven 116
surprised 116
teeth 116
ungewöhn@@ 116
verbindet 116
verlust 116
vorne 116
wire 116
100,000 115
adi@@ 115
affected 115
amo@@ 115
barri@@ 115
bemü@@ 115
benötigt 115
cially 115
condu@@ 115
coura@@ 115
cultures 115
dach 115
durchgeführt 115
elektron@@ 115
entertain@@ 115
freiwilli@@ 115
gul@@ 115
haw@@ 115
heutigen 115
importance 115
ize 115
kochen 115
konfron@@ 115
kus@@ 115
lager 115
lux@@ 115
mitta@@ 115
nett 115
neuer 115
occasi@@ 115
organs 115
pacific 115
sad 115
schrift@@ 115
users 115
usi@@ 115
vable 115
vermei@@ 115
vermeiden 115
zit@@ 115
accident 114
account 114
advanced 114
akt 114
alli@@ 114
appl@@ 114
autor 114
beein@@ 114
biert 114
bronx 114
cin 114
controlled 114
daher 114
daily 114
dealing 114
deter@@ 114
doll@@ 114
entwickelte 114
entwicklungsländern 114
flas@@ 114
forschungs@@ 114
ga 114
geheim@@ 114
geschi@@ 114
git@@ 114
langer 114
lessons 114
letzt 114
life@@ 114
meaning@@ 114
nieman@@ 114
nungs@@ 114
proteins 114
ption 114
reaction 114
reci@@ 114
repu@@ 114
ric 114
selling 114
setz@@ 114
simu@@ 114
soldiers 114
stärke 114
swa@@ 114
tie 114
ug@@ 114
wahrnehmung 114
windows 114
wine 114
wirtschaft@@ 114
zitat 114
3,000 113
acci@@ 113
affec@@ 113
alp@@ 113
aming 113
analog@@ 113
angle 113
atten 113
bedeuten 113
digkeit 113
disku@@ 113
enzy@@ 113
erkrank@@ 113
essential 113
geld@@ 113
gewand@@ 113
gles 113
gling 113
gäbe 113
hadn 113
hero 113
horse 113
här@@ 113
inning 113
intellektu@@ 113
jes@@ 113
kilometers 113
konflikt 113
krank@@ 113
krä@@ 113
ktes 113
medizinische 113
messer 113
mobil@@ 113
mountains 113
naja 113
nest 113
pool 113
possibilities 113
prove 113
regular 113
schrift 113
section 113
stood 113
strategie 113
stür@@ 113
sub-@@ 113
substan@@ 113
talent 113
teilung 113
trinken 113
unterschei@@ 113
vas@@ 113
verse 113
verteilung 113
vorteil 113
wichtigen 113
21@@ 112
700 112
advan@@ 112
an-@@ 112
antibio@@ 112
any@@ 112
atory 112
australia 112
beschlossen 112
cards 112
categ@@ 112
cil 112
contain@@ 112
dienst 112
dile@@ 112
dunkel@@ 112
effectively 112
empty 112
erscheinen 112
express 112
fab@@ 112
fabrik 112
fern 112
finish 112
gefährlich 112
gens 112
graphic 112
honor 112
illness 112
infor@@ 112
initiative 112
issen 112
kaffee 112
kenya 112
komplex 112
long-term 112
löcher 112
mut 112
nigeri@@ 112
nive@@ 112
preg@@ 112
prime 112
primi@@ 112
productive 112
property 112
regel@@ 112
researchers 112
schiff 112
schönes 112
sci@@ 112
seitdem 112
skulp@@ 112
smith 112
sse 112
straßen@@ 112
teles@@ 112
thoughts 112
tony 112
tsun@@ 112
underneath 112
veränder@@ 112
vorzustellen 112
westlichen 112
whereas 112
zeitung 112
übrig 112
800 111
adult 111
afrikas 111
ale@@ 111
arrived 111
atten@@ 111
aw@@ 111
barer 111
beweisen 111
bizar@@ 111
cross 111
decken 111
dungs@@ 111
erzähle 111
gegenteil 111
gespräch 111
glü@@ 111
implan@@ 111
interessi@@ 111
internationale 111
intuition 111
lichkeiten 111
lossen@@ 111
metal 111
metapher 111
mung 111
nervous 111
orders 111
phän@@ 111
planet@@ 111
pleas@@ 111
programme 111
radical 111
relative 111
restaurants 111
ri 111
risiken 111
silicon 111
sogenan@@ 111
solved 111
specifically 111
stad@@ 111
suggest 111
terrori@@ 111
ush 111
verbrechen 111
wirkung 111
zufä@@ 111
zunehmen@@ 111
193@@ 110
abra@@ 110
afri@@ 110
allgemeinen 110
anal@@ 110
annehmen 110
anpas@@ 110
brach 110
breath 110
calling 110
civili@@ 110
curious 110
demand 110
dir@@ 110
drän@@ 110
former 110
gravity 110
grö@@ 110
isch@@ 110
jahrzehnt 110
kev@@ 110
kurz@@ 110
langfri@@ 110
legte 110
magnetic 110
magni@@ 110
mama 110
mathematical 110
mindestens 110
minim@@ 110
molekül 110
pants 110
pf 110
picked 110
protection 110
requi@@ 110
round 110
saved 110
schlag@@ 110
sets 110
sett@@ 110
sharks 110
sophisti@@ 110
sorge 110
spoke 110
stics 110
stry 110
sugar 110
taucht 110
tausenden 110
trug 110
unds 110
variety 110
vorbei@@ 110
wings 110
zubringen 110
äd@@ 110
21. 109
ames 109
behör@@ 109
clock 109
connections 109
considered 109
ct@@ 109
dam 109
definitely 109
erster 109
existence 109
experienced 109
fail 109
fair@@ 109
faktor 109
fewer 109
fuhr 109
förder@@ 109
füllen 109
gegenwart 109
gely 109
gesichter 109
gesundheitswesen 109
gps 109
hmt 109
inspi@@ 109
intern@@ 109
kit@@ 109
lieber 109
lig 109
migr@@ 109
momente 109
rand 109
scene 109
schaden 109
schlafen 109
signale 109
sources 109
spiritu@@ 109
spit@@ 109
stimul@@ 109
stoßen 109
stö@@ 109
suggest@@ 109
suggests 109
tale 109
valuable 109
verdam@@ 109
wachsen@@ 109
zieh@@ 109
85 108
architect 108
aries 108
bakteri@@ 108
bestimmen 108
brian 108
brücke 108
buying 108
characters 108
conduc@@ 108
craft 108
dient 108
diet 108
digitale 108
distin@@ 108
dots 108
echn@@ 108
ernährung 108
evolutionary 108
fantastisch 108
folks 108
fähig 108
gan 108
gefahr 108
gestal@@ 108
goals 108
gore 108
grafik 108
hallu@@ 108
handlungen 108
hiv-@@ 108
holz 108
homo 108
hurt 108
ins@@ 108
internationalen 108
invention 108
itali@@ 108
kennt 108
kni@@ 108
kro@@ 108
mad 108
mammo@@ 108
maps 108
matri@@ 108
may@@ 108
operate 108
paraly@@ 108
radiation 108
relativ 108
relatively 108
ressed 108
schimpansen 108
scrat@@ 108
selten 108
ships 108
stigen 108
techniques 108
teenager 108
tober 108
tox@@ 108
upp@@ 108
vollkommen 108
who@@ 108
wild@@ 108
aded 107
atoms 107
aufbauen 107
bang 107
bud@@ 107
büchern 107
chemie 107
convince 107
curi@@ 107
dium 107
eco@@ 107
efficiency 107
employees 107
fresh 107
fusion 107
gelen@@ 107
geschle@@ 107
gese@@ 107
henry 107
höre 107
ight 107
increasing 107
jim 107
laboratory 107
lifetime 107
method 107
musik@@ 107
newspaper 107
notes 107
oral 107
palä@@ 107
perception 107
photographs 107
plans 107
platform 107
players 107
präsi@@ 107
rene@@ 107
require 107
riff 107
rollen 107
schizophren@@ 107
schni@@ 107
silk 107
sin 107
sms 107
stable 107
stere@@ 107
target 107
typically 107
vog@@ 107
wellen 107
yor@@ 107
äs@@ 107
afrikanischen 106
arly 106
atmen 106
awareness 106
axis 106
blan@@ 106
broo@@ 106
d.@@ 106
defined 106
dens 106
dimension 106
ecu@@ 106
epidemic 106
erkennt 106
erklärung 106
ertes 106
explains 106
flat 106
grafi@@ 106
holz@@ 106
identify 106
input 106
kapital 106
kapu@@ 106
kirche 106
komment@@ 106
ktoren 106
lächeln 106
mechanis@@ 106
mem@@ 106
metho@@ 106
moralische 106
motivi@@ 106
ord 106
phr@@ 106
prepared 106
reti@@ 106
roh@@ 106
schaue 106
schnei@@ 106
schnitt@@ 106
schrän@@ 106
schö@@ 106
serve 106
sides 106
sop@@ 106
stock@@ 106
sty@@ 106
style 106
swim 106
testing 106
therap@@ 106
vertraut 106
viertel 106
wüste 106
1960 105
achse 105
adverti@@ 105
akzeptieren 105
angel@@ 105
applied 105
ardo 105
bein@@ 105
bemerken 105
breaking 105
caf@@ 105
crash 105
credit 105
derzeit 105
dinosau@@ 105
director 105
dunkle 105
erfindung 105
erhält 105
factor 105
fail@@ 105
fernseh@@ 105
gemü@@ 105
gment 105
harv@@ 105
hinten 105
igkeit 105
irgendetwas 105
itä@@ 105
kitchen 105
komple@@ 105
kun@@ 105
kühl@@ 105
lay 105
liked 105
marriage 105
menschliches 105
mented 105
nor 105
osity 105
pause 105
plays 105
politiker 105
previous 105
raising 105
represents 105
retro@@ 105
reward 105
safety 105
schrecklich 105
sentence 105
sequ@@ 105
speziellen 105
stab@@ 105
tivi@@ 105
transport 105
unglaublichen 105
vermu@@ 105
verschwinden 105
watt 105
weiteres 105
writer 105
za 105
äuß@@ 105
28 104
aled 104
artic@@ 104
attle 104
battery 104
beziehen 104
blatt 104
blieb 104
boundar@@ 104
cational 104
confidence 104
dienen 104
earth@@ 104
ecosystem 104
einfaches 104
erkenntnis 104
existi@@ 104
facing 104
febru@@ 104
films 104
filter 104
fishing 104
gegründet 104
geor@@ 104
gla@@ 104
glamour 104
häl@@ 104
höher 104
interpretation 104
joe 104
letztendlich 104
mana@@ 104
natür@@ 104
oxyto@@ 104
perman@@ 104
personally 104
pilot 104
primary 104
präsentation 104
rapi@@ 104
rect 104
ritu@@ 104
roads 104
sandwi@@ 104
satis@@ 104
sozusagen 104
sprech@@ 104
stig 104
ständen 104
survey 104
taliban 104
tax@@ 104
theme 104
trennt 104
unts 104
verbreitung 104
villa@@ 104
vul@@ 104
vulnerable 104
wachst@@ 104
well@@ 104
whit@@ 104
wirken 104
wunderbar 104
24@@ 103
accept 103
astron@@ 103
australien 103
bogen 103
bucks 103
burn 103
cab@@ 103
cast 103
clas@@ 103
deeper 103
dogs 103
eastern 103
effektiv 103
elten 103
environments 103
erfahren 103
exchange 103
flug 103
gap 103
garage 103
gest 103
hafte 103
handelt 103
hnung 103
homo@@ 103
ib@@ 103
intri@@ 103
introduced 103
ished 103
kanada 103
ladies 103
lebenser@@ 103
miner@@ 103
naturally 103
peak 103
planes 103
pop 103
potenzi@@ 103
properties 103
regul@@ 103
revolution@@ 103
risks 103
schri@@ 103
schritt@@ 103
simulation 103
soft@@ 103
spielte 103
telef@@ 103
toten 103
täusch@@ 103
u.n. 103
umge@@ 103
visible 103
zunächst 103
13@@ 102
appropriate 102
arbeit@@ 102
bai 102
bec@@ 102
begriff 102
behaviors 102
centers 102
collapse 102
computing 102
convinced 102
crowd 102
ctor 102
deutsch@@ 102
driver 102
einiger 102
erwachsenen 102
gesund 102
gewissen 102
govern@@ 102
hallo 102
hir@@ 102
invasi@@ 102
ipo@@ 102
meer@@ 102
mention 102
minister@@ 102
ologischen 102
onal 102
physiker 102
piano 102
poetry 102
processes 102
quant@@ 102
sages 102
schli@@ 102
schme@@ 102
sees 102
selb@@ 102
senses 102
spen@@ 102
sprach@@ 102
strength 102
struggle 102
switch 102
tains 102
tane@@ 102
ternal 102
unlike 102
unterhaltung 102
wahren 102
wom@@ 102
wähl@@ 102
50@@ 101
alterna@@ 101
banglades@@ 101
bank@@ 101
battle 101
bein 101
blei@@ 101
buil@@ 101
carrying 101
cooking 101
dank@@ 101
eff@@ 101
einrichtungen 101
emissions 101
entstehen 101
exploration 101
frame@@ 101
generally 101
geographic 101
germany 101
geschä@@ 101
gren@@ 101
gö@@ 101
innere 101
inneren 101
intro@@ 101
katastrophe 101
kontakt 101
lasse 101
leon@@ 101
lincol@@ 101
location 101
mistake 101
mode 101
open@@ 101
ore@@ 101
politicians 101
psychiat@@ 101
rare 101
replace 101
requires 101
roof 101
sav@@ 101
schlägt 101
sending 101
shang@@ 101
singen 101
spin@@ 101
sprü@@ 101
stoffen 101
stupid 101
tables 101
the-@@ 101
thin@@ 101
tracking 101
tries 101
tw@@ 101
v-@@ 101
verkauf@@ 101
verkehr@@ 101
veter@@ 101
waff@@ 101
wondering 101
zza 101
überzeugt 101
absicht 100
alleine 100
angeb@@ 100
bob 100
bottle 100
bubble 100
capture 100
chimpanze@@ 100
click 100
components 100
dene 100
diskussion 100
ength 100
faith 100
fisch@@ 100
geheimnis 100
gewohn@@ 100
goods 100
hängen 100
ims 100
licen@@ 100
liquid 100
macher 100
meetings 100
möglicherweise 100
nose 100
of-@@ 100
orange 100
pay@@ 100
penguins 100
pfle@@ 100
pir@@ 100
psychology 100
rb 100
received 100
regen 100
rennen 100
schau 100
schick@@ 100
seits 100
sitz 100
solving 100
stant 100
tech@@ 100
thr@@ 100
trage@@ 100
u.k. 100
unusual 100
user 100
vagina 100
watched 100
winkel 100
wise 100
zahn@@ 100
ärm@@ 100
ancestors 99
ay@@ 99
ballo@@ 99
beglei@@ 99
beschrän@@ 99
birthday 99
broke 99
burgh 99
burning 99
carefully 99
die@@ 99
differ@@ 99
finger@@ 99
five-@@ 99
frame 99
genau@@ 99
gesetz@@ 99
hits 99
ids 99
ier 99
illegal 99
inevi@@ 99
kenn@@ 99
kung 99
laugh@@ 99
males 99
milk 99
multi-@@ 99
müll 99
need@@ 99
nom@@ 99
noon 99
pazi@@ 99
proble@@ 99
pulled 99
remin@@ 99
resili@@ 99
revol@@ 99
sensitive 99
shark 99
staf@@ 99
strahlung 99
strated 99
string 99
sustain@@ 99
sätze 99
taste 99
trillion 99
umines@@ 99
usch 99
venue 99
vil@@ 99
water@@ 99
weiße 99
werken 99
wis@@ 99
zir@@ 99
ält 99
é@@ 99
angiogen@@ 98
apri@@ 98
arbeitsp@@ 98
ausmaß 98
bag 98
benu@@ 98
beschei@@ 98
besondere 98
best@@ 98
bewus@@ 98
chtern 98
clay 98
collaboration 98
comfort 98
consumer 98
discussion 98
dnung 98
ek@@ 98
element@@ 98
exercise 98
faktoren 98
gebeten 98
geburt@@ 98
gendes 98
geschah 98
grain 98
grid 98
healthcare 98
hous@@ 98
ingre@@ 98
inje@@ 98
integr@@ 98
junger 98
kindheit 98
koll@@ 98
kore@@ 98
manage 98
manufacturing 98
member 98
mich@@ 98
mira@@ 98
mirror 98
musical 98
mäß@@ 98
novel 98
ous@@ 98
percentage 98
rad@@ 98
richten 98
ride 98
roo@@ 98
run@@ 98
runs 98
soci@@ 98
southern 98
trie@@ 98
unabhängig 98
unit 98
verage 98
voraus 98
zusä@@ 98
analyse 97
ander 97
arab 97
arr@@ 97
arri@@ 97
ausstellung 97
baseball 97
bereiche 97
biot@@ 97
bow@@ 97
brazil 97
contin@@ 97
cutting 97
destruction 97
ech@@ 97
eingesetzt 97
empathy 97
enheit 97
entrop@@ 97
faszin@@ 97
gover@@ 97
gravi@@ 97
herren 97
hinweg 97
hospitals 97
interests 97
laptops 97
llig 97
menschlicher 97
mistakes 97
opp@@ 97
pack 97
predat@@ 97
raus@@ 97
remem@@ 97
resear@@ 97
situationen 97
streben 97
temporary 97
treat@@ 97
verg@@ 97
weih@@ 97
zep@@ 97
zweck 97
2011 96
29 96
abhängi@@ 96
asing 96
beinhaltet 96
comple@@ 96
damen 96
ebenen 96
felder 96
flächen 96
gere@@ 96
hollywood 96
kap@@ 96
kombination 96
lachen 96
pollution 96
queen 96
restri@@ 96
rier 96
sim@@ 96
situations 96
six@@ 96
so-@@ 96
spiegel@@ 96
stol@@ 96
sue 96
tious 96
wheel@@ 96
wher@@ 96
wiesen 96
you@@ 96
a. 95
anderem 95
angefangen 95
anwenden 95
arily 95
behavi@@ 95
bekannten 95
caus@@ 95
clever 95
dered 95
exam@@ 95
geschäf@@ 95
gesund@@ 95
hlte 95
hre 95
imple@@ 95
kriege 95
labor@@ 95
lifest@@ 95
mary 95
mush@@ 95
nas@@ 95
phenomen@@ 95
regionen 95
relation 95
signi@@ 95
susta@@ 95
tanz@@ 95
thin 95
transforma@@ 95
tu 95
var@@ 95
aktivitäten 94
anderth@@ 94
austr@@ 94
ax@@ 94
counter 94
court 94
deci@@ 94
deinen 94
fordert 94
gehir@@ 94
gem 94
gemeinschaften 94
grab@@ 94
hol 94
holfen 94
km 94
lasst 94
mails 94
mutter@@ 94
national@@ 94
para@@ 94
proben 94
psychop@@ 94
q 94
ridi@@ 94
risi@@ 94
schaf@@ 94
schwä@@ 94
stammzellen 94
story@@ 94
strand 94
stärken 94
tour@@ 94
é 94
bart 93
breite 93
chteten 93
co-@@ 93
common@@ 93
dia 93
drin 93
entdeckte 93
erter 93
feststellen 93
gold@@ 93
initi@@ 93
king@@ 93
kriegs@@ 93
schnell@@ 93
seln 93
stin@@ 93
studieren 93
thou@@ 93
tual 93
ual 93
unterschie@@ 93
weis 93
xide 93
ye 93
zivili@@ 93
120 92
besuchen 92
copy@@ 92
den-@@ 92
engagement 92
gelebt 92
gent 92
golden 92
heirat@@ 92
inhalt 92
kompliziert 92
ress 92
sitz@@ 92
tribu@@ 92
tritt 92
wahn@@ 92
atur@@ 91
bestimm@@ 91
beweis 91
competi@@ 91
confli@@ 91
einzi@@ 91
erfol@@ 91
fascin@@ 91
fassung 91
ffe@@ 91
geschlagen 91
intelli@@ 91
kungen 91
mali@@ 91
mie@@ 91
nähr@@ 91
nötig 91
oles@@ 91
reicht 91
se-@@ 91
stop@@ 91
sungen 91
tats@@ 91
züge 91
üben 91
abor@@ 90
aden 90
bene@@ 90
bieren 90
brand@@ 90
gestalten 90
häu@@ 90
inseln 90
landen 90
mern 90
neuron 90
rett@@ 90
simil@@ 90
songs 90
urban@@ 90
ut 90
venti@@ 90
veran@@ 90
versagen 90
verschieden@@ 90
abschluss 89
beeindruck@@ 89
beobach@@ 89
darunter 89
förmi@@ 89
herauszu@@ 89
hmen 89
increas@@ 89
kation 89
kurs 89
mitteln 89
mou@@ 89
sende 89
stif@@ 89
sweise 89
unger 89
verbessert 89
zerstört 89
übernehmen 89
ada@@ 88
agt 88
att@@ 88
bereichen 88
entwickl@@ 88
hnte 88
leiter 88
momentan 88
notwendig 88
näher@@ 88
phot@@ 88
pä@@ 88
scha@@ 88
sons 88
tlichen 88
tube 88
vermögen 88
von@@ 88
vy 88
völ@@ 88
wirk@@ 88
wirkliche 88
zte 88
aspekt 87
aufzubauen 87
duced 87
einander@@ 87
erer 87
erlebt 87
ethi@@ 87
fahrt 87
foc@@ 87
gesp@@ 87
inde@@ 87
kehrt 87
linge 87
präsen@@ 87
success@@ 87
ter-@@ 87
trum 87
turen 87
weiteren 87
afgh@@ 86
bekann@@ 86
beschäf@@ 86
bewusst@@ 86
certain@@ 86
discus@@ 86
elec@@ 86
erscheint 86
farmer 86
ffer 86
forder@@ 86
hergestellt 86
hörten 86
iting 86
kill@@ 86
lass 86
less@@ 86
mals 86
nochmal 86
stur@@ 86
text@@ 86
thei@@ 86
wohner 86
ameri@@ 85
besitzen 85
bisher 85
geber 85
kts 85
nik 85
soft 85
strug@@ 85
tra 85
unterstützt 85
use@@ 85
viert 85
wenigen 85
bs@@ 84
compon@@ 84
curr@@ 84
diff@@ 84
furcht@@ 84
gedanke 84
gelan@@ 84
geschü@@ 84
hus@@ 84
jahrhunder@@ 84
ks@@ 84
mmen 84
rund 84
rän@@ 84
stati@@ 84
stärker 84
sud@@ 84
troffen 84
untersucht 84
verfügung 84
bacteri@@ 83
bedeuten@@ 83
bekannte 83
erwähnt 83
espe@@ 83
gelö@@ 83
gigan@@ 83
gil@@ 83
hood 83
kümm@@ 83
lebewesen 83
pau@@ 83
popul@@ 83
requ@@ 83
scop@@ 83
super 83
tig@@ 83
un 83
vehi@@ 83
verbrei@@ 83
add@@ 82
eindeu@@ 82
entstanden 82
erleb@@ 82
euer 82
gefäng@@ 82
gkeiten 82
klar@@ 82
lan 82
mean@@ 82
pft 82
wick@@ 82
beding@@ 81
bü@@ 81
denten 81
entrepr@@ 81
errei@@ 81
heits@@ 81
metaph@@ 81
müsste 81
nutzt 81
simpl@@ 81
stehe 81
ve-@@ 81
verkehr 81
w-@@ 81
wechsel 81
year-@@ 81
deutlich 80
erstellt 80
gat@@ 80
genu@@ 80
korre@@ 80
manufac@@ 80
mir@@ 80
moment@@ 80
neur@@ 80
serie 80
solange 80
stellungen 80
zugänglich 80
alo@@ 79
amei@@ 79
aufgebaut 79
bevölker@@ 79
citi@@ 79
dama@@ 79
eindruck 79
fach@@ 79
fün@@ 79
gilt 79
great@@ 79
kerl 79
konz@@ 79
mam@@ 79
schreibt 79
sent@@ 79
standen 79
stimmung 79
telefon@@ 79
turing 79
umgeb@@ 79
untersuchung 79
uten 79
weit@@ 79
zuschau@@ 79
beha@@ 78
beobachtet 78
berichten 78
bestä@@ 78
blick@@ 78
chtete 78
coll@@ 78
dä@@ 78
erwachsen@@ 78
partment 78
prepar@@ 78
schir@@ 78
stech@@ 78
surpris@@ 78
tert 78
tsam 78
umin@@ 78
versi@@ 78
zielen 78
aly@@ 77
aster 77
auff@@ 77
begri@@ 77
bende 77
chem 77
chungen 77
crea@@ 77
deln 77
mäßig 77
nah@@ 77
partic@@ 77
schriften 77
sprecher 77
theit 77
theor@@ 77
unglaub@@ 77
verab@@ 77
verhältnis 77
verring@@ 77
versor@@ 77
wofür 77
zeigten 77
zusammenzu@@ 77
angenommen 76
dol@@ 76
drück@@ 76
einsetzen 76
fic@@ 76
gebieten 76
hall@@ 76
leiten 76
nie@@ 76
personen 76
sinni@@ 76
still@@ 76
verantwor@@ 76
vulner@@ 76
wart 76
welchen 76
wissenschaften 76
ziel@@ 76
allen@@ 75
architek@@ 75
beweg@@ 75
commun@@ 75
dow@@ 75
inner@@ 75
krat@@ 75
rahmen 75
schwarz@@ 75
tempor@@ 75
w. 75
welcher 75
zusammenhang 75
änge 75
ama 74
archite@@ 74
collap@@ 74
danken 74
distri@@ 74
follo@@ 74
freundin 74
halb@@ 74
keiner 74
konta@@ 74
proper@@ 74
rest@@ 74
usual 74
valent 74
vered 74
vergröß@@ 74
verteilt 74
wandel 74
what@@ 74
zations 74
commer@@ 73
fehlen 73
grau@@ 73
haltung 73
indepen@@ 73
interest@@ 73
ira@@ 73
lehren 73
mmt 73
schwa@@ 73
stammt 73
strat@@ 73
teilneh@@ 73
tude 73
ually 73
unterstü@@ 73
versteht 73
zel@@ 73
zent@@ 73
abo@@ 72
beg@@ 72
ca. 72
entspricht 72
eping 72
gewisse 72
heißen 72
kir@@ 72
m-@@ 72
medikam@@ 72
mexi@@ 72
oms 72
rechen@@ 72
setzten 72
spee@@ 72
ssi@@ 72
tigte 72
viol@@ 72
annahme 71
d. 71
entstand 71
entwick@@ 71
ind 71
pan 71
ppt 71
py@@ 71
spüren 71
agri@@ 70
aper 70
disc@@ 70
fam@@ 70
foun@@ 70
gabe 70
gery 70
herstellung 70
willst 70
wirklichen 70
alia 69
anlage 69
erkannt 69
lichem 69
lieder 69
long-@@ 69
sach@@ 69
stly 69
stück@@ 69
tely 69
verfüg@@ 69
vorhanden 69
willen 69
anteil 68
deep@@ 68
erseits 68
ewi@@ 68
fic 68
gehören 68
gir@@ 68
ings@@ 68
insbesondere 68
jähr@@ 68
lem 68
nahr@@ 68
nutzung 68
recy@@ 68
resul@@ 68
richtet 68
sth@@ 68
ston 68
tü@@ 68
vels 68
wesentlich 68
wieviel 68
zig 68
á@@ 68
öffent@@ 68
amerikan@@ 67
bili@@ 67
eil 67
gefahren 67
grü@@ 67
hie@@ 67
oud 67
profess@@ 67
saal 67
weal@@ 67
wechseln 67
zur@@ 67
zwe@@ 67
+ 66
dennoch 66
einfa@@ 66
eth 66
lauf 66
nia 66
seri@@ 66
stan 66
steh@@ 66
strom@@ 66
tery 66
verblüff@@ 66
versu@@ 66
veränderte 66
zö@@ 66
asse@@ 65
begei@@ 65
entsteht 65
evi@@ 65
fortunately 65
gelegt 65
geräu@@ 65
geschieht 65
glau@@ 65
grundlage 65
grundsätzlich 65
ision 65
justi@@ 65
licherweise 65
liefert 65
müssten 65
oze@@ 65
rely 65
stern@@ 65
stors 65
sugge@@ 65
wirklichkeit 65
bub@@ 64
bür@@ 64
dies@@ 64
ersta@@ 64
expen@@ 64
ony@@ 64
phen@@ 64
reiche 64
vag@@ 64
zens 64
ance@@ 63
anwendung 63
ause 63
bak@@ 63
class@@ 63
collea@@ 63
echt 63
einsatz 63
gefallen 63
gewe@@ 63
ghter 63
ires 63
lautet 63
manu@@ 63
moun@@ 63
mäd@@ 63
questi@@ 63
relev@@ 63
selbstverständlich 63
trou@@ 63
unterricht 63
vermitteln 63
welchem 63
abhän@@ 62
außen 62
dadurch 62
democra@@ 62
dnis 62
enced 62
erkan@@ 62
gün@@ 62
listen@@ 62
mous 62
alt@@ 61
bene 61
confi@@ 61
consci@@ 61
danger@@ 61
ernähr@@ 61
gangen 61
let@@ 61
mor 61
muse@@ 61
perspe@@ 61
quot@@ 61
richt@@ 61
schre@@ 61
tötet 61
weder 61
astrop@@ 60
benen 60
dation 60
eur@@ 60
jedenfalls 60
molekü@@ 60
num@@ 60
pon 60
samkeit 60
schließ@@ 60
ttle 60
with@@ 60
bang@@ 59
fän@@ 59
gebur@@ 59
hing@@ 59
ire 59
jene 59
kunft 59
lige 59
mathema@@ 59
mption 59
spru@@ 59
tedx@@ 59
wiederum 59
atmosp@@ 58
cise 58
dahin 58
goog@@ 58
immedi@@ 58
jä@@ 58
libr@@ 58
mote 58
neighbor@@ 58
uss@@ 58
vorstellungen 58
boun@@ 57
decisi@@ 57
flei@@ 57
gegend 57
griff 57
hlen@@ 57
ices 57
mmer 57
probieren 57
präsent@@ 57
taus@@ 57
tex 57
vil 57
überra@@ 57
choo@@ 56
com 56
dings 56
ghtly 56
hori@@ 56
lap@@ 56
maß 56
pollu@@ 56
rs 56
spruch 56
tnisse 56
transp@@ 56
verstän@@ 56
woll@@ 56
wovon 56
anstelle 55
brilli@@ 55
cei@@ 55
condi@@ 55
derer 55
diffic@@ 55
eing 55
engine@@ 55
entsch@@ 55
exist@@ 55
expe@@ 55
genauer 55
gle 55
infra@@ 55
masch@@ 55
medic@@ 55
mittler@@ 55
ond 55
sichtlich 55
sug@@ 55
wieso 55
won@@ 55
world@@ 55
zuge@@ 55
zwischen@@ 55
asse 54
ban 54
bile 54
ebenfalls 54
eness 54
konzent@@ 54
ollywood 54
protot@@ 54
riesen@@ 54
schön@@ 54
täglich 54
verne@@ 54
zau@@ 54
ada 53
ap 53
chtigkeit 53
dere 53
gering@@ 53
klär@@ 53
konfer@@ 53
leistungs@@ 53
pedia 53
pie@@ 53
ross 53
tzu@@ 53
verknü@@ 53
wettbewer@@ 53
zusagen 53
abili@@ 52
ansicht 52
ener@@ 52
experi@@ 52
inging 52
nee@@ 52
omen@@ 52
paki@@ 52
pid 52
rying 52
aufmerk@@ 51
belast@@ 51
dran 51
face@@ 51
folgende 51
gesellschaft@@ 51
nien 51
pengu@@ 51
rul@@ 51
signific@@ 51
stamm@@ 51
zusammenge@@ 51
auton@@ 50
bron@@ 50
clear@@ 50
erkenn@@ 50
fot@@ 50
habt 50
iety 50
midd@@ 50
nicht@@ 50
solcher 50
teach@@ 50
vel 50
zahlt 50
zept 50
asy 49
benötigen 49
beten 49
chur@@ 49
cum@@ 49
darf 49
imp@@ 49
iness 49
kilome@@ 49
kind@@ 49
know@@ 49
kran@@ 49
kriegen 49
oly@@ 49
schlüs@@ 49
spun@@ 49
traff@@ 49
urspr@@ 49
valu@@ 49
vent 49
allerdings 48
busin@@ 48
cess@@ 48
doc@@ 48
internation@@ 48
satur@@ 48
tty 48
ultima@@ 48
vergan@@ 48
concern@@ 47
genü@@ 47
kehr 47
peop@@ 47
phic 47
sonder@@ 47
strateg@@ 47
vey 47
wegs 47
zwi@@ 47
zy 47
bedenken 46
campaig@@ 46
carb@@ 46
environ@@ 46
hab 46
ital 46
landscap@@ 46
mers 46
prac@@ 46
psy@@ 46
schirm 46
seem@@ 46
solch 46
unterschiedlichen 46
verfahren 46
vorge@@ 46
alls 45
artige 45
aufbau 45
avo@@ 45
bedarf 45
bibli@@ 45
blich 45
eri@@ 45
eting 45
fiel@@ 45
keit 45
knowle@@ 45
photogra@@ 45
read@@ 45
sauer@@ 45
cient 44
fashi@@ 44
hilfs@@ 44
mlich 44
previ@@ 44
soldi@@ 44
bestand@@ 43
earli@@ 43
ebenso 43
fang 43
fs@@ 43
geg@@ 43
gerei@@ 43
grupp@@ 43
machin@@ 43
poe@@ 43
remark@@ 43
spea@@ 43
sser 43
there@@ 43
wiki@@ 43
absol@@ 42
cogni@@ 42
dacht 42
das@@ 42
gala@@ 42
geneh@@ 42
heim 42
herausforder@@ 42
kön@@ 42
mitt@@ 42
rais@@ 42
utes 42
chst 41
geändert 41
inier@@ 41
inven@@ 41
keiten 41
kürz@@ 41
selves 41
symp@@ 41
tioned 41
aufen 40
beh@@ 40
cess 40
eure 40
geschwindi@@ 40
ilfe 40
ktu@@ 40
kör@@ 40
osau@@ 40
spie@@ 40
spür@@ 40
stim@@ 40
strate@@ 40
sup@@ 40
wahrneh@@ 40
z.b. 40
anno@@ 39
beauti@@ 39
bestand 39
cris@@ 39
equi@@ 39
oce@@ 39
prise 39
ques 39
resultat 39
soc@@ 39
absolu@@ 38
dden 38
dit 38
ergeb@@ 38
extrem@@ 38
ficial 38
lossen 38
rieb 38
diskus@@ 37
gues 37
häufi@@ 37
häufig 37
iti 37
mber 37
neh@@ 37
pathy 37
princi@@ 37
verhalten@@ 37
yel@@ 37
) 36
darstellen 36
haup@@ 36
hri@@ 36
kratie 36
lik@@ 36
sequences 36
strahl@@ 36
tali@@ 36
wirt@@ 36
att 35
call@@ 35
einfl@@ 35
figh@@ 35
kreieren 35
meist 35
män@@ 35
rd 35
sands 35
scap@@ 35
scienti@@ 35
wirkungen 35
big@@ 34
convin@@ 34
deb@@ 34
dürfen 34
einflus@@ 34
hm@@ 34
karri@@ 34
nahe@@ 34
nö@@ 34
quick@@ 34
responsi@@ 34
selbe 34
stab 34
stud@@ 34
vid 34
xic@@ 34
appropri@@ 33
betrifft 33
einiges 33
erfahr@@ 33
exer@@ 33
fundam@@ 33
gä@@ 33
intelle@@ 33
kalifor@@ 33
kay 33
performan@@ 33
wesent@@ 33
fically 32
grow@@ 32
itely 32
storben 32
zar@@ 32
zusam@@ 32
actu@@ 31
adul@@ 31
genan@@ 31
him@@ 31
issu@@ 31
jewei@@ 31
mittl@@ 31
pers@@ 31
simp@@ 31
suc@@ 31
tish 31
unity 31
vermutlich 31
vili@@ 31
anim@@ 30
b. 30
ctly 30
dür@@ 30
effici@@ 30
gefällt 30
heran@@ 30
ih@@ 30
other@@ 30
ould 30
plö@@ 30
publik@@ 30
quasi 30
sowie 30
verbra@@ 30
vereinig@@ 30
vide@@ 30
volk 30
volun@@ 30
wirkt 30
anthro@@ 29
bilities 29
easi@@ 29
eben@@ 29
erst@@ 29
interess@@ 29
olly@@ 29
pian@@ 29
ressour@@ 29
through@@ 29
ó@@ 29
@ 28
angi@@ 28
assen 28
base@@ 28
dee@@ 28
electri@@ 28
hospit@@ 28
hundre@@ 28
könnt 28
milliar@@ 28
notic@@ 28
näch@@ 28
ousness 28
passion@@ 28
psychi@@ 28
ring@@ 28
schimpan@@ 28
sodass 28
soll@@ 28
them@@ 28
verhäl@@ 28
zus@@ 28
brazi@@ 27
chers 27
child@@ 27
diab@@ 27
euro@@ 27
forschen 27
k. 27
sst 27
tops 27
í@@ 27
anhand 26
augenblick 26
britan@@ 26
gespro@@ 26
kle 26
kunde 26
maj@@ 26
marke@@ 26
richti@@ 26
stero@@ 26
zine 26
eben 25
ehen 25
famili@@ 25
gement 25
sear@@ 25
shou@@ 25
zugän@@ 25
americ@@ 24
beispiel@@ 24
benö@@ 24
capac@@ 24
chro@@ 24
engl@@ 24
inte@@ 24
isla@@ 24
malari@@ 24
perfor@@ 24
phar@@ 24
til 24
verursa@@ 24
öhn@@ 24
accor@@ 23
alg@@ 23
deca@@ 23
effec@@ 23
feed@@ 23
jour@@ 23
liebl@@ 23
onnen 23
terr@@ 23
umfeld 23
verfü@@ 23
è@@ 23
.b. 22
grou@@ 22
hren@@ 22
intellec@@ 22
marri@@ 22
pagne 22
presi@@ 22
schied 22
socie@@ 22
soviel 22
tality 22
tol@@ 22
tremend@@ 22
# 21
awar@@ 21
deswegen 21
eicht 21
erweise 21
halten@@ 21
ough@@ 21
oxy@@ 21
rem 21
safe@@ 21
ske@@ 21
stert 21
teili@@ 21
überlegen 21
= 20
avail@@ 20
benef@@ 20
dab@@ 20
dafri@@ 20
employe@@ 20
ermög@@ 20
genheit 20
mista@@ 20
nachzu@@ 20
patter@@ 20
rant 20
vail@@ 20
übri@@ 20
affe@@ 19
agieren 19
aufgab@@ 19
beispielsweise 19
cals 19
energ@@ 19
europe@@ 19
event@@ 19
fft 19
großbritan@@ 19
trilli@@ 19
verständlich 19
verän@@ 19
beinahe 18
foreig@@ 18
kräf@@ 18
milit@@ 18
ruption 18
verbin@@ 18
² 18
½ 18
birth@@ 17
complic@@ 17
kalien 17
meth@@ 17
professi@@ 17
rät@@ 17
tea@@ 17
äußerst 17
comfort@@ 16
efully 16
entde@@ 16
ests 16
etz 16
geria 16
gross@@ 16
häus@@ 16
ith 16
ogen@@ 16
resour@@ 16
solu@@ 16
… 16
cule 15
hmen@@ 15
jem@@ 15
lediglich 15
mög@@ 15
posite 15
rhy@@ 15
schieden 15
situ@@ 15
where@@ 15
grundsä@@ 14
mathe@@ 14
restau@@ 14
schizop@@ 14
sophi@@ 14
aum 13
geschie@@ 13
hindern 13
invisi@@ 13
mole@@ 13
pover@@ 13
relation@@ 13
weapon@@ 13
( 12
abli@@ 12
astern 12
beeinflus@@ 12
dn 12
erzä@@ 12
exac@@ 12
fasz@@ 12
fren@@ 12
gebie@@ 12
häre 12
mosp@@ 12
möglich@@ 12
sowas 12
stom@@ 12
zeital@@ 12
bevölk@@ 11
curity 11
dimen@@ 11
rami@@ 11
reme@@ 11
wisst 11
ü 11
dise@@ 10
haupt 10
intu@@ 10
mexic@@ 10
nst 10
rough@@ 10
selber 10
telev@@ 10
unterschied@@ 10
versums 10
your@@ 10
fahr 9
fert 9
natu@@ 9
nerv@@ 9
norm@@ 9
paci@@ 9
two@@ 9
afghani@@ 8
bezieh@@ 8
bezüglich 8
cept 8
chir@@ 8
compan@@ 8
flori@@ 8
gebra@@ 8
instit@@ 8
jenigen 8
n. 8
wichtig@@ 8
wies@@ 8
ñ@@ 8
^ 7
ange 7
beau@@ 7
diag@@ 7
famil@@ 7
gni@@ 7
grosse 7
gyp@@ 7
ote 7
percent@@ 7
slow@@ 7
somit 7
straß@@ 7
verblü@@ 7
wett@@ 7
wobei 7
_ 6
det@@ 6
elektri@@ 6
feel@@ 6
job@@ 6
pment 6
raid 6
seit@@ 6
thom@@ 6
tice 6
ult 6
vices 6
xt 6
zeitig 6
beinhal@@ 5
bloß 5
cisco 5
degre@@ 5
emo@@ 5
gem@@ 5
health@@ 5
industr@@ 5
langu@@ 5
quas@@ 5
stead 5
ully 5
wech@@ 5
ã@@ 5
califor@@ 4
disci@@ 4
econ@@ 4
etes 4
fore 4
geschw@@ 4
künf@@ 4
minde@@ 4
pite 4
sep@@ 4
silic@@ 4
vorhan@@ 4
ween 4
» 4
ächlich 4
ç@@ 4
ê@@ 4
í 4
อ@@ 4
* 3
aga@@ 3
agen 3
autom@@ 3
complex@@ 3
eler@@ 3
entfer@@ 3
every@@ 3
expon@@ 3
goti@@ 3
happen@@ 3
haupts@@ 3
kog@@ 3
liqu@@ 3
mend@@ 3
opport@@ 3
toge@@ 3
viron@@ 3
yester@@ 3
zop@@ 3
 3
 3
« 3
° 3
â 3
casi@@ 2
daß 2
dership 2
destru@@ 2
ement@@ 2
entre@@ 2
europ@@ 2
funden 2
gründet 2
incredi@@ 2
lieb 2
meet@@ 2
micha@@ 2
possi@@ 2
prinzipi@@ 2
smit@@ 2
weiss 2
wus@@ 2
£ 2
à 2
ø@@ 2
ā@@ 2
ร 2
่ 2
.. 1
\ 1
bess@@ 1
bras@@ 1
charac@@ 1
chic@@ 1
childr@@ 1
denly 1
devel@@ 1
effi@@ 1
falt 1
ffee 1
galaxi@@ 1
gesell@@ 1
heisst 1
hosp@@ 1
lebe@@ 1
manhat@@ 1
movi@@ 1
obvi@@ 1
onlin@@ 1
othe@@ 1
rants 1
unities 1
windo@@ 1
â@@ 1
è 1
ë@@ 1
ï@@ 1
ô@@ 1
ú@@ 1
ă@@ 1
ć 1
ē 1
ť 1
ย 1
ย@@ 1
‚ 1
‹ 1
› 1
€ 1
你@@ 1
葱 1
送@@ 1
madeupword0000 0
madeupword0001 0
madeupword0002 0
madeupword0003 0
madeupword0004 0
madeupword0005 0
madeupword0006 0
