, 427414
. 328793
the 142263
in 91618
and 90442
und 85857
die 78067
to 76711
a 74988
of 71463
that 55798
i 54639
der 51560
sie 51558
das 49519
it 49100
ich 48617
&quot; 48506
es 47502
ist 44875
you 43162
we 41764
wir 40979
&apos;s 39417
is 38127
zu 37300
was 34274
this 31374
so 30805
? 27664
ein 25734
von 24084
eine 23759
dass 23320
an 23072
nicht 22663
den 22454
: 22156
-- 21841
they 20815
mit 19645
on 19041
for 18599
er 18569
are 18149
wie 17953
auf 17413
but 17310
can 16965
have 16947
with 16326
man 16231
what 15406
&apos;t 15353
sich 15349
about 15331
sind 14760
all 14727
aber 14641
für 14586
haben 14374
wenn 14346
&apos;re 14119
als 13958
also 13885
at 13518
um 13372
as 12923
there 12646
be 12573
war 12540
diese 12129
not 11355
do 11122
im 11025
my 10875
people 10714
ver@@ 10630
if 10594
he 10511
like 10398
dem 10305
one 10017
these 9883
or 9839
-@@ 9823
einen 9761
er@@ 9467
from 9437
des 9435
an@@ 9414
uns 9341
können 8962
be@@ 8840
going 8822
our 8747
oder 8589
werden 8559
very 8549
because 8547
me 8469
hier 8440
aus 8352
re@@ 8297
hat 8213
ge@@ 8141
s@@ 8078
when 8060
über 7940
them 7909
just 7797
un@@ 7719
einer 7699
how 7690
now 7680
– 7619
s 7562
auch 7557
te 7473
einem 7386
kann 7300
more 7087
dann 7085
sehr 7015
by 6973
who 6835
think 6790
wird 6789
us 6761
nur 6731
see 6729
&apos;m 6724
k@@ 6676
here 6658
know 6540
gibt 6442
menschen 6320
ten 6241
ihnen 6240
were 6232
out 6209
up 6191
sehen 6145
t@@ 6141
&apos;ve 6124
mich 6119
their 6114
don 6094
ab@@ 6017
sein 5996
world 5967
had 5965
then 5813
time 5811
ing 5807
in@@ 5728
ed 5694
en@@ 5656
dieser 5648
e@@ 5612
etwas 5610
a@@ 5603
aus@@ 5559
which 5555
d@@ 5551
your 5538
ein@@ 5474
nach 5451
g@@ 5439
noch 5433
t 5369
habe 5351
en 5222
want 5170
b@@ 5105
would 5104
mir 5090
years 5017
where 4969
has 4966
vor 4939
bei 4929
way 4927
o@@ 4912
other 4854
really 4836
alle 4829
mehr 4822
welt 4816
ti@@ 4709
e 4702
get 4697
- 4685
things 4683
could 4606
i@@ 4598
am 4591
p@@ 4503
said 4490
no 4483
ihre 4431
leben 4425
machen 4421
go 4417
new 4390
some 4377
meine 4369
ch@@ 4325
zum 4321
da 4317
something 4302
h@@ 4295
sch@@ 4289
weil 4289
li@@ 4265
will 4222
c@@ 4221
r@@ 4179
y 4176
nun 4173
dies 4168
wurde 4154
look 4152
wirklich 4137
little 4136
she 4135
gen 4119
art 4117
first 4107
right 4097
into 4085
z@@ 4066
dieses 4061
m 4054
di@@ 4041
m@@ 4026
de@@ 3993
g 3978
auf@@ 3972
ma@@ 3934
his 3927
than 3927
been 3899
durch 3888
ung 3851
f@@ 3833
make 3821
st@@ 3806
u@@ 3783
immer 3774
two 3762
al@@ 3756
zu@@ 3749
tun 3744
se@@ 3719
unsere 3699
zeit 3691
vor@@ 3625
jetzt 3620
ihr 3612
wissen 3589
much 3582
end 3568
lot 3553
al 3550
life 3532
le@@ 3527
ar@@ 3523
most 3498
only 3487
hatte 3467
need 3456
work 3440
ri@@ 3439
de 3426
o 3423
ter 3421
problem 3416
leute 3377
um@@ 3369
; 3366
viel 3359
keine 3352
viele 3342
ent@@ 3317
über@@ 3305
n@@ 3287
thing 3282
say 3281
ge 3263
diesem 3259
d 3258
l@@ 3250
well 3227
sagen 3220
y@@ 3217
eines 3206
du 3192
denn 3187
over 3179
back 3178
ted 3170
&apos; 3158
take 3155
sagte 3149
ts 3145
many 3138
dinge 3121
system 3121
mal 3116
ro@@ 3083
se 3077
actually 3070
diesen 3070
even 3065
zwei 3053
her 3052
good 3044
einfach 3042
waren 3034
alles 2961
jahren 2959
bin 2957
kind 2950
wo 2942
why 2936
müssen 2924
let 2920
use 2911
andere 2902
different 2871
el@@ 2832
ungen 2815
co@@ 2808
gehen 2807
able 2806
anderen 2794
or@@ 2792
mein 2789
geht 2785
würde 2760
bi@@ 2751
damit 2740
every 2719
same 2710
bis 2691
le 2689
zur 2665
vielleicht 2659
v@@ 2648
ie 2633
! 2618
selbst 2615
come 2606
sten 2593
on@@ 2591
po@@ 2591
day 2587
gut 2564
w@@ 2558
k 2538
ert 2522
put 2495
jahre 2472
talk 2452
through 2450
at@@ 2445
si@@ 2442
around 2441
ger 2439
pro@@ 2408
her@@ 2406
kommen 2406
down 2401
ers 2401
st 2394
th@@ 2393
did 2390
am@@ 2374
ische 2357
ende 2347
l 2336
land 2336
la@@ 2332
ra@@ 2332
today 2330
didn 2318
ni@@ 2311
men 2309
three 2309
eren 2307
heute 2307
ds 2305
ischen 2305
geben 2302
after 2297
es@@ 2295
10 2284
called 2281
great 2275
got 2266
muss 2266
mi@@ 2261
ja 2254
p 2254
warum 2248
geschichte 2244
lo@@ 2244
schon 2237
as@@ 2226
te@@ 2208
con@@ 2196
me@@ 2194
einige 2190
percent 2189
macht 2176
ta@@ 2176
j@@ 2167
lassen 2158
should 2126
möchte 2121
important 2120
wieder 2116
tatsächlich 2113
ber@@ 2108
change 2094
last 2076
person 2061
ad@@ 2051
ke 2048
denken 2036
liche 2034
made 2027
n 2022
big 2021
its 2020
ck@@ 2017
davon 2013
kinder 2012
bo@@ 2008
show 2004
dort 1998
b 1996
he@@ 1972
before 1968
gt 1967
h 1966
unter@@ 1966
ganz 1963
started 1962
is@@ 1961
dis@@ 1942
ation 1938
genau 1937
tion 1936
hatten 1934
ne@@ 1934
ch 1933
ve 1929
tell 1927
mo@@ 1925
thought 1924
seine 1920
drei 1918
par@@ 1914
ated 1911
ger@@ 1904
sp@@ 1897
ha@@ 1886
idea 1884
year 1882
op@@ 1875
vi@@ 1873
&apos;d 1872
human 1872
mar@@ 1867
ob 1864
darüber 1862
chen 1861
ur@@ 1861
few 1859
ins 1858
könnte 1855
fact 1854
lichen 1846
ihn 1845
it@@ 1843
ken 1843
again 1840
ter@@ 1840
lich 1837
paar 1836
ei@@ 1825
jahr 1817
20 1814
another 1812
nehmen 1802
wollen 1802
ging 1801
gi@@ 1794
teil 1794
form 1784
sa@@ 1780
werde 1780
weise 1779
course 1778
ent 1773
design 1771
ste 1771
c 1770
ate 1764
tions 1761
find 1759
doesn 1756
ko@@ 1753
ly 1749
ern 1747
doing 1744
story 1743
tag 1740
den@@ 1736
ex@@ 1733
meiner 1732
thank 1726
ck 1723
au@@ 1717
r 1716
ihren 1714
better 1704
finden 1704
fe@@ 1701
der@@ 1697
weg 1696
wurden 1695
pe@@ 1693
water 1693
example 1692
next 1692
3@@ 1685
stellen 1685
sti@@ 1684
moment 1683
together 1682
während 1679
pre@@ 1677
each 1676
being 1674
ten@@ 1672
denen 1671
kommt 1669
give 1668
to@@ 1668
hin@@ 1665
used 1662
ago 1654
frage 1654
him 1650
f 1649
never 1644
jeder 1642
ce 1639
gab 1639
technology 1636
own 1635
brain 1634
zwischen 1632
sh@@ 1631
sen 1629
sen@@ 1626
tet 1626
pi@@ 1624
denke 1620
do@@ 1620
part 1618
gemacht 1617
dazu 1609
&apos;ll 1605
beispiel 1602
still 1598
those 1593
wäre 1593
vom 1588
sondern 1585
bit 1579
unserer 1579
gen@@ 1578
went 1578
ac@@ 1573
place 1573
sogar 1571
came 1570
neue 1567
com@@ 1563
children 1561
computer 1559
ru@@ 1557
tes 1556
ä@@ 1554
long 1552
bringen 1547
su@@ 1546
everything 1543
glaube 1543
doch 1541
ungs@@ 1537
kein 1536
any 1535
wanted 1535
unter 1533
50 1530
pa@@ 1527
ste@@ 1527
unser 1527
nen 1525
mit@@ 1519
x 1517
tra@@ 1516
fall 1513
mon@@ 1511
sk@@ 1511
fi@@ 1507
natürlich 1507
hand 1506
ale 1502
okay 1502
zeigen 1498
kon@@ 1496
understand 1493
im@@ 1492
arbeit 1491
between 1490
ok 1489
million 1488
arbeiten 1483
ihrer 1483
ohne 1481
weiter 1481
einmal 1480
mu@@ 1478
da@@ 1473
weiß 1468
gerade 1467
school 1465
sieht 1463
ar 1460
nie 1456
working 1456
fen 1455
oh 1455
na@@ 1452
ks 1447
z 1447
nichts 1445
tr@@ 1444
dafür 1443
hi@@ 1443
start 1442
30 1431
found 1431
bu@@ 1428
ir@@ 1425
durch@@ 1424
... 1422
light 1419
information 1418
würden 1418
so@@ 1414
est 1413
no@@ 1413
real 1408
old 1405
maybe 1404
ö@@ 1404
for@@ 1403
per@@ 1403
ben 1402
ere 1398
man@@ 1398
el 1396
less 1395
war@@ 1395
prozent 1389
ho@@ 1388
question 1387
data 1386
.@@ 1383
passiert 1381
ting 1381
zurück 1380
erste 1377
verstehen 1377
em 1372
ding 1370
erte 1362
internet 1361
je@@ 1360
vielen 1356
schen 1354
live 1352
wa@@ 1348
cht 1347
always 1345
ges 1344
call 1341
kt 1341
daran 1340
fragen 1338
inter@@ 1338
car@@ 1337
sprechen 1336
four 1335
sagt 1333
ersten 1332
fa@@ 1332
fast 1329
millionen 1329
money 1328
qu@@ 1323
done 1319
sta@@ 1319
red 1315
bild 1314
picture 1313
ine 1312
city 1310
ating 1308
zi@@ 1307
bar 1305
idee 1305
isch 1305
konnte 1305
create 1301
women 1300
country 1296
br@@ 1295
does 1295
w 1295
gel@@ 1293
we@@ 1292
ganze 1287
große 1286
son 1279
letzten 1278
wei@@ 1278
dabei 1274
love 1272
wer 1272
em@@ 1269
ses 1269
looking 1268
4@@ 1264
ty 1264
whole 1263
trying 1262
gu@@ 1261
etwa 1260
gra@@ 1258
point 1258
elle 1256
bekommen 1255
ded 1255
dollar 1254
könnten 1254
without 1254
ct 1253
too 1253
welche 1253
nach@@ 1252
du@@ 1248
wasser 1239
seite 1233
100 1231
food 1228
power 1228
sollte 1228
mean 1223
kam 1221
ens 1220
energy 1216
us@@ 1216
ben@@ 1215
ic 1205
frauen 1204
five 1202
ange@@ 1201
geld 1201
mis@@ 1195
sollten 1193
ziemlich 1192
ze 1191
daten 1188
enden 1187
meisten 1186
wollte 1183
sache 1181
lei@@ 1178
et@@ 1173
kan@@ 1172
meinen 1172
min@@ 1171
2 1166
th 1164
ons 1163
help 1162
tionen 1160
ction 1159
meinem 1159
ak@@ 1157
bar@@ 1157
times 1153
ot@@ 1149
tive 1149
essen 1147
jemand 1147
men@@ 1145
ans 1140
means 1140
zen 1140
ms 1138
wichtig 1136
future 1130
sc@@ 1130
kleinen 1129
gesehen 1128
tri@@ 1128
ability 1127
ever 1127
ves 1127
wi@@ 1127
ü@@ 1127
gesch@@ 1126
ka@@ 1125
technologie 1125
video 1125
kids 1121
problems 1121
mann 1120
halten 1118
ary 1117
cken 1117
darauf 1115
build 1114
simple 1114
thinking 1114
5@@ 1112
ges@@ 1112
u 1110
already 1108
best 1108
building 1108
lin@@ 1107
brauchen 1106
age 1105
lernen 1104
ker 1103
dr@@ 1102
ellen 1101
says 1101
vier 1101
ser@@ 1100
il@@ 1098
eigentlich 1096
second 1094
weniger 1094
zusammen 1094
dollars 1093
enough 1090
probably 1090
room 1090
hal@@ 1089
chte 1086
ph@@ 1084
zusammen@@ 1083
15 1081
social 1080
china 1077
besser 1075
ous 1075
all@@ 1074
ant 1074
str@@ 1074
raum 1073
ol@@ 1070
hand@@ 1067
makes 1067
tung 1067
wor@@ 1065
stand 1064
dar@@ 1062
may 1062
großen 1060
ble 1059
try 1059
off 1058
ganzen 1057
cted 1056
side 1055
bei@@ 1052
hei@@ 1051
earth 1049
took 1048
bri@@ 1047
tion@@ 1046
menge 1045
ft 1044
los 1044
bedeutet 1043
comes 1041
hen 1041
dachte 1040
det 1040
imagine 1039
space 1039
fo@@ 1037
om@@ 1037
ster@@ 1036
ask 1035
ul@@ 1033
che 1031
eln 1031
talking 1028
licher 1025
tu@@ 1024
sense 1023
body 1022
ihm 1022
tz@@ 1021
using 1021
ff@@ 1020
glauben 1019
zeigt 1018
interesting 1017
kleine 1015
number 1015
unseren 1015
science 1011
might 1010
states 1009
ster 1009
ihrem 1007
small 1007
half 1005
punkt 1005
bad 1004
chten 1004
left 1004
feel 999
re 998
gehirn 997
seen 997
tro@@ 995
lebens@@ 994
x@@ 994
rei@@ 992
africa 991
home 991
ally 990
pri@@ 989
tt@@ 989
happened 988
6@@ 987
kl@@ 986
schauen 986
versuchen 985
3 984
alen 978
danke 978
jedes 976
ment 976
gegen 974
spielen 974
ps 973
and@@ 971
away 970
believe 970
grund 969
mer@@ 969
frau 967
allen 966
project 964
che@@ 961
trans@@ 961
dra@@ 960
ab 958
7@@ 957
ll@@ 957
health 956
asked 954
york 954
king 953
führen 951
nein 950
ort 949
almost 948
har@@ 947
jeden 947
play 947
ausge@@ 943
ag@@ 942
test 940
tic 939
gr@@ 938
indem 938
licht 938
tan@@ 938
erung 936
ws 931
seit 928
countries 926
star@@ 925
ja@@ 924
later 924
beim 923
else 923
teilen 923
bauen 922
nutzen 920
saw 920
looked 918
yet 918
cher 917
erde 916
global 916
zukunft 916
ju@@ 915
cor@@ 913
gesagt 913
bes@@ 909
ne 908
schaffen 908
flo@@ 906
quite 903
united 900
book 899
cy 898
seiner 895
5 893
keinen 893
8 892
become 892
wahrscheinlich 892
eigenen 891
over@@ 890
car 889
erten 889
fünf 889
lives 889
hin 888
hätte 888
shows 888
told 888
ell 886
ies 886
jo@@ 885
tre@@ 885
gute 882
ts@@ 881
beautiful 880
yes 880
ance 879
experience 879
stehen 879
4 878
8@@ 878
40 877
looks 877
später 876
wer@@ 876
hard 875
ca@@ 872
care 872
1 871
ways 871
gl@@ 868
possible 868
zurück@@ 868
often 867
happen 865
iert 865
ner 865
tig 865
ideas 863
ors 861
stra@@ 861
sche 860
1@@ 859
gs 858
stellt 858
ones 856
family 855
process 855
stadt 855
team 855
arten 854
heraus 854
pl@@ 854
19@@ 853
days 853
far 853
jede 853
bring 852
ku@@ 852
six 851
ties 850
ung@@ 850
child 849
cht@@ 849
ing@@ 849
neu@@ 847
coming 846
setzen 846
line 845
move 843
anything 841
zer@@ 841
case 840
ful 840
ken@@ 840
probleme 840
pres@@ 839
sah 839
schule 838
sicher 837
the@@ 837
front 836
learn 836
d-@@ 835
hö@@ 835
making 834
ci@@ 833
lange 833
kom@@ 832
works 832
young 832
energie 831
everybody 830
9@@ 829
job 828
tigen 828
anzu@@ 827
nature 826
sure 826
bel@@ 824
funktioniert 824
super@@ 824
fl@@ 823
ungefähr 823
6 822
e-@@ 822
go@@ 819
ari@@ 817
20@@ 816
pretty 816
tation 816
lang 815
ali@@ 813
planet 813
pro 813
sub@@ 813
ton 812
welt@@ 811
richtig 810
group 809
än@@ 809
open 807
wenig 807
while 806
high 805
ma 805
business 804
konnten 803
mutter 803
such 803
wrong 803
kte 802
sing 802
ver 801
once 800
liches 799
lu@@ 799
sts 799
helfen 798
kor@@ 796
per 796
erzählen 795
buch 794
ars 793
zwei@@ 793
hu@@ 792
rest 792
whether 792
dan@@ 791
tieren 791
rate 790
7 787
oft 785
recht 785
state 785
ure 785
huge 784
billion 783
education 782
heißt 782
neuen 782
kten 781
körper 781
tor@@ 781
erst 778
material 778
liebe 777
music 777
genug 776
schnell 775
situation 775
sion 774
research 773
&#91; 772
cells 772
mil@@ 771
&#93; 769
ban@@ 768
completely 768
ler 768
möglich 767
tern 767
ell@@ 766
since 766
dung 765
ideen 765
read 765
tete 765
fu@@ 764
tige 764
happens 763
nächsten 763
weit 763
et 762
ments 762
wo@@ 762
hören 760
braucht 759
ke@@ 759
lan@@ 759
sage 758
afrika 757
name 757
cancer 756
someone 756
gruppe 755
mother 754
mm@@ 752
wunder@@ 752
pp@@ 751
unserem 751
bisschen 750
both 750
heard 750
ches 749
des@@ 749
gern 749
film 748
ga@@ 747
pu@@ 747
res@@ 747
einander 746
ß@@ 746
anders 745
begann 745
built 745
middle 745
remember 745
house 743
bio@@ 742
living 742
projekt 741
reden 741
elt 740
fer@@ 740
mor@@ 740
dank 739
pen@@ 739
reason 739
% 738
s-@@ 738
under 738
ieren 737
leuten 736
bor@@ 735
seinen 735
heit 733
ßen 733
bt 732
darum 732
els 732
ents 732
mal@@ 732
alt 731
überall 731
systems 730
answer 729
ba@@ 729
bevor 728
cks 728
euch 728
species 728
until 728
schi@@ 726
manchmal 725
sachen 725
level 724
nothing 723
nu@@ 721
teil@@ 721
les 720
ven@@ 720
är@@ 720
area 719
goes 719
planeten 719
schul@@ 719
single 719
hope 718
study 718
sometimes 717
fe 716
entwickelt 714
head 714
zed 714
basically 713
ber 712
mittel@@ 712
stri@@ 712
under@@ 712
amazing 711
fol@@ 711
gehört 711
geb@@ 710
fr@@ 709
sei 709
je 708
lich@@ 708
words 708
government 707
india 707
wasn 707
mind 705
language 704
history 703
sha@@ 702
0s 701
environment 701
natur 701
9 700
bur@@ 700
fan@@ 700
mel@@ 698
months 698
wal@@ 698
wert 698
stories 697
ner@@ 696
milliarden 695
community 694
piece 694
wieder@@ 694
beginning 693
happy 693
heart 693
unternehmen 693
god 692
sagten 692
students 692
sur@@ 692
zellen 691
public 690
sort 690
seinem 689
true 689
gend 688
liegt 688
besch@@ 687
kennen 687
ator 686
eins 686
animals 685
control 685
gel 685
mädchen 684
set 684
universe 684
199@@ 683
col@@ 683
informationen 683
dna 681
nennen 681
tze 681
anderes 680
va@@ 680
wissenschaft 680
night 678
ved 678
ters 676
keep 675
decided 674
ia 674
society 673
tat 673
exactly 672
getting 672
fand 671
late 671
ischer 670
ity 670
ged 669
bau@@ 668
can@@ 668
company 668
fahr@@ 668
ry 668
fer 667
12 666
25 666
tur@@ 666
mer 665
revolution 665
cu@@ 663
instead 663
land@@ 663
eg@@ 662
tische 662
father 661
model 661
gestellt 660
gener@@ 659
cre@@ 658
erkennen 658
lau@@ 658
ates 657
besonders 657
learned 657
ations 656
dro@@ 656
kr@@ 656
others 656
bilder 655
deshalb 654
generation 654
gh@@ 654
ings 653
usa 653
woman 653
steht 652
spiel 651
machte 650
0@@ 649
verändern 649
lichkeit 648
por@@ 648
lage 647
pf@@ 647
tä@@ 647
versch@@ 647
zeit@@ 647
heraus@@ 646
stück 646
teile 646
gleich 645
places 645
stic 645
geschichten 644
ene 643
minutes 643
gar 642
gesellschaft 642
sprache 642
2@@ 641
familie 641
führt 641
nor@@ 641
treffen 641
alten 639
minuten 639
gefühl 638
gro@@ 638
ob@@ 638
sel@@ 638
disease 637
namens 637
sau@@ 637
ence 636
led 636
market 636
table 636
view 636
ki@@ 635
themselves 635
ving 635
erreichen 634
tischen 634
wegen 634
ün@@ 634
bereits 633
klar 633
mü@@ 633
oil 633
spiel@@ 633
wel@@ 633
ie@@ 632
oben 630
ap@@ 629
benutzen 629
game 629
off@@ 629
stor@@ 629
tions@@ 629
vater 629
hren 627
ocean 627
sal@@ 627
auszu@@ 626
ziehen 626
hoch@@ 624
dich 623
friends 623
indien 623
mp@@ 623
fil@@ 622
musste 622
realized 622
ase 621
verschiedene 621
cal 620
hätten 620
lebens 620
meter 620
ourselves 620
ven 620
möglichkeit 618
flu@@ 617
gang 617
irgend@@ 617
sechs 617
tragen 617
antwort 616
musik 616
wonderful 615
evolution 614
face 614
population 614
third 614
turn 614
enen 613
became 612
gene 612
across 611
80 610
ele@@ 610
viel@@ 610
cke 609
ics 609
air 608
ely 608
kal@@ 608
darin 606
questions 606
gan@@ 605
experiment 604
hours 604
hr@@ 604
kat@@ 604
out@@ 603
haus 602
sam@@ 602
word 602
against 601
finally 601
somebody 601
fin@@ 600
hear 599
normal 598
pac@@ 598
figure 597
gerne 597
und@@ 597
ig@@ 596
tiert 596
wasser@@ 596
falls 595
kopf 595
ling 595
os 595
stat@@ 595
weiter@@ 595
clo@@ 594
einzige 594
gkeit 594
sei@@ 594
stuff 594
century 593
everyone 593
auto@@ 592
innovation 592
machine 591
tiere 591
top 591
&amp; 590
60 590
jedem 590
mittel 590
sound 590
act 589
arm 588
known 588
cts 587
don@@ 587
news 587
order 587
cr@@ 586
v 586
augen 585
einigen 585
frei@@ 584
american 583
besten 583
tten 583
fla@@ 582
matter 582
nung 582
fish 581
large 579
lation 579
least 579
schreiben 579
stop 579
america 578
enti@@ 578
entwickeln 578
länder 578
gte 577
moving 577
stunden 577
tional 577
bil@@ 576
end@@ 576
met 576
myself 576
/ 574
ach@@ 574
areas 574
dessen 574
innerhalb 574
ka 574
onen 574
plan 573
stre@@ 573
ß 573
guy 572
san@@ 572
ckt 571
national 571
niemand 571
ground 570
irgendwie 570
pan@@ 570
bewegen 569
created 569
cur@@ 569
gar@@ 569
gleichen 569
happening 569
bringt 568
gott 568
wachsen 568
ces 567
gleiche 567
longer 567
kol@@ 566
itself 565
net 565
ys 565
tisch 564
gebracht 563
lie@@ 563
sho@@ 563
t-@@ 563
lässt 562
natural 562
tru@@ 562
knew 561
soll 561
verhalten 561
ou@@ 560
schließlich 560
cell 559
changed 559
kindern 559
ness 559
regierung 559
gebäude 558
id 558
dy 557
gave 557
aufge@@ 556
bra@@ 556
companies 556
hl@@ 556
ton@@ 555
bas@@ 554
bat@@ 554
hol@@ 554
lar@@ 554
obwohl 554
parts 554
char@@ 553
verschiedenen 553
win@@ 553
leave 552
menschlichen 552
needs 551
tiven 551
ment@@ 550
sor@@ 550
wür@@ 550
center 549
sed 549
verwenden 549
äu@@ 549
bl@@ 548
turns 548
ce@@ 547
erhalten 547
oper@@ 547
psych@@ 547
schaft 547
vorstellen 547
500 546
aten 546
during 546
gegen@@ 546
learning 546
möglichkeiten 546
zei@@ 546
cri@@ 545
phone 545
pt 545
free 544
gleich@@ 544
200 543
dern 543
street 543
ern@@ 542
lesen 542
patienten 541
ändern 541
beiden 540
ev@@ 540
size 540
cher@@ 538
within 538
culture 537
fre@@ 537
nimmt 537
regi@@ 537
position 536
18@@ 535
ur 535
eth@@ 534
kre@@ 534
nämlich 534
gemein@@ 533
eltern 532
schw@@ 532
audience 531
gten 531
ill@@ 531
lösung 531
genommen 530
hor@@ 530
kraft 530
chter 529
wollten 529
krebs 528
based 527
couldn 527
dir 527
ran@@ 527
seven 527
self-@@ 526
outside 525
stellte 525
sum@@ 524
thousands 524
cost 523
difference 523
ined 523
männer 523
schwer 523
beginnen 522
death 522
incredible 522
len 522
lose 522
ess 521
unglaublich 521
early 520
eyes 520
kamen 520
ted@@ 520
clear 519
parents 519
tter@@ 519
deal 518
gets 518
lösen 518
my@@ 518
patient 518
entwicklung 517
ic@@ 517
isches 517
wirtschaft 517
formen 516
fähigkeit 516
hlt 516
mus 516
sto@@ 516
bitte 515
damals 515
hoch 515
kunst 515
stelle 515
google 514
rück@@ 514
david 513
economic 513
eight 512
herum 512
inside 512
ust 512
aller 511
bs 511
ec@@ 511
glück 511
interested 511
media 511
sinn 511
common 510
fahren 510
hnen 510
kar@@ 510
developed 509
ide@@ 509
saying 509
tt 509
versucht 509
y-@@ 509
selbst@@ 508
terms 508
west 508
behind 507
bes 507
cities 507
cra@@ 506
drei@@ 506
online 506
ori@@ 506
universum 506
fangen 505
fü@@ 505
hn@@ 505
pas@@ 505
turned 505
wohl 505
daher 504
green 504
hause 504
län@@ 504
yourself 504
ders 503
flie@@ 503
legen 503
tage 503
voll@@ 503
laufen 502
plan@@ 502
ani@@ 501
knowledge 501
kultur 501
staaten 501
version 501
vo@@ 501
yo@@ 501
auto 500
ess@@ 500
getan 500
produ@@ 500
vision 500
fühlen 499
key 499
kop@@ 499
angst 498
ant@@ 498
fort@@ 498
kti@@ 498
lehr@@ 498
ls 498
stoff 498
wir@@ 498
worked 498
hinter 497
nächste 497
powerful 497
schön 497
ssen 497
takes 497
ture 497
dri@@ 496
zt 496
überhaupt 496
brought 495
fra@@ 495
gung 495
richtung 495
schü@@ 495
sü@@ 495
hilfe 494
kin@@ 494
voll 494
18 493
cap@@ 493
hab@@ 493
nis 493
ns 493
verändert 493
blick 492
rie@@ 492
tut 492
certain 491
sitting 491
syn@@ 491
bewegung 490
black 490
tal@@ 490
wort 490
zwar 490
baren 489
del@@ 489
rech@@ 489
share 489
tzen 489
nachdem 488
spezi@@ 488
krieg 487
software 487
zahlen 487
allem 486
development 486
uni@@ 486
gene@@ 485
arti@@ 484
junge 484
menschliche 484
modell 484
pos@@ 484
rec@@ 484
run 484
0-@@ 483
force 483
particular 483
zahl 483
groß 482
visu@@ 482
nahmen 481
schla@@ 481
anti@@ 480
deren 480
difficult 480
neuro@@ 480
span@@ 480
letzte 479
yeah 479
dau@@ 478
grunde 478
taking 478
ther@@ 478
bom@@ 477
dete 476
kurz 476
sive 476
ser 475
einge@@ 474
full 474
top@@ 474
cool 473
fly 473
friend 473
grow 473
ked 473
kü@@ 473
nan@@ 473
sterben 473
eher 472
buy 471
ht 471
maschine 471
pal@@ 471
dingen 470
scale 470
sted 470
unten 470
bro@@ 469
hiv 469
son@@ 469
though 469
tiv 469
treten 469
week 469
gest@@ 468
wahr@@ 468
cing 467
gri@@ 467
tend 467
wind 467
worden 467
lö@@ 466
prin@@ 466
south 466
tte 466
value 466
wissenschaftler 466
erfahrung 465
ren@@ 465
blue 464
books 464
äl@@ 464
.000 463
alter 463
entire 463
krei@@ 463
üb@@ 463
,@@ 462
genden 462
movement 462
na 462
nahm 462
bare 461
enten 461
labor 461
wider@@ 461
wing 461
bre@@ 460
fanden 460
findet 460
kes 460
physi@@ 460
spi@@ 460
surface 460
tat@@ 460
ying 460
mission 459
tors 459
unterschied 459
program 458
vis@@ 458
behavior 457
betrachten 457
jungen 457
paper 457
welches 457
eat 456
eu@@ 456
gre@@ 456
ien 456
meines 456
region 456
ship 456
baby 455
ented 455
fis@@ 455
kaufen 455
kinds 455
ord@@ 455
pe 455
prote@@ 455
chance 454
tried 454
tter 454
low 453
spend 453
dre@@ 452
kur@@ 452
lung 452
micro@@ 452
neu 452
wouldn 452
wrote 452
cting 451
fest@@ 451
jedoch 451
political 451
tief@@ 451
weitere 451
wh@@ 451
eigene 450
fliegen 450
führ@@ 450
la 450
pped 450
rather 450
mag 449
ned 449
anfang 448
bank 448
forschung 448
haus@@ 448
bin@@ 447
complex 447
eller 447
fac@@ 447
fal@@ 447
wand@@ 447
boden 446
ism 446
pla@@ 446
platz 446
sex 446
ker@@ 445
kosten 445
lost 445
poli@@ 445
ang@@ 444
impact 444
isi@@ 444
lieben 444
muster 444
schä@@ 444
ziel 444
economy 443
grund@@ 443
structure 443
wohl@@ 443
zen@@ 443
ats 442
especially 442
mati@@ 442
thema 442
bal@@ 441
belie@@ 441
beste 441
bildung 441
fru@@ 441
gebaut 441
mes 441
stage 441
0.000 440
groß@@ 440
indi@@ 440
körper@@ 440
movie 440
pictures 440
positive 440
spr@@ 440
schu@@ 439
ums 439
white 439
ality 438
cy@@ 438
prozess 438
roboter 438
,000 437
10@@ 437
air@@ 437
lehrer 437
quickly 437
rau@@ 437
either 436
falsch 436
field 436
ice 436
verbindung 436
solche 435
erinnern 434
han@@ 434
hy@@ 434
vari@@ 434
write 434
growth 433
mussten 433
interessant 432
vortrag 432
genauso 431
hinter@@ 431
mt 431
bleiben 430
close 430
mechan@@ 430
seeing 430
woche 430
direkt 429
fragte 429
grün@@ 429
impro@@ 429
markt 429
step 429
ße 429
bel 428
bereich 428
enth@@ 428
fel@@ 428
morning 428
suchen 428
cally 427
changes 427
kri@@ 427
publikum 427
wohn@@ 427
born 426
cho@@ 425
code 425
sollen 425
zweite 425
bon@@ 424
ini@@ 424
tau@@ 424
university 424
en-@@ 423
hü@@ 423
lab 423
namen 423
pay 423
solution 423
weg@@ 423
len@@ 422
dig 421
gefunden 421
gei@@ 421
sig@@ 421
stan@@ 421
wol@@ 421
autos 420
chen@@ 420
sieben 420
wahr 420
ball 419
freunde 419
seems 419
selben 419
solve 419
atom@@ 418
gers 418
hlen 418
zuvor 418
0,000 417
ame 417
asi@@ 417
einzu@@ 417
john 417
modern 417
sie@@ 417
neues 416
ologie 416
zer 416
aren 415
far@@ 415
fle@@ 415
gedanken 415
patients 415
ris@@ 415
sch 415
virus 415
danach 414
fallen 414
tical 414
198@@ 413
bigger 413
blu@@ 413
cars 413
fall@@ 413
monate 413
11 412
board 412
climate 412
colle@@ 412
größte 412
squ@@ 412
technologies 412
animal 411
cker 411
guten 411
pra@@ 411
tages 411
talks 411
theorie 411
tives 411
wen@@ 411
developing 410
fas@@ 410
jobs 410
local 410
lt 410
nte 410
send 410
sil@@ 410
zes 410
ppe 409
source 409
weeks 409
wusste 409
ziert 409
chan@@ 408
ical 408
inten@@ 408
past 408
setzt 408
special 408
amount 407
ften 407
girl 407
glücklich 407
hast 407
nt 407
wären 407
erschaffen 406
fro@@ 406
gas 406
personal 406
plötzlich 406
realize 406
showed 406
taken 406
medi@@ 405
posi@@ 405
religion 405
zehn 405
besteht 404
box 404
equ@@ 404
scientists 404
discovered 403
fun 403
gegeben 403
om 403
sin@@ 403
ha 402
mag@@ 402
70 401
depen@@ 401
digen 401
scho@@ 401
studi@@ 401
90 400
anderer 400
felt 400
fest 400
stoff@@ 400
struktur 400
testen 400
coun@@ 399
mikro@@ 399
mine 399
oni@@ 399
recor@@ 399
technologien 399
eli@@ 398
main 398
museum 398
needed 398
reise 398
äch@@ 398
arch@@ 397
dlich 397
draußen 397
schle@@ 397
zä@@ 397
ales 396
berei@@ 396
gemeinschaft 396
hands 396
ig 396
kli@@ 396
rat@@ 396
sicht@@ 396
sy@@ 396
völlig 396
average 395
easy 395
ft@@ 395
theory 395
walk 395
connected 394
designer 394
gew@@ 394
ihres 394
ländern 394
talked 394
technik 394
yp@@ 394
zing 394
attention 393
bran@@ 393
college 393
potential 393
wochen 393
ative 392
continu@@ 392
gelernt 392
glück@@ 392
miles 392
sicht 392
up@@ 392
web 392
industry 391
jen@@ 391
security 391
sehe 391
größe 390
reality 390
similar 390
zuerst 390
ör@@ 390
fel 389
hey 389
luft 389
manche 389
sun 389
ama@@ 388
cam@@ 388
fri@@ 388
hel@@ 388
reihe 388
sicherheit 388
tin@@ 388
vers 388
wall 388
growing 387
pul@@ 387
relationship 387
alone 386
hen@@ 386
mas@@ 386
möchten 386
sorgen 386
teten 386
designed 385
fing 385
heiten 385
map 385
mus@@ 385
opportunity 385
uren 385
beru@@ 384
bewusst 384
scheint 384
ther 384
understanding 384
wand 384
strei@@ 383
aussehen 382
beginnt 382
blo@@ 382
cut 382
enz 382
materials 382
pat@@ 382
pur@@ 382
radi@@ 382
shape 382
spent 382
bereit 381
died 381
flug@@ 381
ham@@ 381
erklären 380
histor@@ 380
lam@@ 380
leben@@ 380
moral 380
strong 380
unseres 380
bist 379
compassion 379
ement 379
ffe 379
funktionieren 379
lang@@ 379
musi@@ 379
zeug 379
cles 378
miteinander 378
morgen 378
north 378
strange 378
tools 378
arbeitet 377
aufgabe 377
ey 377
support 377
systeme 377
16 376
ah 376
analy@@ 376
anymore 376
gewal@@ 376
gewesen 376
hervor@@ 376
images 376
schritt 376
studenten 376
amerika 375
bot@@ 375
diagno@@ 375
dr. 375
egal 375
ese 375
explain 375
flü@@ 375
given 375
herr@@ 375
ppen 375
ss@@ 375
anzahl 374
erzählt 374
general 374
haven 374
humans 374
incredibly 374
poor 374
vol@@ 374
changing 373
computers 373
english 373
pun@@ 373
result 373
yed 373
mars 372
mot@@ 372
anstatt 371
aufzu@@ 371
daraus 371
digital 371
feet 371
nachdenken 371
offen@@ 371
tatsache 371
brachte 370
denkt 370
gs@@ 370
law 370
mache 370
tas@@ 370
allow 369
anfangen 369
geworden 369
lived 369
nei@@ 369
nten 369
playing 369
prä@@ 369
recently 369
repres@@ 369
acht 368
anyone 368
bekannt 368
computer@@ 368
east 368
karte 368
oren 368
passieren 368
stimmt 368
ard 367
color 367
guys 367
inv@@ 367
lin 367
niemals 367
vent@@ 367
gerät 366
gruppen 366
klein@@ 366
moved 366
program@@ 366
proje@@ 366
zo@@ 366
argu@@ 365
ca 365
cket 365
dat@@ 365
dly 365
jemals 365
mass 365
mate 365
medical 365
minute 365
verwendet 365
infe@@ 364
mm 364
traum 364
cer@@ 363
firma 363
ill 363
nacht 363
numbers 363
soon 363
dem@@ 362
hier@@ 362
save 362
spricht 362
bevölkerung 361
cul@@ 361
gesicht 361
ige 361
jahrhundert 361
pr@@ 361
stand@@ 361
steu@@ 361
tho@@ 361
chris 360
genannt 360
girls 360
las@@ 360
london 360
short 360
sing@@ 360
supposed 360
vorstellung 360
chinese 359
essi@@ 359
gives 359
innen 359
lat@@ 359
messen 359
swe@@ 359
usually 359
bücher 358
dic@@ 358
forms 358
gende 358
groups 358
happiness 358
kinder@@ 358
knows 358
preis 358
refle@@ 358
300 357
ared 357
cop@@ 357
esti@@ 357
folgen 357
interessan@@ 357
millions 357
schwierig 357
straße 357
student 357
tö@@ 357
basic 356
bed 356
cal@@ 356
est@@ 356
fli@@ 356
gesundheit 356
investi@@ 356
kleines 356
liegen 356
mensch 356
o-@@ 356
ss 356
wäl@@ 356
ze@@ 356
zeige 356
bekommt 355
elektr@@ 355
gingen 355
sters 355
wahl 355
blood 354
dark 354
eigen@@ 354
fun@@ 354
sea 354
ta 354
zentr@@ 354
acc@@ 353
beide 353
haupt@@ 353
plat@@ 353
afghanistan 352
cat@@ 352
gebiet 352
größten 352
network 352
ständig 352
0ern 351
access 351
ad 351
device 351
fear 351
gän@@ 351
holen 351
wants 351
wn 351
ßt 351
gezeigt 350
identi@@ 350
krankheit 350
reasons 350
scht 350
000 349
product 349
she@@ 349
sonst 349
vie@@ 349
challenge 348
cs 348
ley 348
mathemati@@ 348
writing 348
clu@@ 347
feeling 347
kel 347
links 347
scientific 347
soziale 347
sä@@ 347
umgebung 347
— 347
although 346
demon@@ 346
foto 346
gefü@@ 346
billi@@ 345
dru@@ 345
ning 345
ously 345
politik 345
schulen 345
sounds 345
whatever 345
allein 344
games 344
hundreds 344
oberfläche 344
running 344
wahrheit 344
active 343
benutzt 343
zeiten 343
ched 342
herz@@ 342
kontrolle 342
listen 342
log@@ 342
rules 342
schrieb 342
stimme 342
techni@@ 342
tel@@ 342
wes@@ 342
becomes 341
drive 341
dungen 341
smo@@ 341
sol@@ 341
wait 341
öl@@ 341
aler 340
couple 340
fehl@@ 340
hold 340
meet 340
pflanzen 340
tzt 340
verbunden 340
versuche 340
website 340
ente 339
seiten 339
spiele 339
starting 339
städte 339
tor 339
deep 338
develop 338
für@@ 338
jemanden 338
projects 338
proz@@ 338
resources 338
richtige 338
schlecht 338
sicher@@ 338
taten 338
bilden 337
bli@@ 337
break 337
glob@@ 337
rolle 337
sonnen@@ 337
uses 337
cli@@ 336
goal 336
leicht 336
regeln 336
tab@@ 336
zieren 336
ander@@ 335
auth@@ 335
geschrieben 335
having 335
mat@@ 335
multi@@ 335
solar 335
sun@@ 335
tex@@ 335
werte 335
cin@@ 334
europe 334
liber@@ 334
physical 334
sozi@@ 334
tics 334
dou@@ 333
entfernt 333
forward 333
hälfte 333
non-@@ 333
quality 333
tät 333
wä@@ 333
chi@@ 332
focus 332
kleiner 332
laden 332
meinung 332
sting 332
tic@@ 332
tun@@ 332
bedeutung 331
boy 331
emp@@ 331
hon@@ 331
lebt 331
satz 331
schaut 331
stark 331
tier 331
bru@@ 330
mitte 330
park 330
ped 330
tier@@ 330
ähn@@ 330
basis 329
gone 329
il 329
veränderung 329
betra@@ 328
einfache 328
exciting 328
gegenüber 328
gele@@ 328
ingen 328
international 328
risk 328
schools 328
statt 328
14 327
aids 327
biolog@@ 327
chtet 327
essen@@ 327
gesprochen 327
machten 327
please 327
sent 327
tausende 327
teachers 327
tells 327
disappe@@ 326
fähigkeiten 326
genen 326
hält 326
ismus 326
journey 326
mein@@ 326
ras@@ 326
schwier@@ 326
verste@@ 326
zelle 326
attra@@ 325
ei 325
hoffe 325
plants 325
sus@@ 325
weisen 325
erreicht 324
gesam@@ 324
mögen 324
thi@@ 324
ball@@ 323
kil@@ 323
schei@@ 323
sonne 323
tel 323
zeich@@ 323
a-@@ 322
brea@@ 322
finde 322
geboren 322
giving 322
ology 322
sions 322
voice 322
eit 321
freund 321
further 321
head@@ 321
kle@@ 321
les@@ 321
od@@ 321
office 321
teach 321
u.s. 321
zimmer 321
ans@@ 320
arb@@ 320
ren 320
wish 320
cro@@ 319
electricity 319
gekommen 319
interessiert 319
leu@@ 319
mehr@@ 319
mä@@ 319
programm 319
richard 319
speed 319
tal 319
village 319
appe@@ 318
gal@@ 318
hour 318
schwer@@ 318
star 318
won 318
class 317
cou@@ 317
produce 317
series 317
spro@@ 317
studie 317
abzu@@ 316
bewegt 316
dead 316
erfolg 316
perfect 316
plant 316
reach 316
stellung 316
algorith@@ 315
beziehung 315
dig@@ 315
mental 315
nobody 315
schließen 315
teilt 315
vereinigten 315
wann 315
western 315
1,@@ 314
ed@@ 314
finger 314
komplett 314
lab@@ 314
resi@@ 314
training 314
verloren 314
absolut 313
ansehen 313
bekam 313
doctor 313
robot 313
sand 313
schie@@ 313
sm@@ 313
suddenly 313
ths 313
aff@@ 312
ases 312
biggest 312
examples 312
heutzutage 312
rein@@ 312
vier@@ 312
befinden 311
einzelne 311
fehler 311
gesetzt 311
hil@@ 311
lä@@ 311
success 311
tungen 311
wär@@ 311
bab@@ 310
dete@@ 310
öl 310
197@@ 309
conditions 309
ctions 309
dest 309
dom@@ 309
ebene 309
gesundheits@@ 309
ignor@@ 309
kam@@ 309
pain@@ 309
wat@@ 309
zw@@ 309
aller@@ 308
dachten 308
gue 308
individual 308
ktion 308
liert 308
likely 308
mäch@@ 308
offensichtlich 308
pfen 308
sionen 308
tan 308
ang 307
cle@@ 307
gesamte 307
lieren 307
loo@@ 307
mö@@ 307
older 307
pil@@ 307
available 306
certainly 306
cla@@ 306
ff 306
geri@@ 306
herausforderung 306
hospital 306
komme 306
med 306
sofort 306
store 306
voller 306
geschieht 305
herauszufinden 305
hle 305
hop@@ 305
ina 305
industri@@ 305
lines 305
nuclear 305
wil@@ 305
evidence 304
explo@@ 304
krankheiten 304
nennt 304
nis@@ 304
nisse 304
ober@@ 304
skin 304
stellten 304
trotzdem 304
ute 304
bottom 303
deten 303
ession 303
fied 303
grew 303
langen 303
list 303
mitgefühl 303
nine 303
normalerweise 303
schnitt 303
wachstum 303
ähnlich 303
connect 302
everywhere 302
ferti@@ 302
glichen 302
kla@@ 302
sahen 302
tod 302
verb@@ 302
wieso 302
bald 301
blin@@ 301
cked 301
follow 301
gearbeitet 301
hi 301
linie 301
mini@@ 301
page 301
schau@@ 301
stu@@ 301
wichtige 301
cent 300
hoffnung 300
kannst 300
particularly 300
along 299
drugs 299
fä@@ 299
object 299
ow@@ 299
person@@ 299
role 299
sli@@ 299
überrasch@@ 299
ass 298
klu@@ 298
male 298
sky 298
symme@@ 298
tagen 298
faster 297
mieren 297
musli@@ 297
nutz@@ 297
seem 297
sorts 297
sprach 297
dynam@@ 296
exp@@ 296
gol@@ 296
liter@@ 296
message 296
möglichen 296
pol@@ 296
schein@@ 296
stimmen 296
13 295
anyway 295
ergebnis 295
formed 295
grenzen 295
halte 295
igen 295
mc@@ 295
ot 295
pli@@ 295
port@@ 295
stische 295
teacher 295
trau@@ 295
app@@ 294
beri@@ 294
connection 294
gewinnen 294
high-@@ 294
künstler 294
mei@@ 294
passen 294
repor@@ 294
ures 294
aspe@@ 293
bewusstsein 293
cultural 293
führte 293
operation 293
partner 293
products 293
respe@@ 293
studies 293
total 293
bill 292
choice 292
fire 292
leg@@ 292
matic 292
ordnung 292
shown 292
action 291
ak 291
entscheidungen 291
extraordinary 291
iran 291
kö@@ 291
mic 291
sitzen 291
tiny 291
unge@@ 291
vel@@ 291
verl@@ 291
allows 290
ast 290
ehr@@ 290
form@@ 290
hun@@ 290
lea@@ 290
month 290
new@@ 290
smart 290
spread 290
wesen 290
bet@@ 289
eben 289
exc@@ 289
exi@@ 289
fassen 289
japan 289
ket@@ 289
kunst@@ 289
läuft 289
our@@ 289
results 289
tou@@ 289
anschauen 288
asking 288
hau@@ 288
human@@ 288
hän@@ 288
ise 288
mes@@ 288
tlich 288
umwelt@@ 288
walking 288
besu@@ 287
continue 287
fälle 287
gleichzeitig 287
largest 287
ny 287
shor@@ 287
stay 287
24 286
ank@@ 286
edi@@ 286
entation 286
herum@@ 286
hört 286
pattern 286
spa@@ 286
techn@@ 286
transpor@@ 286
vergessen 286
weltweit 286
wie@@ 286
zentrum 286
alte 285
co2 285
enor@@ 285
eye 285
folge 285
hielt 285
hä@@ 285
kapit@@ 285
los@@ 285
peace 285
sell 285
ath@@ 284
ators 284
bedeu@@ 284
bestimmten 284
fte 284
funktion@@ 284
halt 284
insi@@ 284
journ@@ 284
länger 284
monaten 284
production 284
q@@ 284
ral 284
sozialen 284
thre@@ 284
tigt 284
wichtiger 284
zeichnet 284
democracy 283
desig@@ 283
größer 283
orte 283
sieren 283
teri@@ 283
xi@@ 283
band 282
beobachten 282
cations 282
creative 282
econom@@ 282
europa 282
foot@@ 282
gedacht 282
hundred 282
interest 282
lagen 282
lon@@ 282
nachhal@@ 282
nice 282
realität 282
stam@@ 282
treiben 282
well-@@ 282
begannen 281
crazy 281
effect 281
effizi@@ 281
einzelnen 281
gas@@ 281
klas@@ 281
professor 281
worth 281
übrigens 281
complicated 280
daten@@ 280
eless 280
ore 280
ra 280
rede 280
rela@@ 280
sobald 280
spei@@ 280
ach 279
beyond 279
grand@@ 279
großer 279
gutes 279
klei@@ 279
merk@@ 279
produkt 279
punkte 279
reach@@ 279
serious 279
extra@@ 278
feld 278
fight 278
gewöhn@@ 278
greifen 278
isn 278
kid 278
ließ 278
medicine 278
mul@@ 278
netz@@ 278
richtigen 278
san 278
schl@@ 278
service 278
stern 278
ature 277
aufmerksamkeit 277
besit@@ 277
dy@@ 277
firmen 277
fische 277
healthy 277
orten 277
tin 277
abge@@ 276
ationen 276
carbon 276
deine 276
erd@@ 276
expensive 276
gemeinsam 276
hung 276
lead 276
schneller 276
sper@@ 276
stoffe 276
denk@@ 275
druck 275
electr@@ 275
eng@@ 275
gaben 275
meters 275
passierte 275
plasti@@ 275
schn@@ 275
staat@@ 275
truth 275
trä@@ 275
verlieren 275
zier@@ 275
überleben 275
400 274
activity 274
außer 274
bessere 274
creating 274
großes 274
hab 274
higher 274
ik 274
impossible 274
leads 274
lle 274
obser@@ 274
present 274
stell@@ 274
visual 274
änder@@ 274
ären 274
15@@ 273
ands 273
cking 273
divi@@ 273
hl 273
ian 273
medien 273
poverty 273
rich 273
rich@@ 273
spaß 273
wert@@ 273
ble@@ 272
bleibt 272
destro@@ 272
door 272
halb 272
kultur@@ 272
produzieren 272
rus@@ 272
tzung 272
volle 272
vorher 272
bedro@@ 271
beispiele 271
buildings 271
camera 271
excited 271
fisch 271
langsam 271
objects 271
roll@@ 271
stars 271
stän@@ 271
ve@@ 271
videos 271
arbeits@@ 270
expect 270
ingenie@@ 270
ingly 270
ining 270
row 270
sammeln 270
skills 270
text 270
anybody 269
demo@@ 269
demokratie 269
fundamental 269
medizin 269
nachzudenken 269
ops 269
umwelt 269
values 269
196@@ 268
außerdem 268
berg 268
drücken 268
energi@@ 268
literally 268
nation 268
quad@@ 268
schaften 268
sprachen 268
trees 268
x-@@ 268
zumindest 268
arbeitete 267
bele@@ 267
berech@@ 267
industrie 267
interessante 267
models 267
nen@@ 267
nete 267
strom 267
versuchte 267
wussten 267
zeichnen 267
1.@@ 266
17 266
absolutely 266
amerikanischen 266
bö@@ 266
decisions 266
einfluss 266
facebook 266
ierte 266
involved 266
island 266
ligh@@ 266
ony 266
organization 266
price 266
stei@@ 266
tem 266
val@@ 266
winzi@@ 266
ants 265
bestimmt 265
crisis 265
dance 265
fig@@ 265
geschehen 265
ines 265
milli@@ 265
reich 265
schlagen 265
verstanden 265
arbei@@ 264
cha@@ 264
chtung 264
cian 264
entdecken 264
er-@@ 264
humanity 264
intervie@@ 264
nachrichten 264
provi@@ 264
reali@@ 264
schrei@@ 264
trag@@ 264
verbessern 264
washington 264
$ 263
domin@@ 263
famous 263
fantastic 263
gewalt 263
imm@@ 263
kab@@ 263
non@@ 263
ologen 263
paul 263
redu@@ 263
rop@@ 263
sichti@@ 263
sou@@ 263
sowohl 263
spezies 263
stisch 263
wün@@ 263
zweiten 263
back@@ 262
bus@@ 262
conclu@@ 262
dec@@ 262
deli@@ 262
klasse 262
measure 262
mensch@@ 262
ration 262
schöne 262
sl@@ 262
studien 262
sym@@ 262
thes@@ 262
wow 262
ye@@ 262
chines@@ 261
dadurch 261
eig@@ 261
except 261
fällt 261
haut 261
innova@@ 261
klein 261
named 261
ogra@@ 261
perfe@@ 261
pping 261
prei@@ 261
private 261
ray 261
arab@@ 260
blind 260
diejenigen 260
ences 260
freedom 260
gegangen 260
krie@@ 260
liste 260
llt 260
perhaps 260
sar@@ 260
vertrauen 260
vorher@@ 260
win 260
zogen 260
bühne 259
ffen 259
mathematik 259
rel@@ 259
tiger 259
tly 259
trust 259
zugang 259
bacteria 258
cen@@ 258
contribu@@ 258
england 258
erinn@@ 258
fein@@ 258
kä@@ 258
methode 258
prinzip 258
station 258
tik 258
wu@@ 258
aging 257
amerikaner 257
brauch 257
cases 257
ckte 257
dream 257
erzeugen 257
fir@@ 257
genes 257
optimi@@ 257
organisation 257
slo@@ 257
song 257
spo@@ 257
waiting 257
äumen 257
driving 256
esen 256
führung 256
logi@@ 256
not@@ 256
personen 256
phy@@ 256
swi@@ 256
telling 256
unfortunately 256
verlassen 256
0er 255
charles 255
combin@@ 255
conver@@ 255
dd@@ 255
fei@@ 255
geist 255
image 255
inn@@ 255
meaning 255
menschheit 255
roman@@ 255
scher 255
smaller 255
struc@@ 255
za@@ 255
zation 255
beauty 254
dige 254
dur@@ 254
erlaubt 254
gesi@@ 254
glass 254
leaders 254
lern@@ 254
lied 254
publi@@ 254
violence 254
zunehmen 254
zü@@ 254
approach 253
details 253
frei 253
individu@@ 253
nation@@ 253
nenne 253
rechte 253
richten 253
schli@@ 253
stä@@ 253
theater 253
transpar@@ 253
waste 253
zeichen 253
45 252
allowed 252
ank 252
dorf 252
farbe 252
gewis@@ 252
gründe 252
income 252
j 252
lli@@ 252
mur@@ 252
ners 252
omen 252
organisi@@ 252
posed 252
protect 252
reich@@ 252
schlag 252
spielt 252
sten@@ 252
stet 252
verständnis 252
werk 252
zero 252
ements 251
erwar@@ 251
gewicht 251
handelt 251
hörte 251
kra@@ 251
kämpfen 251
nachricht 251
respon@@ 251
standing 251
successful 251
vergangenheit 251
zin@@ 251
architecture 250
definition 250
etc 250
flow 250
früher 250
herstellen 250
iger 250
köni@@ 250
schicken 250
square 250
wander@@ 250
watch 250
comp@@ 249
hit@@ 249
hundert 249
konzept 249
mix@@ 249
neben@@ 249
oli@@ 249
quar@@ 249
recogni@@ 249
tam@@ 249
temp@@ 249
understood 249
us-@@ 249
versuch 249
wirklichkeit 249
zustand 249
12@@ 248
aussieht 248
dangerous 248
dreht 248
hinaus 248
kern 248
obviously 248
sekunden 248
sexu@@ 248
stieg 248
vation 248
warten 248
web@@ 248
abstra@@ 247
artikel 247
ced 247
elte 247
invented 247
papier 247
press 247
putting 247
schüler 247
trieben 247
universität 247
virtu@@ 247
brau@@ 246
brei@@ 246
erle@@ 246
forest 246
frieden 246
fron@@ 246
ght 246
großartige 246
irgendwo 246
künst@@ 246
pflan@@ 246
pieces 246
schreck@@ 246
typ 246
worte 246
chti@@ 245
erhö@@ 245
geschwindigkeit 245
globalen 245
gos 245
hrt 245
phones 245
poin@@ 245
suche 245
suff@@ 245
tree 245
vic@@ 245
wife 245
wissenschaft@@ 245
wör@@ 245
» 245
arzt 244
bus 244
choose 244
consciousness 244
effective 244
endlich 244
familien 244
favorite 244
fotos 244
frü@@ 244
grad 244
immediately 244
kn@@ 244
schaff@@ 244
schen@@ 244
tigkeit 244
toll 244
öff@@ 244
200@@ 243
americans 243
clin@@ 243
glo@@ 243
kul@@ 243
ming 243
ordin@@ 243
pers 243
produkte 243
satelli@@ 243
screen 243
seconds 243
tar@@ 243
tom 243
tv 243
african 242
biology 242
ently 242
entweder 242
families 242
freiheit 242
handeln 242
hole 242
instru@@ 242
israel 242
nar@@ 242
neurons 242
pain 242
politi@@ 242
tere 242
trade 242
treatment 242
werfen 242
wissen@@ 242
2000 241
ack@@ 241
babies 241
foot 241
hing 241
killed 241
materialien 241
monat 241
ney 241
road 241
sinne 241
stör@@ 241
tungs@@ 241
verbinden 241
« 241
behandlung 240
behaup@@ 240
compu@@ 240
di 240
dn@@ 240
dun@@ 240
einzel@@ 240
folgt 240
frequ@@ 240
geh@@ 240
kranken@@ 240
mark 240
neben 240
safe 240
steigen 240
tele@@ 240
tically 240
tool 240
treat 240
wählen 240
armut 239
chirur@@ 239
diver@@ 239
diversity 239
haft 239
kontin@@ 239
kt@@ 239
mod@@ 239
radio 239
unmöglich 239
ward 239
wed 239
zahl@@ 239
öffnen 239
antworten 238
clim@@ 238
content 238
grö@@ 238
niedri@@ 238
rat 238
ursprün@@ 238
welcher 238
35 237
chern 237
explor@@ 237
geni@@ 237
größ@@ 237
gründen 237
hilft 237
kohlen@@ 237
maschinen 237
natur@@ 237
part@@ 237
qualität 237
spar@@ 237
taught 237
touch 237
unt 237
werk@@ 237
worse 237
written 237
aufgrund 236
bildet 236
bun@@ 236
ered 236
faces 236
geschäft 236
hit 236
interesse 236
kommen@@ 236
lauf@@ 236
lern 236
nam@@ 236
organ@@ 236
traditional 236
zieht 236
christ@@ 235
cl@@ 235
cycle 235
entdeckt 235
extremely 235
gefähr@@ 235
hom@@ 235
krea@@ 235
lü@@ 235
netz 235
nummer 235
osten 235
riesige 235
rights 235
rise 235
sele@@ 235
sit 235
stem 235
stration 235
verwen@@ 235
wood 235
cause 234
communities 234
erzähl@@ 234
faszinier@@ 234
hot 234
larger 234
meer 234
mme 234
ots 234
ozean 234
politics 234
signal 234
sohn 234
spe@@ 234
sustainable 234
150 233
betrachtet 233
dasselbe 233
ergebnisse 233
exper@@ 233
glich 233
heli@@ 233
hypo@@ 233
perspective 233
prof@@ 233
rechts 233
sam 233
schwe@@ 233
television 233
central 232
cep@@ 232
chts@@ 232
ebenso 232
ehe@@ 232
fern@@ 232
forsch@@ 232
gewinn@@ 232
michael 232
sensor@@ 232
stunde 232
trägt 232
useful 232
aid 231
din@@ 231
drehen 231
dritte 231
einfachen 231
einstein 231
forget 231
frem@@ 231
fund@@ 231
keln 231
kno@@ 231
leisten 231
läu@@ 231
objekt 231
performance 231
photograph@@ 231
plastic 231
published 231
skelet@@ 231
spek@@ 231
spon@@ 231
west@@ 231
17@@ 230
außergewöhn@@ 230
balance 230
comm@@ 230
dischen 230
entschieden 230
ermöglicht 230
ful@@ 230
genome 230
heben 230
high@@ 230
ly@@ 230
mach@@ 230
neun 230
passt 230
slow 230
somewhere 230
umzu@@ 230
unded 230
alität 229
bestimmte 229
bieten 229
cies 229
cru@@ 229
dist@@ 229
exist 229
kel@@ 229
kompli@@ 229
mau@@ 229
philosop@@ 229
tumor 229
antwor@@ 228
arbeite 228
concept 228
dent 228
erklärt 228
früh@@ 228
has@@ 228
himmel 228
ish 228
kamera 228
notice 228
terrible 228
verletz@@ 228
cir@@ 227
cold 227
conne@@ 227
dam@@ 227
devices 227
environmental 227
fasst 227
gh 227
graph@@ 227
haf@@ 227
legt 227
machines 227
minister 227
president 227
raum@@ 227
rema@@ 227
reser@@ 227
rä@@ 227
samen 227
alized 226
armen 226
artist 226
critical 226
druck@@ 226
drug 226
energie@@ 226
ereig@@ 226
gü@@ 226
ier@@ 226
masse 226
meeting 226
nahrung 226
näher 226
passion 226
patterns 226
physics 226
reichen 226
rele@@ 226
samm@@ 226
schafft 226
solchen 226
ty@@ 226
video@@ 226
zeigte 226
ast@@ 225
context 225
effe@@ 225
eigent@@ 225
endes 225
entscheiden 225
herz 225
hne 225
inst@@ 225
jun@@ 225
kollegen 225
lief 225
mals 225
math 225
mobile 225
pen 225
self 225
surgery 225
trag 225
unde 225
will@@ 225
wirk@@ 225
architektur 224
aware 224
bung 224
emotional 224
familiar 224
gefragt 224
gelegenheit 224
gesamten 224
inclu@@ 224
malaria 224
medizin@@ 224
meeres@@ 224
military 224
projekte 224
spieler 224
stes 224
stischen 224
thousand 224
traf 224
verstand 224
weight 224
weile 224
bit@@ 223
ching 223
conversation 223
costs 223
fluss 223
foundation 223
gesetz 223
ghts 223
green@@ 223
grei@@ 223
interak@@ 223
lands 223
matisch 223
qui@@ 223
repli@@ 223
solutions 223
three-@@ 223
wur@@ 223
befindet 222
beginn 222
beziehungen 222
chung 222
ctive 222
dor@@ 222
eis 222
ends 222
fully 222
fällen 222
geschäfts@@ 222
hydro@@ 222
hyper@@ 222
islam@@ 222
legs 222
lösungen 222
massive 222
myster@@ 222
on-@@ 222
points 222
raten 222
ressourcen 222
seh@@ 222
stein 222
typ@@ 222
was@@ 222
zeuge 222
apo@@ 221
außerhalb 221
clean 221
complete 221
flüs@@ 221
himself 221
ium 221
james 221
kaum 221
kunden 221
menschen@@ 221
nä@@ 221
party 221
tests 221
ät 221
600 220
alive 220
bis@@ 220
cent@@ 220
conference 220
ember 220
erin 220
film@@ 220
flying 220
freund@@ 220
kauf@@ 220
licht@@ 220
maß@@ 220
must 220
phase 220
raus 220
red@@ 220
reduce 220
religi@@ 220
stü@@ 220
untersuchen 220
wü@@ 220
zz@@ 220
attac@@ 219
bakterien 219
cover 219
ender 219
herzustellen 219
kampf 219
kilometer 219
komplex@@ 219
landes 219
leistung 219
power@@ 219
profit 219
sign 219
term 219
tom@@ 219
trifft 219
wirkung 219
2008 218
ade 218
bau 218
distribu@@ 218
doctors 218
earlier 218
erzählte 218
ited 218
naja 218
one-@@ 218
ong 218
original 218
peri@@ 218
sich@@ 218
sinn@@ 218
zunächst 218
auff@@ 217
freu@@ 217
greatest 217
hände 217
jahr@@ 217
progress 217
sches 217
schönheit 217
scientist 217
seines 217
several 217
straßen 217
tz 217
veran@@ 217
worten 217
belo@@ 216
depres@@ 216
fur@@ 216
geln 216
heim@@ 216
hr 216
k-@@ 216
llen 216
mani@@ 216
shi@@ 216
shu@@ 216
ue 216
wagen 216
afraid 215
anda 215
argument 215
bezug 215
dein 215
fertig 215
financial 215
gerä@@ 215
illu@@ 215
leider 215
letz@@ 215
rob@@ 215
schwan@@ 215
stone 215
thomas 215
wirtschafts@@ 215
zell@@ 215
auswirkungen 214
biologie 214
bürger@@ 214
chem@@ 214
del 214
forces 214
george 214
getroffen 214
hinzu@@ 214
lege 214
magic 214
phil@@ 214
ror 214
schlechte 214
stände 214
tivity 214
ttern 214
verkaufen 214
year-old 214
99 213
auen 213
bild@@ 213
conser@@ 213
conven@@ 213
depression 213
docum@@ 213
evol@@ 213
experiments 213
fine 213
fähig 213
gehirn@@ 213
geschaffen 213
geschlossen 213
hör@@ 213
mier@@ 213
nicht-@@ 213
offi@@ 213
pressure 213
studio 213
teaching 213
äre 213
adap@@ 212
assu@@ 212
begins 212
bul@@ 212
ca. 212
eigenschaften 212
einzigen 212
fläche 212
heit@@ 212
herausfinden 212
including 212
jan@@ 212
lag 212
laws 212
ries 212
robots 212
sh 212
siert 212
spitze 212
sum 212
wers 212
agre@@ 211
aktu@@ 211
bisher 211
era 211
gehirns 211
increase 211
kill 211
kämp@@ 211
leidenschaft 211
networks 211
organisationen 211
police 211
uhr 211
unglaubliche 211
wan@@ 211
wege 211
whe@@ 211
zy@@ 211
bahn 210
brechen 210
dan 210
dog 210
erfahren 210
erstens 210
extrem 210
freude 210
heat 210
km 210
letztes 210
reading 210
remarkable 210
survive 210
tens 210
two-@@ 210
voraus@@ 210
wards 210
deswegen 209
dlichen 209
fair 209
floor 209
flugzeug 209
großartig 209
hero@@ 209
intelligence 209
loss 209
nigeria 209
participa@@ 209
schwar@@ 209
werkzeuge 209
wichtigste 209
abend 208
brü@@ 208
erneu@@ 208
finanzi@@ 208
frie@@ 208
geräte 208
glaub@@ 208
ically 208
ktor 208
lernte 208
lower 208
moral@@ 208
obje@@ 208
protein 208
ready 208
steckt 208
surprising 208
syste@@ 208
temperature 208
zeitpunkt 208
au 207
chs@@ 207
dün@@ 207
funny 207
hoff@@ 207
hunderte 207
informa@@ 207
konferenz 207
krankenhaus 207
lations 207
leiden 207
lie 207
markets 207
mess@@ 207
mountain 207
nap@@ 207
regu@@ 207
rou@@ 207
rund 207
sat@@ 207
sle@@ 207
zie@@ 207
above 206
al-@@ 206
among 206
bedingungen 206
closer 206
down@@ 206
fs 206
fühlt 206
inge 206
intelligent 206
keiner 206
kraft@@ 206
listening 206
mr. 206
reaktion 206
related 206
retten 206
schil@@ 206
schutz 206
stau@@ 206
stun@@ 206
tent 206
thro@@ 206
whose 206
willing 206
ür@@ 206
ann 205
california 205
chtes 205
discover 205
erinnere 205
f-@@ 205
führer 205
gic 205
gras@@ 205
improve 205
range 205
rule 205
sely 205
task 205
twice 205
typen 205
währ@@ 205
agree 204
benutz@@ 204
birds 204
bodies 204
ehrlich 204
encoura@@ 204
inspired 204
institute 204
institutions 204
repe@@ 204
schluss 204
schönen 204
september 204
sex@@ 204
spreche 204
vielfalt 204
vollen 204
westen 204
yer 204
af@@ 203
atlan@@ 203
aufgaben 203
bla@@ 203
bought 203
boys 203
chemical 203
element 203
erwarten 203
fuhr 203
heu@@ 203
krise 203
robo@@ 203
standard 203
säu@@ 203
terri@@ 203
train 203
uss 203
wikipedia 203
z.b. 203
accu@@ 202
amer@@ 202
bewe@@ 202
bing 202
blas@@ 202
chair 202
darwin 202
direction 202
festi@@ 202
helped 202
inspiri@@ 202
kun@@ 202
lasst 202
luft@@ 202
mehrere 202
netzwerk 202
recognize 202
regel@@ 202
sel 202
showing 202
sis 202
statt@@ 202
stattdessen 202
sung 202
tain 202
tradition 202
unterschiedliche 202
5,000 201
classi@@ 201
dents 201
diseases 201
ear@@ 201
erfü@@ 201
ever@@ 201
fern 201
ham 201
hat@@ 201
jün@@ 201
keits@@ 201
mitten 201
ological 201
rock 201
sodass 201
unden 201
unique 201
unterschiede 201
veränderungen 201
vorzu@@ 201
auge 200
beschrei@@ 200
creativity 200
ebenfalls 200
erfolgreich 200
frank@@ 200
gefä@@ 200
glei@@ 200
mente 200
opportunities 200
played 200
profi@@ 200
prototyp@@ 200
que 200
rechten 200
restaurant 200
schützen 200
search 200
sorry 200
stär@@ 200
subject 200
summer 200
wirken 200
ack 199
actions 199
angefangen 199
esses 199
ganzes 199
gesellschaften 199
globale 199
grade 199
grundle@@ 199
klima@@ 199
limit@@ 199
ll 199
mile 199
mögliche 199
nahe 199
nasa 199
nehme 199
promis@@ 199
shouldn 199
sische 199
strukturen 199
suppor@@ 199
tively 199
town 199
vac@@ 199
weite 199
capit@@ 198
clearly 198
decision 198
ells 198
fore@@ 198
geführt 198
gotten 198
harvard 198
kün@@ 198
lieb@@ 198
maßen 198
medikamente 198
mming 198
regierungen 198
scan@@ 198
sion@@ 198
som@@ 198
tren@@ 198
trin@@ 198
va 198
verrückt 198
zustellen 198
achie@@ 197
ahnung 197
alisi@@ 197
bewer@@ 197
bäume 197
chter@@ 197
co 197
dge 197
digung 197
elektro@@ 197
ended 197
erfunden 197
jahrzehn@@ 197
kostet 197
moon 197
mr@@ 197
nes 197
onic 197
pel 197
ph 197
ruf 197
rufen 197
speak 197
sprech@@ 197
sse 197
thetic 197
u.@@ 197
univer@@ 197
uns@@ 197
verbindungen 197
verein@@ 197
veröffent@@ 197
wild 197
öffentlichen 197
ads 196
audi@@ 196
bemerkens@@ 196
brains 196
emotion@@ 196
genetic 196
invest@@ 196
jahrhunderts 196
obvious 196
phi@@ 196
philosoph@@ 196
physik 196
record 196
trieb 196
weib@@ 196
yers 196
195@@ 195
ably 195
ages 195
alternative 195
ash 195
brenn@@ 195
capital 195
chr@@ 195
elles 195
following 195
gehe 195
geru@@ 195
gste 195
höch@@ 195
introdu@@ 195
jene 195
karten 195
konzentrieren 195
leid 195
meant 195
miert 195
mili@@ 195
männ@@ 195
path@@ 195
period 195
pfer@@ 195
produktion 195
prü@@ 195
rü@@ 195
sequence 195
starts 195
surro@@ 195
zeu@@ 195
öffnet 195
apple 194
biological 194
broken 194
büro 194
evolved 194
fen@@ 194
gent@@ 194
gor@@ 194
jemandem 194
meas@@ 194
opini@@ 194
reg@@ 194
schritte 194
schätzen 194
steve 194
van@@ 194
verantwortung 194
add 193
affec@@ 193
agen@@ 193
alism 193
ana 193
calcul@@ 193
coast 193
demokra@@ 193
engineering 193
finished 193
flu 193
francisco 193
gender 193
geschafft 193
guter 193
hinder@@ 193
john@@ 193
motor 193
negative 193
sharing 193
solar@@ 193
status 193
tes@@ 193
trei@@ 193
unterstützen 193
visi@@ 193
wichtigsten 193
ai@@ 192
behandeln 192
bren@@ 192
chs 192
cians 192
dien@@ 192
einzigarti@@ 192
emergen@@ 192
ero@@ 192
erwä@@ 192
expected 192
fragt 192
gere@@ 192
herzen 192
heutigen 192
hinein 192
hum@@ 192
hängt 192
industrial 192
instrument 192
konsu@@ 192
mp 192
ozean@@ 192
policy 192
predic@@ 192
prevent 192
schlä@@ 192
stro@@ 192
tausend 192
career 191
current 191
dische 191
entlich 191
farben 191
genom@@ 191
glas@@ 191
kept 191
laptop 191
main@@ 191
matically 191
none 191
shot 191
smar@@ 191
twitter 191
wohin 191
wonder 191
öko@@ 191
agi@@ 190
alization 190
ameras 190
block 190
creates 190
daughter 190
differences 190
dness 190
easier 190
eigenes 190
englisch 190
experim@@ 190
fanta@@ 190
hea@@ 190
hearing 190
impres@@ 190
kosten@@ 190
lebte 190
measu@@ 190
nahme 190
nel 190
organis@@ 190
river 190
ruhi@@ 190
spre@@ 190
stecken 190
tief 190
tür 190
universi@@ 190
verk@@ 190
vot@@ 190
ärzte 190
acy 189
ater 189
circu@@ 189
designers 189
determin@@ 189
deu@@ 189
echte 189
enting 189
erleben 189
erungen 189
ette 189
größeren 189
holt 189
ily 189
nieder@@ 189
nü@@ 189
pit@@ 189
process@@ 189
regel 189
sac@@ 189
sat 189
schlu@@ 189
scre@@ 189
societies 189
verwand@@ 189
winter 189
afrikan@@ 188
alismus 188
anz 188
beu@@ 188
carto@@ 188
digt 188
elli@@ 188
gefühle 188
ii 188
memory 188
modelle 188
mov@@ 188
practice 188
responsible 188
robert 188
secret 188
senden 188
terror@@ 188
waffen 188
workers 188
worry 188
zur@@ 188
zweitens 188
75 187
ambi@@ 187
band@@ 187
dimensional 187
directly 187
erzeugt 187
feed 187
frieden@@ 187
jer@@ 187
organi@@ 187
provide 187
raise 187
sand@@ 187
sla@@ 187
sleep 187
vege@@ 187
wenden 187
wenige 187
0 186
2007 186
ba 186
becoming 186
british 186
brot 186
conflict 186
descri@@ 186
emer@@ 186
entfern@@ 186
entscheiden@@ 186
entwicklungs@@ 186
extra 186
fuß@@ 186
geschah 186
gewä@@ 186
gie 186
häuser 186
ial 186
imagination 186
major 186
molecules 186
oxygen 186
print 186
proto@@ 186
sischen 186
tsch@@ 186
verbringen 186
cated 185
colleagues 185
distance 185
drin@@ 185
echt 185
entscheidung 185
gebe 185
größere 185
ima@@ 185
indian 185
infrastructure 185
ink 185
jam@@ 185
ließen 185
mond 185
ologists 185
oten 185
schte 185
shir@@ 185
spor@@ 185
teams 185
union 185
valley 185
walked 185
watching 185
wechsel@@ 185
bitten 184
brauchte 184
entschied 184
erfahrungen 184
erlauben 184
fenster 184
freunden 184
fängt 184
fühlte 184
graph 184
hir@@ 184
nur@@ 184
prize 184
rieben 184
rock@@ 184
sal 184
seien 184
sigkeit 184
unterneh@@ 184
van 184
wunsch 184
zieh@@ 184
ände 184
alisierung 183
amp 183
artists 183
blut@@ 183
calls 183
cheap 183
custom@@ 183
einkommen 183
fes@@ 183
finan@@ 183
folgendes 183
frühen 183
kei@@ 183
kern@@ 183
magne@@ 183
minds 183
ol 183
sold 183
travel 183
träge 183
wahl@@ 183
10,000 182
ams 182
archi@@ 182
barkeit 182
causes 182
complexity 182
dar 182
ep@@ 182
existiert 182
fundament@@ 182
fügen 182
gliche 182
gold 182
got@@ 182
habt 182
held 182
hunder@@ 182
individuals 182
konzentri@@ 182
loch 182
neuronen 182
race 182
stock 182
tis@@ 182
vin@@ 182
zwan@@ 182
achten 181
answers 181
bat 181
beeinflusst 181
begonnen 181
erstaunlich 181
fit 181
fort 181
garten 181
genutzt 181
governments 181
greif@@ 181
gsten 181
inspiration 181
intui@@ 181
kommunikation 181
response 181
verfügung 181
vorbei 181
weiss 181
wid@@ 181
accep@@ 180
augen@@ 180
berühm@@ 180
blau@@ 180
communication 180
effects 180
erstaun@@ 180
erstes 180
förder@@ 180
law@@ 180
leg 180
nungen 180
oc@@ 180
pher@@ 180
prob@@ 180
reak@@ 180
selts@@ 180
staat 180
struk@@ 180
anima@@ 179
astero@@ 179
attack 179
birth 179
blä@@ 179
chin@@ 179
crimin@@ 179
inner 179
islam 179
ität 179
ji@@ 179
küste 179
lauf 179
mand@@ 179
nissen 179
paid 179
phenomenon 179
prakti@@ 179
produced 179
produziert 179
profession@@ 179
rand@@ 179
runter 179
schwi@@ 179
services 179
sicherlich 179
sucht 179
tritt 179
wirtschaft@@ 179
youtube 179
amerikanische 178
bers 178
budget 178
calcu@@ 178
daß 178
efficient 178
expla@@ 178
fascinating 178
flexi@@ 178
höhe 178
importantly 178
jac@@ 178
losen 178
ods 178
partici@@ 178
pris@@ 178
responsibility 178
stir@@ 178
tiv@@ 178
tradi@@ 178
urban 178
üs@@ 178
after@@ 177
apart 177
bildungs@@ 177
consi@@ 177
einhalb 177
emotions 177
enter 177
glaubt 177
inger 177
inse@@ 177
modernen 177
nächstes 177
relationships 177
scri@@ 177
soli@@ 177
studying 177
technologi@@ 177
ted-@@ 177
ury 177
wörter 177
1,000 176
atmosphere 176
begeg@@ 176
break@@ 176
decide 176
dorthin 176
expec@@ 176
exten@@ 176
feu@@ 176
fres@@ 176
fy 176
gelöst 176
gewebe 176
hell@@ 176
hte 176
immer@@ 176
innen@@ 176
instal@@ 176
institu@@ 176
investieren 176
komplexität 176
kreativität 176
limited 176
nord@@ 176
opti@@ 176
orien 176
politischen 176
recht@@ 176
sa 176
shel@@ 176
somehow 176
stücke 176
tolle 176
travel@@ 176
zeug@@ 176
zug 176
zusammenhang 176
ami 175
appar@@ 175
besor@@ 175
bir@@ 175
boot 175
chri@@ 175
communic@@ 175
dep@@ 175
desto 175
ecke 175
ency 175
erinnert 175
flies 175
function 175
hart 175
infrastruktur 175
interact 175
le-@@ 175
legal 175
ler@@ 175
lucky 175
organizations 175
particles 175
popular 175
schafts@@ 175
schwester 175
sekunde 175
tochter 175
trick 175
worst 175
ökonom@@ 175
adverti@@ 174
baut 174
beteili@@ 174
decades 174
ef@@ 174
ep 174
ernst 174
ets 174
farmers 174
fernsehen 174
finding 174
fuel 174
fuß 174
manipu@@ 174
near 174
persön@@ 174
plac@@ 174
politische 174
religious 174
ries@@ 174
schrift 174
structures 174
ungspro@@ 174
verfolgen 174
wirst 174
zog 174
ah@@ 173
bread 173
compare 173
cortex 173
entdeck@@ 173
event 173
everyday 173
facili@@ 173
familien@@ 173
forming 173
freien 173
fäl@@ 173
fühl@@ 173
fühle 173
gem 173
hnt 173
impf@@ 173
lights 173
linken 173
moder@@ 173
nähe 173
rain@@ 173
schien 173
schutz@@ 173
somit 173
spec@@ 173
stie@@ 173
tissue 173
type 173
unbe@@ 173
unsicht@@ 173
wach@@ 173
weiterhin 173
wuchs 173
zehn@@ 173
zierte 173
2010 172
agriculture 172
ansatz 172
asia 172
ausbildung 172
ausdruck 172
botschaft 172
brown 172
budd@@ 172
covered 172
deutlich 172
einfach@@ 172
feuer 172
focused 172
hig@@ 172
materi@@ 172
pa 172
phili@@ 172
poten@@ 172
reisen 172
rup@@ 172
see@@ 172
shared 172
stick 172
teren 172
wonder@@ 172
00@@ 171
2005 171
affen 171
baum 171
commit@@ 171
dence 171
däch@@ 171
effekt 171
extreme 171
flight 171
fran@@ 171
gehalten 171
integri@@ 171
kontrollieren 171
ky 171
mark@@ 171
miss@@ 171
nütz@@ 171
passi@@ 171
quie@@ 171
sudden 171
zone 171
16@@ 170
benefit 170
bridge 170
bruch 170
communicate 170
connec@@ 170
detail 170
ermöglichen 170
funk@@ 170
gebäu@@ 170
hotel 170
jon@@ 170
medium 170
pakistan 170
sick 170
sites 170
stuhl 170
throw 170
wen 170
wissenschaftliche 170
zerstör@@ 170
bares 169
bert 169
bildern 169
coffee 169
compared 169
desire 169
dire@@ 169
ear 169
feedback 169
gelegt 169
gestal@@ 169
hot@@ 169
irgendwann 169
kreu@@ 169
lies 169
lying 169
materie 169
occu@@ 169
ory 169
progra@@ 169
programs 169
prot@@ 169
puzz@@ 169
rab@@ 169
rhyth@@ 169
riesigen 169
sphere 169
stag 169
tac@@ 169
töten 169
ungsk@@ 169
verrück@@ 169
verur@@ 169
verursacht 169
weiten 169
werkzeug 169
ück@@ 169
allerdings 168
anywhere 168
benötigen 168
besonder@@ 168
bestehen 168
colum@@ 168
compar@@ 168
educ@@ 168
electric 168
elements 168
erungs@@ 168
funktion 168
gewonnen 168
haufen 168
hunger 168
justice 168
männern 168
offen 168
pati@@ 168
ples 168
quelle 168
ring 168
risiko 168
stolz 168
suffering 168
tag@@ 168
tech 168
tiver 168
treib@@ 168
trotz 168
universums 168
wärts 168
aktivität 167
arme 167
ate@@ 167
begriff 167
bia 167
boston 167
bush 167
by@@ 167
dennoch 167
dok@@ 167
durchschnitt@@ 167
epide@@ 167
erwartet 167
fleisch 167
gemeinde 167
gend@@ 167
gesetze 167
gical 167
haiti 167
kriegen 167
linien 167
link 167
missing 167
natürliche 167
privi@@ 167
problemen 167
quote 167
site 167
supply 167
tür@@ 167
verkauft 167
wald 167
weapons 167
wind@@ 167
work@@ 167
wächst 167
astronom@@ 166
brand 166
creatures 166
date 166
decade 166
einfacher 166
grenze 166
kenne 166
massen@@ 166
memor@@ 166
neighb@@ 166
nerven@@ 166
orche@@ 166
reagieren 166
rever@@ 166
roten 166
setzung 166
stance 166
stream 166
titude 166
towards 166
wiederum 166
architec@@ 165
aro@@ 165
benötigt 165
bird 165
boat 165
brilliant 165
cros@@ 165
dagegen 165
degrees 165
entstehen 165
filme 165
fotogra@@ 165
hoffentlich 165
imag@@ 165
kreis 165
landscape 165
magazine 165
mothers 165
que@@ 165
schaft@@ 165
sche@@ 165
stal@@ 165
sterne 165
stige 165
tei@@ 165
tivität 165
toler@@ 165
typical 165
vorberei@@ 165
vorstell@@ 165
ables 164
aufgenommen 164
aufnahme 164
blog 164
dest@@ 164
drü@@ 164
entwickelten 164
erforschen 164
eventually 164
gestalten 164
golf 164
ing-@@ 164
ingt 164
insu@@ 164
irs 164
letztendlich 164
pon@@ 164
scot@@ 164
selber 164
slide 164
sozusagen 164
stances 164
tate 164
theore@@ 164
traffic 164
trie@@ 164
verbesser@@ 164
willi@@ 164
anten@@ 163
cham@@ 163
citizens 163
corner 163
defen@@ 163
dopp@@ 163
draw 163
farm 163
ford 163
hair 163
ists 163
klang 163
las 163
möglicherweise 163
objekte 163
path 163
rain 163
städten 163
äuß@@ 163
3d 162
behalten 162
beschäftigt 162
challenges 162
chaos 162
chicago 162
color@@ 162
davor 162
erfin@@ 162
gebiete 162
kehren 162
loved 162
mach 162
marketing 162
n-@@ 162
pharma@@ 162
rad 162
religiö@@ 162
standen 162
stron@@ 162
symbo@@ 162
ular 162
wahrscheinlichkeit 162
ware 162
-year-old 161
acht@@ 161
adults 161
alle@@ 161
anti-@@ 161
atur 161
aut 161
bot 161
dauert 161
deut@@ 161
eis@@ 161
entlang 161
fabri@@ 161
filled 161
friend@@ 161
gradu@@ 161
hed 161
klimawandel 161
organisms 161
pair 161
properties 161
ran 161
regen@@ 161
republi@@ 161
saß 161
spac@@ 161
statisti@@ 161
versorgung 161
00 160
ased 160
bay 160
beine 160
besser@@ 160
boo@@ 160
brings 160
bürger 160
ckten 160
consumption 160
dea@@ 160
einsatz 160
engli@@ 160
forscher 160
interven@@ 160
jahres 160
jährigen 160
klingt 160
nahrungs@@ 160
obama 160
oth 160
pollen 160
rational 160
rief 160
slowly 160
sparen 160
strategi@@ 160
zurückzu@@ 160
adop@@ 159
article 159
atmosphäre 159
beschle@@ 159
bone 159
character 159
cloud 159
const@@ 159
cyber@@ 159
ech@@ 159
fortschritt 159
ge-@@ 159
gelangen 159
invisible 159
onie 159
origin@@ 159
otherwise 159
perspektive 159
schwei@@ 159
sector 159
seemed 159
stad@@ 159
toll@@ 159
uring 159
verdienen 159
vergleich 159
wearing 159
14@@ 158
according 158
airplane 158
aktivi@@ 158
alien 158
c. 158
contro@@ 158
dieselbe 158
einzi@@ 158
ele 158
ene@@ 158
enormous 158
erstellen 158
essentially 158
finanz@@ 158
fotografi@@ 158
gedanke 158
gestern 158
independent 158
interpre@@ 158
meat 158
pass 158
plä@@ 158
produk@@ 158
report 158
russi@@ 158
selb@@ 158
soldaten 158
st-@@ 158
süd@@ 158
tations 158
todes@@ 158
val 158
yle 158
zuhause 158
.com 157
acade@@ 157
ancient 157
aufre@@ 157
brie@@ 157
cle 157
fiel 157
fossi@@ 157
gelassen 157
gur@@ 157
herausgefunden 157
intelligenz 157
kräfte 157
laut 157
lok@@ 157
moleküle 157
orig@@ 157
planets 157
predi@@ 157
property 157
schlag@@ 157
separ@@ 157
steuern 157
stin 157
track 157
vollständig 157
worried 157
worüber 157
yellow 157
ändert 157
2.@@ 156
activ@@ 156
bie@@ 156
childhood 156
dimension@@ 156
discovery 156
engine 156
erleb@@ 156
ernsthaf@@ 156
exhi@@ 156
expres@@ 156
geno@@ 156
gewi@@ 156
gift 156
greater 156
großbritannien 156
hai 156
hall 156
hirn@@ 156
iel 156
iges 156
impli@@ 156
jährige 156
lautet 156
met@@ 156
nat@@ 156
necessarily 156
nutri@@ 156
ologist 156
prison 156
rö@@ 156
schalten 156
scheinen 156
setzte 156
sommer 156
temperatur 156
wom@@ 156
yn@@ 156
ücken 156
21 155
alisieren 155
bewegungen 155
bo 155
buchstäblich 155
cool@@ 155
degree 155
deser@@ 155
differently 155
ek 155
ela 155
erfol@@ 155
experten 155
exponenti@@ 155
gress 155
hou@@ 155
ins@@ 155
kontrolli@@ 155
kür@@ 155
mexico 155
organismen 155
ple 155
pump@@ 155
scen@@ 155
statistics 155
stress 155
subje@@ 155
symptom@@ 155
verdi@@ 155
vollkommen 155
zukünf@@ 155
began 154
damage 154
darf 154
fach@@ 154
heili@@ 154
hur@@ 154
kombin@@ 154
komm@@ 154
kommunizieren 154
kurzem 154
lungen 154
method 154
methoden 154
moments 154
pick 154
reas@@ 154
sitzt 154
spending 154
steh@@ 154
steigt 154
teilchen 154
themen 154
train@@ 154
untersu@@ 154
verschie@@ 154
wear 154
wesentlichen 154
zun@@ 154
zusammenarbeit 154
anth@@ 153
assem@@ 153
behandelt 153
berü@@ 153
betr@@ 153
circle 153
durchgeführt 153
edge 153
foreign 153
gilt 153
gry 153
gui@@ 153
helps 153
hn 153
ison 153
isra@@ 153
jungs 153
kauft 153
members 153
motor@@ 153
paris 153
peter 153
phänomen 153
raft 153
relevant 153
rooms 153
räume 153
schlie@@ 153
tauchen 153
teste 153
ution 153
weiteren 153
weren 153
zon 153
äf@@ 153
accoun@@ 152
affected 152
afford 152
arian 152
bees 152
besseren 152
bezahlen 152
blog@@ 152
camp 152
cide 152
connections 152
consum@@ 152
coo@@ 152
dop@@ 152
email 152
enter@@ 152
entwerfen 152
fiziert 152
happ@@ 152
hidden 152
hielten 152
iraq 152
issues 152
karriere 152
kilometers 152
landschaft 152
meistens 152
mentioned 152
mouse 152
präsident 152
push 152
rus 152
sogenan@@ 152
sozial@@ 152
tis 152
tle 152
unterstützung 152
2009 151
alter@@ 151
ania 151
anwen@@ 151
beeinflussen 151
bringing 151
centi@@ 151
concent@@ 151
designs 151
electro@@ 151
explan@@ 151
fields 151
gentle@@ 151
hinein@@ 151
kni@@ 151
konfli@@ 151
kontakt 151
lichsten 151
meilen 151
meister 151
post@@ 151
stopped 151
streets 151
tran@@ 151
u-@@ 151
unbedingt 151
virg@@ 151
wahre 151
wunderbare 151
yl@@ 151
zus@@ 151
20. 150
ade@@ 150
ala 150
besitzen 150
deter@@ 150
dh 150
diplo@@ 150
distribution 150
dry 150
enga@@ 150
entwickelte 150
erkrank@@ 150
essed 150
extre@@ 150
fif@@ 150
fing@@ 150
fragten 150
gefängnis 150
gras 150
hohen 150
invest 150
kommuni@@ 150
kümmern 150
landwirtschaft 150
nee 150
op 150
orienti@@ 150
partner@@ 150
passed 150
quick 150
rt 150
sahar@@ 150
setz@@ 150
shop 150
spä@@ 150
starb 150
stufe 150
tail 150
tee 150
ti 150
trauri@@ 150
vermutlich 150
veröffentlicht 150
walls 150
wealth 150
window 150
xes 150
2-@@ 149
20th 149
activi@@ 149
asien 149
begren@@ 149
bits 149
cker@@ 149
derzeit 149
engineers 149
events 149
explore 149
fähi@@ 149
hauptsächlich 149
ine@@ 149
instin@@ 149
joy 149
klin@@ 149
krebs@@ 149
mischen 149
modi@@ 149
net@@ 149
nets 149
noise 149
obs@@ 149
offer 149
opposite 149
player 149
reicht 149
respond 149
simpli@@ 149
speak@@ 149
vermu@@ 149
warm 149
wee@@ 149
welchen 149
ziele 149
zufällig 149
zung 149
ök@@ 149
19 148
alisiert 148
arbeiter 148
ards 148
arts 148
atz 148
below 148
cele@@ 148
charak@@ 148
collabor@@ 148
construction 148
crime 148
dritten 148
experimente 148
forth 148
gelan@@ 148
geschen@@ 148
geschi@@ 148
geschä@@ 148
heal@@ 148
hergestellt 148
hopefully 148
ils 148
juli@@ 148
kontro@@ 148
ktionen 148
laufe 148
milliarde 148
necessary 148
nochmal 148
polio 148
rein 148
rot 148
schwarze 148
texas 148
titel 148
viren 148
virtual 148
viruses 148
wandel 148
ya 148
absolute 147
billions 147
chip 147
chromo@@ 147
collect 147
comfortable 147
consu@@ 147
controll@@ 147
duc@@ 147
elegan@@ 147
entsteht 147
fication 147
forever 147
galaxy 147
gezogen 147
gif@@ 147
großteil 147
infin@@ 147
irgendetwas 147
jung@@ 147
kehr@@ 147
konstru@@ 147
korea 147
norden 147
noticed 147
oll@@ 147
olymp@@ 147
perfekt 147
plus 147
purpose 147
schicht 147
sequen@@ 147
simply 147
sister 147
surge@@ 147
symbol 147
thri@@ 147
tierte 147
ai 146
aktiv 146
außen@@ 146
bekannten 146
beschreiben 146
bunch 146
bü@@ 146
civil 146
diam@@ 146
dom 146
ening 146
fung 146
gab@@ 146
gegensei@@ 146
gelesen 146
geschle@@ 146
graben 146
guess 146
highest 146
hohe 146
identity 146
intensi@@ 146
ir 146
lass 146
lim@@ 146
mathematics 146
mengen 146
passionate 146
percei@@ 146
photograph 146
puts 146
pyrami@@ 146
rid 146
solved 146
umgehen 146
vergleichen 146
ves@@ 146
vö@@ 146
weiteres 146
yn 146
zierten 146
zuhören 146
überzeugen 146
überzeugt 146
acceler@@ 145
adam 145
arm@@ 145
background 145
betrifft 145
competition 145
develop@@ 145
dots 145
elten 145
fortun@@ 145
hes 145
home@@ 145
insects 145
iphone 145
leadership 145
mitg@@ 145
neugi@@ 145
noten 145
ologi@@ 145
proble@@ 145
steps 145
stig 145
stür@@ 145
therapy 145
turning 145
types 145
uganda 145
ultra@@ 145
urs 145
vat@@ 145
woher 145
älter 145
beach 144
behand@@ 144
defin@@ 144
despite 144
direc@@ 144
dreams 144
drink 144
dying 144
endet 144
erenden 144
gewissen 144
gy@@ 144
invol@@ 144
jump 144
kid@@ 144
management 144
mom 144
morgens 144
names 144
nel@@ 144
neuer 144
ome@@ 144
pes 144
reli@@ 144
schö@@ 144
seriously 144
stens 144
ständen 144
tains 144
tim 144
trained 144
täglich 144
unterschiedlichen 144
wissenschaftlichen 144
ager 143
autis@@ 143
basiert 143
bett 143
brachten 143
cape 143
describe 143
dient 143
dritt@@ 143
driven 143
elemente 143
erende 143
erster 143
gehei@@ 143
gens 143
herunter@@ 143
kenn@@ 143
kurze 143
leaves 143
lernt 143
lieber 143
motivation 143
mär@@ 143
negoti@@ 143
opened 143
organ 143
ota 143
phen 143
pig@@ 143
portra@@ 143
preser@@ 143
präsentiert 143
rahmen 143
reve@@ 143
speci@@ 143
specific 143
supp@@ 143
thinks 143
toi@@ 143
tory 143
unabhängi@@ 143
verbracht 143
verhindern 143
vertei@@ 143
werten 143
wirtschaftlichen 143
wohner 143
zeugen 143
zig 143
zin 143
übertragen 143
addi@@ 142
anderem 142
angel@@ 142
appli@@ 142
artificial 142
begeistert 142
bi 142
bly 142
brother 142
cate 142
church 142
cious 142
concep@@ 142
dahin 142
dank@@ 142
diabetes 142
dieren 142
dp 142
drittel 142
erkannte 142
factory 142
fighting 142
fischen 142
flächen 142
fold 142
fordert 142
gefahr 142
gest 142
gren@@ 142
ili@@ 142
influ@@ 142
könnt 142
leading 142
leb@@ 142
od 142
pingu@@ 142
professional 142
ritual 142
secon@@ 142
stoßen 142
stö@@ 142
succe@@ 142
tue 142
weder 142
werke 142
yesterday 142
2004 141
22 141
aci@@ 141
allge@@ 141
anten 141
arbeiteten 141
aufnahmen 141
außer@@ 141
bility 141
card 141
cial 141
conc@@ 141
conf@@ 141
einsetzen 141
experts 141
falsche 141
feels 141
gerü@@ 141
gespielt 141
goals 141
gran@@ 141
handel 141
hinweg 141
insekten 141
introduced 141
lesson 141
lig 141
lot@@ 141
mütter 141
neten 141
normale 141
note 141
patent 141
producing 141
schwimmen 141
soldiers 141
sowie 141
stein@@ 141
steller 141
theit 141
twi@@ 141
wunderbar 141
ately 140
atem@@ 140
atta@@ 140
benefits 140
bildschirm 140
brauchten 140
brust@@ 140
cas@@ 140
caused 140
cents 140
compe@@ 140
desert 140
dicht 140
dürfen 140
echten 140
ens@@ 140
errei@@ 140
erzähle 140
evil 140
french 140
gelei@@ 140
gerung 140
gkeiten 140
guar@@ 140
hintergrund 140
häl@@ 140
kennt 140
ki 140
klassen@@ 140
krimin@@ 140
mol@@ 140
mouth 140
nah 140
netzwerke 140
saving 140
sculp@@ 140
sichten 140
sity 140
spiegel 140
spring 140
stopp@@ 140
tricks 140
tures 140
uner@@ 140
verbreitet 140
vern@@ 140
wachen 140
waves 140
2,@@ 139
2006 139
bee@@ 139
contact 139
count 139
d. 139
dolph@@ 139
entwickl@@ 139
führten 139
gressi@@ 139
griff 139
honest 139
houses 139
häu@@ 139
institutionen 139
invited 139
levels 139
malen 139
mel 139
mitteln 139
ologe 139
paradig@@ 139
proud 139
scha@@ 139
secre@@ 139
starke 139
stent 139
sterb@@ 139
telescop@@ 139
teu@@ 139
ungskraft 139
vement 139
verlangen 139
2,000 138
akt 138
announ@@ 138
arms 138
beat 138
behör@@ 138
blei@@ 138
buch@@ 138
büro@@ 138
counter@@ 138
debate 138
dungs@@ 138
expression 138
fördern 138
giant 138
großarti@@ 138
harmon@@ 138
journalist 138
ktiv 138
kön@@ 138
lachen 138
languages 138
lebten 138
letzt 138
lic@@ 138
low-@@ 138
mountains 138
nega@@ 138
ority 138
planning 138
practical 138
praktisch 138
pull 138
schri@@ 138
signals 138
significant 138
stands 138
stenz 138
stimu@@ 138
strö@@ 138
tremendous 138
zauber@@ 138
27 137
angeles 137
apply 137
arc@@ 137
astro@@ 137
bac@@ 137
bauern 137
bereiche 137
blocks 137
cis@@ 137
defini@@ 137
dene 137
derek 137
dichte 137
disco@@ 137
eingesetzt 137
erweiter@@ 137
experiences 137
fau@@ 137
final 137
forschungs@@ 137
gabe 137
gewisse 137
gst 137
hund 137
intelligen@@ 137
interface 137
inti@@ 137
isch@@ 137
itäten 137
kolle@@ 137
kompon@@ 137
lou@@ 137
nes@@ 137
pin@@ 137
port 137
schlei@@ 137
steel 137
therefore 137
thy 137
tiefe 137
trend 137
visit 137
volunte@@ 137
zeitalter 137
95 136
bf 136
blut 136
campaign 136
conscious 136
consequences 136
dialo@@ 136
dienst@@ 136
dow 136
easily 136
eding 136
figu@@ 136
fingen 136
gehabt 136
geladen 136
geld@@ 136
geogra@@ 136
habit@@ 136
impul@@ 136
influence 136
invi@@ 136
ish@@ 136
ld 136
motiv@@ 136
nannte 136
open-@@ 136
pic@@ 136
pounds 136
remote 136
richtet 136
rücken 136
s. 136
stran@@ 136
to-@@ 136
transformation 136
ungewöhn@@ 136
vermögen 136
visible 136
wa 136
wurz@@ 136
acting 135
actor 135
ald 135
alleine 135
bestimmen 135
breast 135
clou@@ 135
drän@@ 135
erfolgrei@@ 135
fourth 135
fying 135
geburt 135
geheim@@ 135
inn 135
interessieren 135
kogni@@ 135
ktiven 135
kürzlich 135
lack 135
menten 135
og@@ 135
perman@@ 135
poly@@ 135
raus@@ 135
respect 135
samer 135
schaute 135
technolog@@ 135
tles 135
tus 135
une 135
verwandeln 135
zubringen 135
1. 134
10.000 134
behinder@@ 134
blick@@ 134
corpo@@ 134
einander@@ 134
fett@@ 134
gehirne 134
getötet 134
glücklicherweise 134
helping 134
herausforderungen 134
horri@@ 134
ierten 134
inen 134
kalifornien 134
knochen 134
leistungen 134
nant 134
paint 134
predict 134
principle 134
protection 134
schlimm@@ 134
sichtlich 134
simul@@ 134
sorge 134
teen@@ 134
tenden@@ 134
therapie 134
tradition@@ 134
träume 134
täten 134
upp@@ 134
verbreiten 134
versuchten 134
verzwei@@ 134
viet@@ 134
wahrnehmung 134
wings 134
winkel 134
wirkt 134
ägyp@@ 134
25@@ 133
65 133
abhängig 133
affect 133
anony@@ 133
autor@@ 133
bekamen 133
bemerkt 133
copy 133
deckt 133
disku@@ 133
erklär@@ 133
erstaunliche 133
express 133
followed 133
fährt 133
g-@@ 133
gebro@@ 133
gehören 133
gese@@ 133
glas 133
harder 133
herr 133
holes 133
händen 133
irak 133
kurz@@ 133
kus@@ 133
lichem 133
liebt 133
lun@@ 133
mom@@ 133
mäß@@ 133
nations 133
nom@@ 133
ograph@@ 133
opfer 133
organic 133
perception 133
pfei@@ 133
photos 133
platt@@ 133
plo@@ 133
resol@@ 133
sweise 133
telefon 133
tie@@ 133
tnis 133
treibt 133
umge@@ 133
verantwortlich 133
wenig@@ 133
wichti@@ 133
yo 133
zählen 133
ähnliche 133
advantage 132
aufhören 132
babys 132
bauten 132
blogs 132
cel@@ 132
cell@@ 132
constantly 132
dienen 132
doppelt 132
drin 132
dynamic 132
echn@@ 132
elektron@@ 132
element@@ 132
enjoy 132
entreprene@@ 132
erkenntnis 132
esse 132
female 132
fünf@@ 132
gam@@ 132
gere 132
gewand@@ 132
han 132
illusion 132
insel 132
janu@@ 132
jum@@ 132
layer 132
letters 132
meaning@@ 132
moderne 132
play@@ 132
principles 132
recycl@@ 132
spruch 132
standar@@ 132
stian 132
streben 132
studied 132
stung 132
teilung 132
vertrau@@ 132
vögel 132
wahren 132
wisdom 132
öffentlichkeit 132
2001 131
berg@@ 131
bloß 131
cken@@ 131
contra@@ 131
dium 131
erer 131
fill 131
genauer 131
ght@@ 131
gun 131
highly 131
hmen 131
husband 131
inno@@ 131
isol@@ 131
jud@@ 131
keys 131
kontext 131
nest 131
nutzt 131
organized 131
oxford 131
painting 131
priv@@ 131
resul@@ 131
sentence 131
shar@@ 131
stabili@@ 131
stigen 131
survi@@ 131
tiges 131
tigung 131
totally 131
treated 131
voices 131
weißen 131
weißt 131
wri@@ 131
2003 130
ameisen 130
bedeuten 130
carry 130
cen 130
ception 130
chten@@ 130
convince 130
coura@@ 130
cure 130
dad 130
eindruck 130
erseits 130
facts 130
gemü@@ 130
geschickt 130
gli@@ 130
heits@@ 130
humor 130
inspiriert 130
klini@@ 130
ko 130
kung 130
kurs 130
künstler@@ 130
mates 130
maus 130
meta@@ 130
militär@@ 130
mistakes 130
nah@@ 130
ok@@ 130
qua@@ 130
rand 130
rechts@@ 130
schmerz 130
silk 130
survival 130
sw 130
tent@@ 130
tischer 130
tured 130
unusual 130
wachsen@@ 130
weather 130
wine 130
zeichnungen 130
äne 130
überprü@@ 130
überrascht 130
23 129
address 129
aner 129
ansicht 129
beeindruck@@ 129
bezahlt 129
classroom 129
dauern 129
europä@@ 129
exchange 129
failure 129
früh 129
gegenteil 129
indu@@ 129
inning 129
interagieren 129
kurzen 129
lic 129
lieblings@@ 129
master 129
mix 129
mut 129
normalen 129
olog@@ 129
polizei 129
pose 129
ppt 129
quanti@@ 129
represent 129
robot@@ 129
signale 129
sor 129
stimm@@ 129
sugar 129
suit 129
unternehmer 129
wisst 129
öffentliche 129
ön@@ 129
250 128
ada@@ 128
alisten 128
are@@ 128
athei@@ 128
bienen 128
brothers 128
butt@@ 128
care@@ 128
corruption 128
eating 128
eland 128
erst@@ 128
eure 128
fix@@ 128
galaxies 128
gefahren 128
grün 128
hate 128
innovative 128
körpers 128
lebewesen 128
läch@@ 128
movies 128
nin@@ 128
origami 128
poster 128
privat@@ 128
profound 128
ption 128
pus 128
spit@@ 128
strategy 128
syl@@ 128
trie 128
verhältnis 128
verschwinden 128
vo 128
wiesen 128
yor@@ 128
zten 128
&apos;@@ 127
approach@@ 127
aufbauen 127
bag@@ 127
barer 127
belief 127
best@@ 127
bietet 127
deinen 127
described 127
dinosaurs 127
empty 127
erklärung 127
ernährung 127
erscheinen 127
fahrer 127
failed 127
forma@@ 127
gation 127
gesetz@@ 127
gespräch 127
identität 127
in-@@ 127
kins 127
lets 127
library 127
markt@@ 127
mindestens 127
molecule 127
paraly@@ 127
schaf@@ 127
schlüssel@@ 127
sees 127
small@@ 127
smell 127
starten 127
tanz 127
thoughts 127
tural 127
verbindet 127
verwal@@ 127
wegs 127
ahead 126
akzep@@ 126
beings 126
bine 126
brauche 126
chap@@ 126
chemi@@ 126
chts 126
dent@@ 126
dinner 126
dio@@ 126
eline 126
existieren 126
fisch@@ 126
gay 126
gesprä@@ 126
gestorben 126
ght-@@ 126
grundlegende 126
gäbe 126
haltung 126
häufig 126
ills 126
incre@@ 126
individuen 126
ior 126
kee@@ 126
konzep@@ 126
kopf@@ 126
ktive 126
lichkeiten 126
martin 126
mee 126
meiste 126
musst 126
persönliche 126
roots 126
sauerstoff 126
seitdem 126
sicherheits@@ 126
skep@@ 126
sphäre 126
stanford 126
syndro@@ 126
terie 126
valuable 126
verhaltens@@ 126
verkauf@@ 126
verschmu@@ 126
via 126
vorteil 126
warming 126
wave 126
werbung 126
194@@ 125
32 125
advan@@ 125
angenommen 125
anrei@@ 125
appreci@@ 125
ar-@@ 125
baum@@ 125
closed 125
diagra@@ 125
erfinden 125
erhält 125
extin@@ 125
fat 125
fizieren 125
frank 125
gand@@ 125
gegensatz 125
generationen 125
ghana 125
hoffen 125
höher 125
intellectual 125
iso@@ 125
legi@@ 125
letter 125
metho@@ 125
mie 125
organs 125
pfe 125
phan@@ 125
possibility 125
promise 125
quali@@ 125
re-@@ 125
reduzieren 125
schlechten 125
schreib@@ 125
streng@@ 125
sz@@ 125
tomorrow 125
tons 125
tour 125
tzlich 125
unterscheiden 125
verschieden@@ 125
wis@@ 125
absor@@ 124
acci@@ 124
army 124
augenblick 124
beginn@@ 124
believed 124
berührt 124
blü@@ 124
chem 124
circum@@ 124
colors 124
controlled 124
department 124
einheit 124
emis@@ 124
experienced 124
fernseh@@ 124
gieren 124
grandmother 124
horizon@@ 124
igkeit 124
inneren 124
japan@@ 124
komplexe 124
krank 124
krank@@ 124
kulturen 124
kus 124
laun@@ 124
leiten 124
nervous 124
onto 124
ours 124
rätsel 124
schlüssel 124
schnell@@ 124
strategie 124
trug 124
tur 124
wein@@ 124
äd@@ 124
abschluss 123
alize 123
anischen 123
arbeit@@ 123
arkti@@ 123
benen 123
beob@@ 123
beschäf@@ 123
brech@@ 123
chimpanze@@ 123
cognitive 123
convinced 123
debat@@ 123
democratic 123
doku@@ 123
drückt 123
einiger 123
eric 123
fell 123
forced 123
gan 123
gegenwär@@ 123
heisst 123
ite 123
itä@@ 123
kari@@ 123
kenya 123
klar@@ 123
lebenden 123
manhattan 123
mmen 123
monit@@ 123
musik@@ 123
märkte 123
nachbar@@ 123
nieman@@ 123
näher@@ 123
p-@@ 123
preg@@ 123
proteins 123
regen 123
relativ 123
schni@@ 123
shif@@ 123
sim@@ 123
slightly 123
thers 123
threat 123
toren 123
tot@@ 123
trouble 123
täusch@@ 123
ultimately 123
unterschie@@ 123
vely 123
100,000 122
abilities 122
alex@@ 122
analysis 122
annehmen 122
assi@@ 122
bekann@@ 122
beweg@@ 122
blau 122
chain 122
charge 122
chemicals 122
chemistry 122
collective 122
define 122
dä@@ 122
economics 122
emotionen 122
entschei@@ 122
european 122
faktor 122
feelings 122
ffe@@ 122
forder@@ 122
gates 122
generations 122
geome@@ 122
hard@@ 122
hmt 122
integra@@ 122
jugend@@ 122
maga@@ 122
maker 122
microsoft 122
nationen 122
nden 122
normal@@ 122
pages 122
paying 122
pleasure 122
riff 122
schneiden 122
separate 122
sequenzen 122
shoes 122
sir 122
systemen 122
trends 122
welle 122
wichtigen 122
wobei 122
zunehmen@@ 122
züge 122
actual 121
anthropo@@ 121
anwenden 121
architekten 121
aug@@ 121
axis 121
bahn@@ 121
bedarf 121
beglei@@ 121
beschrän@@ 121
besondere 121
brow@@ 121
canada 121
cock@@ 121
conduc@@ 121
consider 121
dach 121
de-@@ 121
discus@@ 121
dran 121
drüben 121
eco@@ 121
eleph@@ 121
entspricht 121
gefährlich 121
holz 121
interview 121
kap@@ 121
kb 121
kit@@ 121
kunft 121
lager 121
laugh@@ 121
liked 121
lots 121
mistake 121
notwen@@ 121
phosp@@ 121
quellen 121
restaurants 121
revolution@@ 121
schmerzen 121
sec@@ 121
sheit 121
sitz@@ 121
sky@@ 121
soviel 121
spüren 121
stable 121
stac@@ 121
temper@@ 121
thir@@ 121
tumor@@ 121
universal 121
vorfahren 121
wechseln 121
wenigen 121
worfen 121
wunden 121
argue 120
art@@ 120
bell 120
bet 120
brasili@@ 120
brief 120
bruder 120
cation 120
cau@@ 120
constru@@ 120
core 120
entdeckung 120
entertain@@ 120
enz@@ 120
ernä@@ 120
fascin@@ 120
flug 120
genau@@ 120
gessen 120
honor 120
howard 120
ingu@@ 120
intern@@ 120
internet@@ 120
issen 120
klär@@ 120
konser@@ 120
majority 120
mobili@@ 120
mortality 120
nai@@ 120
nde 120
nett 120
northern 120
photo@@ 120
pole 120
politiker 120
probe 120
prop@@ 120
propor@@ 120
recei@@ 120
rechen@@ 120
regionen 120
saved 120
spir@@ 120
sport 120
stammt 120
stoffen 120
technical 120
tern@@ 120
unterricht 120
verfügbar 120
vice 120
é@@ 120
adi@@ 119
angeb@@ 119
angeneh@@ 119
aufgebaut 119
bedürf@@ 119
beg@@ 119
bein@@ 119
bemer@@ 119
bestand 119
bles 119
bs@@ 119
cans 119
definieren 119
digit@@ 119
double 119
dutz@@ 119
experiment@@ 119
explains 119
fantastisch 119
fund 119
garden 119
initiative 119
institution 119
japanese 119
kts 119
langwei@@ 119
leiden@@ 119
messer 119
mira@@ 119
mittleren 119
mobil@@ 119
nas@@ 119
nötig 119
opening 119
optimis@@ 119
persönlich 119
persönlichen 119
pet 119
placed 119
practic@@ 119
return 119
schaden 119
schlimmer 119
schuhe 119
solch 119
ternal 119
terrori@@ 119
therap@@ 119
tial 119
trinken 119
wars 119
wechsel 119
windows 119
witz 119
worl@@ 119
zuschau@@ 119
21@@ 118
alists 118
aspekt 118
begri@@ 118
beweise 118
blatt 118
cambridge 118
designing 118
dimensions 118
dinosaurier 118
dliche 118
driver 118
entschul@@ 118
erscheint 118
explosion 118
feuer@@ 118
fie 118
fän@@ 118
genom 118
grundsätzlich 118
handy 118
increasingly 118
interaction 118
investment 118
load 118
marki@@ 118
melt 118
metaphor 118
mon 118
mostly 118
mung 118
nachbarn 118
notwendig 118
nungs@@ 118
ox@@ 118
pants 118
pft 118
planes 118
plu@@ 118
potenzi@@ 118
prove 118
recent 118
rio 118
roof 118
sad 118
saturn 118
schrift@@ 118
schwä@@ 118
sharks 118
sources 118
sprach@@ 118
städ@@ 118
surprised 118
talent 118
thesis 118
tiker 118
vehicle 118
verfü@@ 118
vergan@@ 118
wunder 118
26 117
andre@@ 117
bang 117
bende 117
bestimm@@ 117
bibliothe@@ 117
chicken 117
civilization 117
cont@@ 117
coral 117
digitalen 117
digkeit 117
dimensionen 117
ering 117
erkennt 117
ersetzen 117
folgende 117
frag@@ 117
galaxie 117
galaxien 117
gerechtigkeit 117
helden 117
korruption 117
lebenser@@ 117
medizinische 117
molecular 117
motion 117
natürlichen 117
operating 117
plane 117
plans 117
post 117
processes 117
requi@@ 117
richtungen 117
rier 117
schmer@@ 117
sende 117
sign@@ 117
simu@@ 117
simulation 117
spaces 117
speaking 117
springen 117
stab@@ 117
staf@@ 117
steine 117
stil 117
straßen@@ 117
surprise 117
tony 117
traditionellen 117
unabhängig 117
verbrachte 117
verfahren 117
verg@@ 117
wirtschaftliche 117
aku@@ 116
angesehen 116
baute 116
bedeuten@@ 116
bereichen 116
berühr@@ 116
buchstab@@ 116
celebra@@ 116
condition 116
diert 116
disaster 116
discipl@@ 116
employees 116
entstanden 116
exists 116
expedi@@ 116
gesp@@ 116
issue 116
join 116
kindheit 116
lear@@ 116
lem 116
mexiko 116
mikrosk@@ 116
moves 116
ories 116
patri@@ 116
possibilities 116
programme 116
regul@@ 116
reward 116
schmu@@ 116
schrän@@ 116
section 116
spectrum 116
stood 116
stur@@ 116
suggests 116
südafri@@ 116
teeth 116
tox@@ 116
trials 116
veränder@@ 116
zerstören 116
5.000 115
alp@@ 115
anderth@@ 115
appl@@ 115
attemp@@ 115
autonom@@ 115
ay 115
bemü@@ 115
beschei@@ 115
bevölker@@ 115
birthday 115
cers 115
characteri@@ 115
creation 115
dens 115
dies@@ 115
dir@@ 115
elektrizität 115
emplo@@ 115
erlebt 115
euer 115
fashion 115
feststellen 115
florida 115
gross@@ 115
halbe 115
hängen 115
höre 115
ille 115
increas@@ 115
konkur@@ 115
krä@@ 115
mail 115
mathematical 115
mund 115
olo@@ 115
oral 115
pf 115
rene@@ 115
reti@@ 115
schau 115
schiff 115
sna@@ 115
spielte 115
stech@@ 115
swa@@ 115
sy 115
tausenden 115
teuer 115
transition 115
vering 115
ville 115
wellen 115
zit@@ 115
é 115
überzeu@@ 115
700 114
a. 114
afrikanischen 114
alli@@ 114
aufen 114
bank@@ 114
beantworten 114
beschäftigen 114
besuchen 114
biot@@ 114
britain 114
broad@@ 114
chol@@ 114
clinical 114
continent 114
cross 114
die@@ 114
drop 114
drück@@ 114
erter 114
fossil 114
gegend 114
graphi@@ 114
hilfs@@ 114
hinsicht 114
hörten 114
itali@@ 114
ize 114
kitchen 114
leistungs@@ 114
lossen@@ 114
married 114
mittler@@ 114
müll 114
ols 114
pacific 114
parado@@ 114
pho@@ 114
proce@@ 114
präsentation 114
präsi@@ 114
radik@@ 114
rin@@ 114
seas@@ 114
shoul@@ 114
silicon 114
spen@@ 114
spra@@ 114
studieren 114
toile@@ 114
tzu@@ 114
u.n. 114
untersucht 114
v-@@ 114
vermitteln 114
viertel 114
westlichen 114
wissenschaften 114
zerstört 114
zir@@ 114
zuge@@ 114
anhand 113
barri@@ 113
basier@@ 113
beein@@ 113
beobachtet 113
beschlossen 113
breaking 113
chron@@ 113
cil 113
cky 113
click 113
collaboration 113
collapse 113
deeply 113
direct 113
dunkel@@ 113
engage 113
ermu@@ 113
eur@@ 113
fewer 113
gefallen 113
gemeinden 113
glam@@ 113
gleichheit 113
gö@@ 113
hinten 113
holding 113
hous@@ 113
initi@@ 113
jähri@@ 113
kaffee 113
klo@@ 113
löcher 113
mern 113
microscop@@ 113
mote 113
mäßig 113
müsste 113
ologische 113
papi@@ 113
powered 113
psycho@@ 113
quasi 113
ration@@ 113
requires 113
researchers 113
resili@@ 113
skla@@ 113
tedx@@ 113
tie 113
users 113
usi@@ 113
villa@@ 113
violent 113
vir@@ 113
wachst@@ 113
weit@@ 113
wr@@ 113
ärm@@ 113
äs@@ 113
3,000 112
40@@ 112
accept 112
alzheimer 112
amo@@ 112
atmen 112
atten 112
aufzubauen 112
australia 112
base 112
brücke 112
bä@@ 112
caf@@ 112
cards 112
charakter 112
cin 112
civili@@ 112
club 112
dia 112
engineer 112
erfindung 112
factor 112
fit@@ 112
gebeten 112
gover@@ 112
hlte 112
hnung 112
jedenfalls 112
jähr@@ 112
kehrt 112
konfron@@ 112
lady 112
langer 112
lee 112
lehren 112
lektion 112
lux@@ 112
lässi@@ 112
molekul@@ 112
motivi@@ 112
notes 112
null 112
oceans 112
ping 112
politicians 112
prepar@@ 112
sages 112
schme@@ 112
sexual 112
shapes 112
ski@@ 112
songs 112
teure 112
transplan@@ 112
vergröß@@ 112
verkehr@@ 112
vorstellungen 112
wahn@@ 112
welchem 112
wesentlich 112
winden 112
wähl@@ 112
zeitung 112
zweck 112
800 111
abra@@ 111
accident 111
ale@@ 111
antibio@@ 111
atoms 111
bling 111
bright 111
bronx 111
chemikalien 111
destruction 111
dienst 111
dunkl@@ 111
ee@@ 111
entdeckte 111
entworfen 111
enzy@@ 111
eres 111
erforsch@@ 111
existi@@ 111
faktoren 111
freiwilli@@ 111
geor@@ 111
geschü@@ 111
geändert 111
goo@@ 111
gul@@ 111
hiv-@@ 111
jo 111
kerl 111
komplex 111
konflikt 111
ktes 111
lasse 111
maps 111
mas 111
minim@@ 111
option 111
pfle@@ 111
repar@@ 111
resear@@ 111
schließ@@ 111
seln 111
statistiken 111
stit@@ 111
straight 111
strom@@ 111
teenager 111
than@@ 111
tigte 111
täu@@ 111
verlust 111
wake 111
werken 111
whenever 111
whi@@ 111
wirklichen 111
ziel@@ 111
zivilisation 111
ace 110
addition 110
admini@@ 110
adult 110
afri@@ 110
amin@@ 110
bakteri@@ 110
bedürfnisse 110
berichten 110
beweisen 110
biert 110
bol@@ 110
cer 110
earth@@ 110
emissions 110
erwähnt 110
existence 110
fan 110
ference 110
folie 110
frame@@ 110
func@@ 110
gesundheitswesen 110
gramm 110
hell 110
inner@@ 110
jes@@ 110
junger 110
kapu@@ 110
key@@ 110
kreieren 110
lediglich 110
lustig 110
marine 110
menschlicher 110
mitglieder 110
nutzung 110
online-@@ 110
pleas@@ 110
presse 110
raised 110
repu@@ 110
saal 110
selten 110
sser 110
stics 110
stock@@ 110
stärke 110
tables 110
unlike 110
verab@@ 110
verkehr 110
von@@ 110
woll@@ 110
zte 110
zusätz@@ 110
ökon@@ 110
ancestors 109
bein 109
bekannte 109
blieb 109
centers 109
check 109
clock 109
cular 109
d.@@ 109
dam 109
defined 109
electrical 109
elimin@@ 109
entsch@@ 109
erlaub@@ 109
erstellt 109
fahrt 109
franzö@@ 109
fresh 109
gall@@ 109
gelen@@ 109
genie@@ 109
git@@ 109
gps 109
gravity 109
hafte 109
harv@@ 109
heads 109
hurt 109
infor@@ 109
inspi@@ 109
invention 109
kers 109
kev@@ 109
kro@@ 109
lec@@ 109
long-term 109
medikament 109
momente 109
nern 109
one@@ 109
poor@@ 109
previous 109
ritu@@ 109
rote 109
sey 109
sin 109
singen 109
skulp@@ 109
ssi@@ 109
stellungen 109
stärker 109
tanz@@ 109
taste 109
teilneh@@ 109
tober 109
tot 109
transl@@ 109
ut 109
versi@@ 109
viert 109
volu@@ 109
wahrschein@@ 109
wide 109
woo@@ 109
120 108
achse 108
ardo 108
ath 108
aufbau 108
beinahe 108
beispielsweise 108
blauen 108
bottle 108
ct@@ 108
dameri@@ 108
director 108
dunkle 108
effektiv 108
effort 108
entwicklungsländern 108
evolution@@ 108
fabrik 108
fire@@ 108
furcht@@ 108
gat@@ 108
gemäl@@ 108
gewe@@ 108
grab@@ 108
grid 108
grünen 108
hallu@@ 108
ingre@@ 108
innere 108
intuition 108
kühl@@ 108
llan@@ 108
magnetic 108
managed 108
medien@@ 108
mid@@ 108
nahe@@ 108
nose 108
palä@@ 108
parti@@ 108
ried 108
satis@@ 108
scan 108
schlafen 108
schwierigkeiten 108
sci@@ 108
seat 108
sensi@@ 108
sonder@@ 108
sprü@@ 108
stant 108
sty 108
substan@@ 108
teles@@ 108
tem@@ 108
unglaublichen 108
unterrichten 108
verbessert 108
verdam@@ 108
verknü@@ 108
verteilt 108
wirkliche 108
zugänglich 108
abhängi@@ 107
advanced 107
aling 107
avoid 107
bai 107
bed@@ 107
brian 107
clever 107
coal 107
colli@@ 107
cultures 107
deeper 107
demand 107
diagramm 107
dile@@ 107
dogs 107
einrichtungen 107
erkannt 107
gefällt 107
geschlagen 107
gesellschaft@@ 107
hang 107
herren 107
homo 107
inevi@@ 107
inhalt 107
integr@@ 107
internationalen 107
kapital 107
komple@@ 107
llig 107
losing 107
mails 107
mammo@@ 107
meer@@ 107
mitarbeiter 107
molekül 107
müssten 107
nigeri@@ 107
ologischen 107
primi@@ 107
quant@@ 107
random 107
relation 107
replace 107
sides 107
solange 107
thin@@ 107
toten 107
treat@@ 107
trillion 107
übrig 107
ading 106
angle 106
anteil 106
artic@@ 106
asse 106
aufregend 106
behavi@@ 106
bled 106
büchern 106
capacity 106
chtern 106
commercial 106
deln 106
diskussion 106
durchschnittliche 106
efficiency 106
falten 106
gather@@ 106
geburt@@ 106
genü@@ 106
geregt 106
gesichter 106
grosse 106
heavy 106
hero 106
hie@@ 106
ib@@ 106
igkeiten 106
ilfe 106
insbesondere 106
ipo@@ 106
kampagne 106
kas 106
katastrop@@ 106
keeping 106
kochen 106
leader 106
liefer@@ 106
massi@@ 106
maßstab 106
member 106
metal 106
mie@@ 106
migra@@ 106
narra@@ 106
nik 106
normally 106
notion 106
nützlich 106
pus@@ 106
radiation 106
risks 106
roads 106
schluss@@ 106
schwarzen 106
seltsam 106
shed 106
situationen 106
standards 106
strand 106
tane@@ 106
tially 106
tü@@ 106
user 106
ush 106
webseite 106
willst 106
wärmung 106
zielen 106
ält 106
altet 105
appropriate 105
architect 105
artige 105
autor 105
baseball 105
bubble 105
catch 105
chil@@ 105
clay 105
dealing 105
decken 105
deutsch@@ 105
dna-@@ 105
eindeu@@ 105
einiges 105
erken@@ 105
foc@@ 105
gely 105
gold@@ 105
gore 105
grüne 105
heißen 105
imple@@ 105
increasing 105
koll@@ 105
kompliziert 105
kran@@ 105
kungen 105
laptops 105
linge 105
lokalen 105
mali@@ 105
mo 105
nicht@@ 105
nie@@ 105
platform 105
poetry 105
prinzipien 105
ri 105
riesen@@ 105
sav@@ 105
schick@@ 105
schizophren@@ 105
schöpf@@ 105
serie 105
tasche 105
tlichen 105
transi@@ 105
tsun@@ 105
unfall 105
vorbei@@ 105
vorge@@ 105
vorne 105
wüste 105
äußerst 105
21. 104
50@@ 104
arbeitsp@@ 104
ausmaß 104
beweis 104
beziehen 104
boundar@@ 104
brach 104
burn 104
challen@@ 104
clip 104
deta@@ 104
empfin@@ 104
entstand 104
erwachsenen 104
freundin 104
gegründet 104
gelebt 104
germany 104
geschma@@ 104
gesund 104
gewohn@@ 104
glü@@ 104
grau@@ 104
großmutter 104
hallo 104
heim 104
hol 104
häusern 104
inieren 104
ites 104
jack 104
konz@@ 104
liefern 104
lunch 104
mirror 104
moralische 104
nachts 104
orbit 104
pay@@ 104
perfectly 104
productive 104
rapi@@ 104
rett@@ 104
risiken 104
rural 104
schaue 104
schnei@@ 104
ships 104
smith 104
spiegel@@ 104
strahlung 104
telefon@@ 104
tert 104
tnisse 104
venti@@ 104
verpflich@@ 104
verring@@ 104
versteht 104
verwandelt 104
waff@@ 104
wea@@ 104
wettbewerb 104
zitat 104
überqu@@ 104
28 103
acts 103
anpas@@ 103
antly 103
arab 103
australien 103
außen 103
beinhaltet 103
block@@ 103
breite 103
categ@@ 103
chemie 103
cially 103
digitale 103
dimension 103
engagement 103
epi@@ 103
expan@@ 103
filter 103
gap 103
gate 103
gegenwart 103
geräusche 103
glamour 103
graphic 103
hadn 103
henry 103
holfen 103
int 103
jewei@@ 103
liquid 103
metapher 103
minister@@ 103
orders 103
ore@@ 103
ough 103
oxyto@@ 103
pause 103
penguins 103
piano 103
popu@@ 103
rennen 103
retro@@ 103
sach@@ 103
sektor 103
sinni@@ 103
spli@@ 103
spu@@ 103
stimmung 103
stärken 103
taliban 103
trial 103
verblüff@@ 103
verbrei@@ 103
vog@@ 103
weiße 103
zahn@@ 103
analog@@ 102
anlage 102
automo@@ 102
ay@@ 102
beschloss 102
bogen 102
ctor 102
derer 102
embar@@ 102
enorme 102
equipment 102
erkenn@@ 102
erwachsene 102
ewi@@ 102
faszin@@ 102
febru@@ 102
geber 102
gent 102
gering@@ 102
handlungen 102
hasn 102
heran@@ 102
herstellung 102
hnte 102
ht@@ 102
intellektu@@ 102
jim 102
joe 102
ks@@ 102
leon@@ 102
makers 102
milk 102
miss 102
national@@ 102
natür@@ 102
neighborhood 102
nive@@ 102
ost@@ 102
pilot 102
prime 102
radical 102
schimpansen 102
schlägt 102
schreibt 102
selbe 102
sensitive 102
sent@@ 102
sitz 102
six@@ 102
sowas 102
stehe 102
steven 102
stop@@ 102
sätze 102
thanks 102
unger 102
vertraut 102
veter@@ 102
well@@ 102
wondering 102
zusammenzu@@ 102
24@@ 101
afrikas 101
akzeptieren 101
alist 101
allgemeinen 101
analyse 101
anstelle 101
astron@@ 101
atures 101
ausgeben 101
authenti@@ 101
bemerken 101
caught 101
components 101
darstellen 101
diszi@@ 101
echtz@@ 101
finger@@ 101
geheimnis 101
golden 101
hierher 101
homo@@ 101
ier 101
iled 101
inje@@ 101
ket 101
kirche 101
kombination 101
korre@@ 101
kriege 101
ladies 101
licherweise 101
liefert 101
matri@@ 101
mich@@ 101
miner@@ 101
navi@@ 101
percentage 101
personally 101
players 101
präsentieren 101
rare 101
reiche 101
resultat 101
roh@@ 101
rollen 101
scrat@@ 101
stol@@ 101
tili@@ 101
unit 101
uten 101
vagina 101
vas@@ 101
versu@@ 101
volk 101
vorzustellen 101
whereas 101
wieviel 101
wired 101
wit@@ 101
wofür 101
zeigten 101
zon@@ 101
üben 101
13@@ 100
ander 100
banglades@@ 100
battery 100
bestand@@ 100
bezüglich 100
confli@@ 100
den-@@ 100
edu@@ 100
einfaches 100
emotion 100
ertes 100
fassung 100
fehlen 100
felder 100
former 100
gemeinsame 100
großartigen 100
hre 100
interpretation 100
kanada 100
katastrophe 100
lan 100
leiter 100
lincol@@ 100
marriage 100
mention 100
neh@@ 100
nähr@@ 100
osity 100
pazi@@ 100
physiker 100
psychology 100
reci@@ 100
roll 100
schalt@@ 100
schritt@@ 100
selbstverständlich 100
sequenz 100
setzten 100
sever@@ 100
solcher 100
sop@@ 100
sophisti@@ 100
stif@@ 100
stimul@@ 100
ug@@ 100
unglaub@@ 100
untersuchung 100
versagen 100
verteilung 100
veränderte 100
voraus 100
vulnerable 100
völ@@ 100
willen 100
überlegen 100
1960 99
ames 99
anwendung 99
arrived 99
bby 99
belast@@ 99
bene 99
bestä@@ 99
black@@ 99
bob 99
burning 99
chtete 99
concerned 99
curi@@ 99
damen 99
ebenen 99
entfernen 99
fair@@ 99
füllen 99
fün@@ 99
garage 99
gebieten 99
geschäf@@ 99
gment 99
graduate 99
gün@@ 99
horse 99
implan@@ 99
inci@@ 99
inseln 99
internationale 99
justi@@ 99
kriegs@@ 99
landen 99
liebte 99
mechanis@@ 99
menschliches 99
mutter@@ 99
pag@@ 99
para@@ 99
pfund 99
probieren 99
psychiat@@ 99
psychop@@ 99
rad@@ 99
reaction 99
ridi@@ 99
schwarz@@ 99
so-@@ 99
speech 99
spun@@ 99
stammzellen 99
sub-@@ 99
techniques 99
telef@@ 99
unterhaltung 99
vehi@@ 99
verbrechen 99
vorhanden 99
vorhersagen 99
zep@@ 99
zität 99
zusammenge@@ 99
zza 99
änge 99
1.000 98
absicht 98
agt 98
aktivitäten 98
alterna@@ 98
apri@@ 98
aturen 98
ausstellung 98
bedenken 98
bewus@@ 98
bizar@@ 98
chungen 98
diesel@@ 98
ecu@@ 98
entrop@@ 98
evolutionary 98
films 98
fishing 98
flat 98
förmi@@ 98
gemeinschaften 98
gerei@@ 98
grundlage 98
heirat@@ 98
komment@@ 98
legte 98
licen@@ 98
lifetime 98
lächeln 98
meist 98
mitta@@ 98
momentan 98
pau@@ 98
plays 98
proben 98
pä@@ 98
rb 98
schönes 98
speziellen 98
stru@@ 98
stupid 98
tax@@ 98
thin 98
trennt 98
unterstützt 98
unts 98
vermeiden 98
versor@@ 98
verti@@ 98
w. 98
wovon 98
writer 98
zwischen@@ 98
2011 97
annahme 97
attle 97
austr@@ 97
aw@@ 97
ballo@@ 97
broo@@ 97
chteten 97
contr@@ 97
cour@@ 97
darunter 97
duced 97
eff@@ 97
epidemic 97
equal 97
erweitern 97
gigan@@ 97
gling 97
grafik 97
halb@@ 97
hollywood 97
här@@ 97
illegal 97
jahrzehnt 97
king@@ 97
langfri@@ 97
lige 97
macher 97
mlich 97
multiple 97
oles@@ 97
onal 97
phän@@ 97
relatively 97
sandwi@@ 97
schnitt@@ 97
schrecklich 97
shares 97
sight 97
simpl@@ 97
spiritu@@ 97
stück@@ 97
sungen 97
sustain@@ 97
text@@ 97
umfeld 97
usch 97
verbreitung 97
versus 97
verwir@@ 97
vul@@ 97
weis 97
übernehmen 97
29 96
aden 96
anal@@ 96
angiogen@@ 96
bart 96
brazil 96
broke 96
burgh 96
ckets 96
copy@@ 96
currently 96
differ@@ 96
doll@@ 96
ethi@@ 96
flas@@ 96
fusion 96
gon@@ 96
holz@@ 96
iden@@ 96
l-@@ 96
life@@ 96
meetings 96
migr@@ 96
muscle 96
open@@ 96
orange 96
predat@@ 96
schauten 96
schriften 96
schwa@@ 96
shang@@ 96
sprecher 96
taucht 96
tour@@ 96
transport 96
ulti@@ 96
umines@@ 96
verne@@ 96
weih@@ 96
wher@@ 96
wick@@ 96
193@@ 95
begei@@ 95
beobach@@ 95
breath 95
contain@@ 95
drawing 95
ek@@ 95
farmer 95
gles 95
goods 95
grain 95
ims 95
lock 95
musical 95
neuron 95
newspaper 95
ple@@ 95
pollution 95
prepared 95
queen 95
richt@@ 95
run@@ 95
seits 95
shift 95
southern 95
swim 95
tats@@ 95
wheel@@ 95
zz 95
85 94
alt@@ 94
amerikan@@ 94
ecosystem 94
elling 94
enheit 94
ery 94
fellow 94
interests 94
ktoren 94
mama 94
manufac@@ 94
mem@@ 94
mented 94
nor 94
oned 94
possibly 94
real@@ 94
stati@@ 94
tivi@@ 94
tough 94
uss@@ 94
verantwor@@ 94
water@@ 94
allo@@ 93
arri@@ 93
bag 93
bud@@ 93
chst 93
competi@@ 93
court 93
danken 93
dinosau@@ 93
ga 93
h-@@ 93
haw@@ 93
kore@@ 93
mush@@ 93
occur@@ 93
oning 93
pre-@@ 93
relative 93
remem@@ 93
risi@@ 93
situations 93
super 93
temporary 93
tig@@ 93
trum 93
various 93
watt 93
xide 93
zent@@ 93
aries 92
brand@@ 92
confidence 92
dama@@ 92
diet 92
ength 92
entwick@@ 92
ffer 92
invasi@@ 92
lifest@@ 92
post-@@ 92
represents 92
selling 92
signi@@ 92
spin@@ 92
strate 92
stry 92
trage@@ 92
trip 92
tu 92
un 92
verse 92
wild@@ 92
za 92
zivili@@ 92
zufä@@ 92
assen 91
cab@@ 91
consumer 91
dul@@ 91
elec@@ 91
enjo@@ 91
geographic 91
haup@@ 91
hospitals 91
intro@@ 91
jahrhunder@@ 91
mad 91
noon 91
ressed 91
soil 91
sst 91
tual 91
var@@ 91
whit@@ 91
allen@@ 90
asing 90
associated 90
ax@@ 90
behaviors 90
choices 90
free@@ 90
gendes 90
ids 90
ination 90
planet@@ 90
rates 90
spirit 90
stamm@@ 90
stere@@ 90
still@@ 90
unterschei@@ 90
you@@ 90
ce-@@ 89
certain@@ 89
collap@@ 89
fab@@ 89
fail 89
generate 89
gesund@@ 89
kill@@ 89
kümm@@ 89
mmt 89
ome 89
opp@@ 89
ord 89
scene 89
shark 89
stin@@ 89
theor@@ 89
tra 89
tw@@ 89
vast 89
verstän@@ 89
zel@@ 89
astrop@@ 88
benu@@ 88
buil@@ 88
cooking 88
crash 88
daily 88
denten 88
emerging 88
follo@@ 88
knowing 88
lossen 88
need@@ 88
serve 88
sms 88
strated 88
taus@@ 88
umin@@ 88
vote 88
wart 88
ye 88
zusä@@ 88
agenda 87
aming 87
battle 87
carefully 87
deci@@ 87
entrepr@@ 87
establi@@ 87
homes 87
leaving 87
mana@@ 87
pad 87
senses 87
sue 87
truly 87
wise 87
zwe@@ 87
achieve 86
applied 86
arily 86
arr@@ 86
associ@@ 86
fail@@ 86
fang 86
fix 86
gangen 86
gefäng@@ 86
gravi@@ 86
mam@@ 86
may@@ 86
phr@@ 86
pir@@ 86
roo@@ 86
simil@@ 86
sty@@ 86
thei@@ 86
tube 86
unds 86
urspr@@ 86
vermei@@ 86
what@@ 86
bec@@ 85
beding@@ 85
empathy 85
flei@@ 85
grü@@ 85
ight 85
lessons 85
ordinary 85
q 85
resource 85
rest@@ 85
soft 85
soft@@ 85
spür@@ 85
stern@@ 85
sud@@ 85
suppose 85
tch 85
troffen 85
urban@@ 85
account 84
an-@@ 84
any@@ 84
atten@@ 84
bewusst@@ 84
bow@@ 84
characters 84
clas@@ 84
eastern 84
gla@@ 84
grafi@@ 84
intelli@@ 84
konta@@ 84
m-@@ 84
nachzu@@ 84
restri@@ 84
schre@@ 84
spru@@ 84
afgh@@ 83
arly 83
bear 83
cannot 83
curious 83
dür@@ 83
frame 83
hall@@ 83
interessi@@ 83
iting 83
ought 83
phot@@ 83
präsen@@ 83
ric 83
sett@@ 83
story@@ 83
target 83
th-@@ 83
-up 82
atur@@ 82
begin 82
discussion 82
input 82
magni@@ 82
nö@@ 82
phenomen@@ 82
rect 82
refer@@ 82
schir@@ 82
sour@@ 82
tries 82
turen 82
öffent@@ 82
aster 81
b. 81
bür@@ 81
cise 81
craft 81
credit 81
four@@ 81
hlen@@ 81
however 81
match 81
maß 81
novel 81
pool 81
sation 81
sons 81
stuck 81
tracking 81
variety 81
wire 81
bacteri@@ 80
blan@@ 80
crow@@ 80
deliver 80
gil@@ 80
intri@@ 80
kation 80
market@@ 80
neur@@ 80
transform 80
unding 80
use@@ 80
venue 80
vulner@@ 80
worldwide 80
bieren 79
commun@@ 79
dacht 79
distri@@ 79
eil 79
embra@@ 79
ener@@ 79
equivalent 79
espe@@ 79
exploration 79
foun@@ 79
importance 79
mean@@ 79
mexi@@ 79
mir@@ 79
peak 79
proper@@ 79
samkeit 79
solving 79
strength 79
tious 79
tting 79
u.k. 79
verfüg@@ 79
awareness 78
compli@@ 78
contin@@ 78
hits 78
mary 78
metaph@@ 78
pack 78
sending 78
style 78
success@@ 78
tech@@ 78
ter-@@ 78
ual 78
usual 78
vil@@ 78
wra@@ 78
absol@@ 77
amei@@ 77
benö@@ 77
capture 77
glau@@ 77
identify 77
mode 77
se-@@ 77
string 77
suggest 77
theme 77
unterstü@@ 77
archite@@ 76
att@@ 76
comfort 76
gain 76
hood 76
males 76
manufacturing 76
masch@@ 76
mitt@@ 76
runs 76
rän@@ 76
schlüs@@ 76
seri@@ 76
specifically 76
struggle 76
thou@@ 76
throughout 76
turing 76
á@@ 76
agri@@ 75
appear 75
beha@@ 75
buying 75
capable 75
compon@@ 75
dings 75
eping 75
erwachsen@@ 75
killing 75
matters 75
medikam@@ 75
nien 75
py@@ 75
remin@@ 75
soci@@ 75
thr@@ 75
unless 75
zations 75
and-@@ 74
consci@@ 74
definitely 74
grown 74
interest@@ 74
labor@@ 74
oud 74
popul@@ 74
rely 74
require 74
round 74
spoke 74
ston 74
stors 74
tale 74
zö@@ 74
überra@@ 74
aper 73
eth 73
gehir@@ 73
indepen@@ 73
ira@@ 73
mmer 73
mption 73
occasi@@ 73
quot@@ 73
stan 73
surpris@@ 73
aded 72
aufmerk@@ 72
citi@@ 72
gebur@@ 72
herauszu@@ 72
krat@@ 72
moment@@ 72
multi-@@ 72
profess@@ 72
rem 72
ress 72
sequ@@ 72
survey 72
abor@@ 71
bak@@ 71
considered 71
crea@@ 71
crowd 71
entirely 71
ernähr@@ 71
essential 71
experi@@ 71
hm@@ 71
häufi@@ 71
partment 71
schön@@ 71
spot 71
strat@@ 71
tain@@ 71
abhän@@ 70
alo@@ 70
ameri@@ 70
atory 70
ause 70
cational 70
collea@@ 70
condu@@ 70
favor@@ 70
mäd@@ 70
perspe@@ 70
revol@@ 70
sugge@@ 70
wettbewer@@ 70
zusam@@ 70
architek@@ 69
caus@@ 69
cutting 69
dere 69
environments 69
fic@@ 69
fortunately 69
gelö@@ 69
tude 69
zens 69
add@@ 68
ama 68
common@@ 68
computing 68
das@@ 68
enced 68
grand 68
lay 68
nia 68
operate 68
ous@@ 68
partic@@ 68
underneath 68
aly@@ 67
asse@@ 67
counter 67
dol@@ 67
genan@@ 67
grupp@@ 67
jä@@ 67
kir@@ 67
nahr@@ 67
näch@@ 67
transforma@@ 67
vey 67
blich 66
comple@@ 66
dered 66
einfa@@ 66
five-@@ 66
generally 66
govern@@ 66
inde@@ 66
ishing 66
lieder 66
location 66
mou@@ 66
phen@@ 66
pon 66
regular 66
verhäl@@ 66
w-@@ 66
wesent@@ 66
zau@@ 66
faith 65
fs@@ 65
keiten 65
muse@@ 65
nearly 65
photographs 65
pie@@ 65
scop@@ 65
spie@@ 65
switch 65
year-@@ 65
aled 64
diff@@ 64
due 64
geg@@ 64
launched 64
less@@ 64
listen@@ 64
möglich@@ 64
some@@ 64
susta@@ 64
vable 64
wirkungen 64
deep@@ 63
diffic@@ 63
dnis 63
hus@@ 63
ished 63
ision 63
photo 63
pollu@@ 63
primary 63
soll@@ 63
suggest@@ 63
transp@@ 63
unterschied@@ 63
whom 63
zahlt 63
awful 62
cei@@ 62
condi@@ 62
genu@@ 62
ghter 62
kräf@@ 62
lap@@ 62
pulled 62
richti@@ 62
stim@@ 62
tery 62
tribu@@ 62
umgeb@@ 62
appro@@ 61
display 61
effectively 61
fot@@ 61
mous 61
präsent@@ 61
tsam 61
vy 61
ban 60
bene@@ 60
businesses 60
expe@@ 60
immedi@@ 60
laboratory 60
sth@@ 60
strug@@ 60
vil 60
+ 59
bub@@ 59
goog@@ 59
halten@@ 59
hing@@ 59
konzent@@ 59
questi@@ 59
sauer@@ 59
testing 59
viol@@ 59
world@@ 59
… 59
alia 58
carrying 58
democra@@ 58
erfahr@@ 58
gir@@ 58
inf@@ 58
ings@@ 58
poe@@ 58
schirm 58
tempor@@ 58
ance@@ 57
brilli@@ 57
bucks 57
eben@@ 57
einflus@@ 57
fam@@ 57
grundsä@@ 57
illness 57
kind@@ 57
long-@@ 57
manage 57
molekü@@ 57
paki@@ 57
relev@@ 57
ride 57
ross 57
safety 57
verursa@@ 57
weird 57
diskus@@ 56
ergeb@@ 56
exam@@ 56
kilome@@ 56
kör@@ 56
raising 56
bang@@ 55
co-@@ 55
figured 55
finish 55
ind 55
ital 55
kürz@@ 55
naturally 55
ony@@ 55
sets 55
vag@@ 55
zwi@@ 55
alls 54
bron@@ 54
confi@@ 54
danger@@ 54
distin@@ 54
environ@@ 54
exercise 54
geräu@@ 54
hori@@ 54
ire 54
let@@ 54
liebl@@ 54
mathema@@ 54
pan 54
weal@@ 54
‹ 54
› 54
calling 53
cast 53
einfl@@ 53
exist@@ 53
gery 53
gle 53
jenigen 53
keit 53
libr@@ 53
manu@@ 53
ollywood 53
dation 52
ices 52
kehr 52
konfer@@ 52
pop 52
received 52
strahl@@ 52
great@@ 51
imp@@ 51
shall 51
spee@@ 51
ually 51
zept 51
.. 50
ada 50
anno@@ 50
bili@@ 50
decisi@@ 50
erkan@@ 50
ersta@@ 50
fundam@@ 50
inven@@ 50
psy@@ 50
requ@@ 50
rying 50
seem@@ 50
strate@@ 50
tötet 50
ve-@@ 50
who@@ 50
disc@@ 49
event@@ 49
infra@@ 49
mor 49
pedia 49
zusagen 49
aring 48
beten 48
com 48
dow@@ 48
inier@@ 48
internation@@ 48
oly@@ 48
tex 48
verbin@@ 48
vereinig@@ 48
wirt@@ 48
übri@@ 48
abo@@ 47
ap 47
beh@@ 47
chtigkeit 47
cient 47
gründet 47
ires 47
midd@@ 47
recy@@ 47
typically 47
vels 47
atmosp@@ 46
class@@ 46
concern@@ 46
equi@@ 46
ktu@@ 46
oms 46
oze@@ 46
pengu@@ 46
protot@@ 46
traff@@ 46
verage 46
wett@@ 46
zugän@@ 46
choo@@ 45
coll@@ 45
expen@@ 45
mers 45
neighbor@@ 45
strateg@@ 45
sug@@ 45
verhalten@@ 45
° 45
abili@@ 44
curr@@ 44
dnung 44
fiel@@ 44
ih@@ 44
män@@ 44
ond 44
pid 44
rul@@ 44
wahrneh@@ 44
watched 44
wiki@@ 44
eness 43
engine@@ 43
extrem@@ 43
fairly 43
gala@@ 43
peop@@ 43
rieb 43
signific@@ 43
soldi@@ 43
valu@@ 43
vid 43
zar@@ 43
beauti@@ 42
commer@@ 42
face@@ 42
facing 42
fically 42
gä@@ 42
photogra@@ 42
satur@@ 42
valent 42
verständlich 42
vorhan@@ 42
öhn@@ 42
carb@@ 41
eri@@ 41
geneh@@ 41
landscap@@ 41
num@@ 41
omen@@ 41
stab 41
toward 41
) 40
auton@@ 40
scienti@@ 40
zy 40
absolu@@ 39
agieren 39
asy 39
forschen 39
know@@ 39
kunde 39
of-@@ 39
remark@@ 39
setting 39
teach@@ 39
upon 39
won@@ 39
avo@@ 38
bibli@@ 38
boun@@ 38
britan@@ 38
euro@@ 38
healthcare 38
milliar@@ 38
storben 38
stud@@ 38
symp@@ 38
ange 37
busin@@ 37
ermög@@ 37
fashi@@ 37
genheit 37
geschwindi@@ 37
inging 37
k. 37
nee@@ 37
phic 37
ques 37
ring@@ 37
rs 37
cess 36
hri@@ 36
knowle@@ 36
lik@@ 36
picked 36
publik@@ 36
rät@@ 36
trou@@ 36
adul@@ 35
aum 35
beeinflus@@ 35
cum@@ 35
eing 35
eting 35
häus@@ 35
interess@@ 35
itely 35
moun@@ 35
osau@@ 35
soc@@ 35
vili@@ 35
= 34
att 34
iness 34
intelle@@ 34
mittl@@ 34
plö@@ 34
rais@@ 34
stert 34
teili@@ 34
terr@@ 34
vent 34
beispiel@@ 33
cris@@ 33
dit 33
iety 33
iti 33
karri@@ 33
mög@@ 33
read@@ 33
roughly 33
tish 33
½ 33
anthro@@ 32
dden 32
gespro@@ 32
hindern 32
prac@@ 32
previ@@ 32
schimpan@@ 32
with@@ 32
í@@ 32
ó@@ 32
base@@ 31
dab@@ 31
earli@@ 31
ehen 31
hmen@@ 31
pian@@ 31
tali@@ 31
the-@@ 31
tty 31
chur@@ 30
famili@@ 30
fft 30
figh@@ 30
gebra@@ 30
kay 30
rd 30
them@@ 30
tioned 30
utes 30
zeitig 30
cogni@@ 29
erweise 29
evi@@ 29
gebie@@ 29
herausforder@@ 29
kalifor@@ 29
oce@@ 29
pathy 29
sands 29
vered 29
@ 28
doc@@ 28
easi@@ 28
engl@@ 28
ghtly 28
gues 28
him@@ 28
hren@@ 28
malari@@ 28
mber 28
olly@@ 28
ultima@@ 28
yel@@ 28
zine 28
² 28
è@@ 28
aufgab@@ 27
bile 27
brazi@@ 27
convin@@ 27
erzä@@ 27
meth@@ 27
onnen 27
prise 27
psychi@@ 27
scap@@ 27
sequences 27
verän@@ 27
affe@@ 26
bevölk@@ 26
campaig@@ 26
cess@@ 26
diab@@ 26
ests 26
fic 26
kratie 26
mathe@@ 26
ould 26
pers@@ 26
sear@@ 26
ttle 26
verblü@@ 26
verbra@@ 26
benef@@ 25
big@@ 25
dee@@ 25
entde@@ 25
medic@@ 25
pagne 25
spea@@ 25
tality 25
trilli@@ 25
vel 25
wech@@ 25
‟ 25
angi@@ 24
geschie@@ 24
großbritan@@ 24
isla@@ 24
phar@@ 24
princi@@ 24
restau@@ 24
solu@@ 24
tol@@ 24
accor@@ 23
bedingt 23
bezieh@@ 23
deb@@ 23
eicht 23
fasz@@ 23
ficial 23
jem@@ 23
kle 23
marri@@ 23
nst 23
performan@@ 23
ressour@@ 23
schied 23
schieden 23
stero@@ 23
vide@@ 23
xic@@ 23
anim@@ 22
employe@@ 22
entfer@@ 22
funden 22
lieb 22
prinzipi@@ 22
tely 22
wichtig@@ 22
flori@@ 21
geschw@@ 21
gesell@@ 21
haupt 21
inte@@ 21
kalien 21
marke@@ 21
sup@@ 21
through@@ 21
volun@@ 21
xt 21
ächlich 21
‚ 21
avail@@ 20
beinhal@@ 20
chro@@ 20
elektri@@ 20
gement 20
haupts@@ 20
hospit@@ 20
oxy@@ 20
selves 20
simp@@ 20
ske@@ 20
sophi@@ 20
straß@@ 20
wus@@ 20
abli@@ 19
alg@@ 19
call@@ 19
dafri@@ 19
electri@@ 19
europe@@ 19
fert 19
ough@@ 19
presi@@ 19
ult 19
zeital@@ 19
bess@@ 18
effici@@ 18
energ@@ 18
för@@ 18
künf@@ 18
machin@@ 18
tea@@ 18
unity 18
# 17
.b. 17
agen 17
clear@@ 17
foreig@@ 17
n. 17
ousness 17
tops 17
β@@ 17
chers 16
etz 16
geria 16
ihr@@ 16
indeed 16
leist@@ 16
other@@ 16
responsi@@ 16
ruption 16
safe@@ 16
seit@@ 16
wies@@ 16
‒ 16
( 15
diag@@ 15
intellec@@ 15
ogen@@ 15
professi@@ 15
schizop@@ 15
til 15
ungefä@@ 15
vail@@ 15
ñ@@ 15
afghani@@ 14
bestim@@ 14
grou@@ 14
hundre@@ 14
issu@@ 14
ith 14
notic@@ 14
onlin@@ 14
perfor@@ 14
pflich@@ 14
resour@@ 14
^ 13
americ@@ 13
autom@@ 13
dimen@@ 13
effec@@ 13
erwei@@ 13
europ@@ 13
exer@@ 13
fahr 13
feed@@ 13
gem@@ 13
häre 13
maj@@ 13
milit@@ 13
mosp@@ 13
à 13
ü 13
birth@@ 12
fäng@@ 12
letzten@@ 12
mole@@ 12
natu@@ 12
rhy@@ 12
sep@@ 12
stly 12
thom@@ 12
ã@@ 12
auß@@ 11
bedür@@ 11
bilities 11
grow@@ 11
rant 11
relation@@ 11
situ@@ 11
unser@@ 11
versums 11
appropri@@ 10
beau@@ 10
capac@@ 10
child@@ 10
ctly 10
deca@@ 10
dn 10
galaxi@@ 10
gegent@@ 10
geschaff@@ 10
invisi@@ 10
job@@ 10
jour@@ 10
nerv@@ 10
your@@ 10
cals 9
curity 9
det@@ 9
falt 9
gni@@ 9
instit@@ 9
manhat@@ 9
movi@@ 9
müs@@ 9
na-@@ 9
ote 9
paci@@ 9
passion@@ 9
patter@@ 9
posite 9
pover@@ 9
quick@@ 9
suc@@ 9
ttel 9
alzhei@@ 8
awar@@ 8
chic@@ 8
destru@@ 8
ernsth@@ 8
famil@@ 8
folks 8
fren@@ 8
norm@@ 8
rami@@ 8
shou@@ 8
there@@ 8
zumin@@ 8
züglich 8
actu@@ 7
amera 7
buchstä@@ 7
cule 7
galax@@ 7
intu@@ 7
irgen@@ 7
onder@@ 7
osop@@ 7
prinzi@@ 7
socie@@ 7
weapon@@ 7
zeugt 7
 7
cisco 6
entre@@ 6
lebe@@ 6
micha@@ 6
quas@@ 6
rough@@ 6
tremend@@ 6
trotz@@ 6
äume 6
ç@@ 6
ó 6
aga@@ 5
astern 5
cept 5
chir@@ 5
compan@@ 5
complic@@ 5
elek@@ 5
emo@@ 5
garti@@ 5
inst 5
intel@@ 5
mexic@@ 5
minde@@ 5
stead 5
tice 5
ution@@ 5
viell@@ 5
 5
 5
¥ 5
ê@@ 5
` 4
beson@@ 4
califor@@ 4
chmal 4
ement@@ 4
ernt 4
expon@@ 4
flä@@ 4
gespi@@ 4
mend@@ 4
vertr@@ 4
zhei@@ 4
 4
­ 4
â@@ 4
í 4
ö 4
ück 4
* 3
began@@ 3
dise@@ 3
efully 3
gyp@@ 3
kens@@ 3
kog@@ 3
mista@@ 3
orith@@ 3
othe@@ 3
reme@@ 3
slow@@ 3
verbess@@ 3
viron@@ 3
washing@@ 3
zop@@ 3
³ 3
¼ 3
× 3
ä 3
ø@@ 3
ú@@ 3
œ@@ 3
β 3
_ 2
`@@ 2
beina@@ 2
bekan@@ 2
bey@@ 2
casi@@ 2
econ@@ 2
erlau@@ 2
exac@@ 2
health@@ 2
hund@@ 2
indivi@@ 2
opport@@ 2
richt 2
ween 2
© 2
å@@ 2
ô@@ 2
ā@@ 2
\ 1
bras@@ 1
comfort@@ 1
esn 1
etes 1
hosp@@ 1
import@@ 1
incredi@@ 1
instance 1
irgendet@@ 1
jeden@@ 1
niem@@ 1
paig@@ 1
perha@@ 1
pment 1
possi@@ 1
raid 1
silic@@ 1
smit@@ 1
stom@@ 1
ully 1
vices 1
£ 1
® 1
¾ 1
à@@ 1
á 1
è 1
ë 1
ë@@ 1
î@@ 1
ï@@ 1
ý@@ 1
ō@@ 1
š@@ 1
к@@ 1
ӓ@@ 1
€ 1
你@@ 1
葱 1
送@@ 1
﻿ 1
， 1
madeupword0000 0
madeupword0001 0
madeupword0002 0
madeupword0003 0
madeupword0004 0
madeupword0005 0
madeupword0006 0
