, 532005
. 434628
the 187266
de 162332
a 144323
and 136950
et 126182
to 112044
of 103233
la 92305
que 85391
that 83596
le 81554
les 79522
i 76414
est 76039
in 73823
&quot; 73003
it 68144
à 66144
nous 65095
un 64311
you 61421
l&apos; 60921
we 59545
des 59415
is 58731
vous 55041
une 51390
en 50580
d&apos; 49149
&apos;s 49018
ce 45065
je 43695
this 43448
: 42468
-- 42375
dans 41827
qui 41293
/ 40620
il 40517
? 38404
pour 38051
pas 37454
c&apos; 37056
on 33950
so 32039
they 28868
&gt; 27705
&lt; 27704
was 26653
for 26643
j&apos; 25572
qu&apos; 25500
are 25074
plus 24854
ne 24793
ils 24567
y 24351
but 24228
have 24039
du 23895
mais 23584
what 23334
with 22237
n&apos; 21998
can 21244
sur 21228
ai 20573
me 20252
as 20155
at 19650
&apos;t 19304
be 18985
about 18749
there 18362
sont 18246
ça 18097
an 18082
avec 17651
all 17265
si 16855
ces 16355
not 16192
one 15967
do 15882
ont 15833
avons 15598
comme 15532
my 15486
au 15400
or 15251
cette 15122
people 14764
&apos;re 14474
fait 14417
se 14352
like 14286
était 14173
if 14144
from 14064
= 13868
donc 13759
re@@ 13590
er 13315
par 12970
he 12964
our 12928
faire 12789
now 12686
elle 12579
these 12310
just 12309
tout 12200
ou 11921
when 11688
in@@ 11495
é 11476
quand 11393
because 11259
by 11233
us 11119
s&apos; 10997
être 10932
out 10930
s@@ 10900
very 10754
how 10697
ing 10652
ed 10467
gens 10459
parce 10253
them 10174
know 10044
aux 10041
up 10037
très 10025
more 9901
going 9832
ted 9627
had 9514
es 9459
monde 9389
-@@ 9186
think 9169
who 9144
chose 9118
ent 9082
which 9067
their 9033
see 9019
dit 8952
were 8887
bien 8846
your 8831
ons 8687
would 8608
here 8601
really 8444
world 8350
get 8304
time 8300
où 8222
d@@ 8215
then 8154
ant 8121
&apos;ve 8071
vraiment 8060
beaucoup 7983
mon 7803
some 7796
h@@ 7686
p@@ 7613
&apos;m 7568
ans 7549
notre 7530
és 7528
way 7513
« 7484
don 7433
speaker 7422
al 7395
has 7388
aussi 7346
tous 7344
doc 7335
ez 7335
♫ 7316
» 7262
même 7231
into 7161
actually 7121
where 7108
son 7103
choses 7097
t@@ 7064
ation 7037
go 6987
g@@ 6981
été 6968
cela 6933
en@@ 6917
leur 6877
ée 6845
t 6792
dé@@ 6791
b@@ 6780
will 6736
suis 6709
talk 6640
years 6634
things 6627
maintenant 6598
o@@ 6585
translator 6574
k@@ 6559
profiles 6552
http 6548
href 6530
reviewer 6530
www.ted.com 6530
other 6514
n@@ 6471
deux 6458
could 6411
votre 6300
comment 6259
want 6209
ici 6198
s 6191
no 6147
quelque 6146
well 6131
ait 6122
make 6090
i@@ 6083
been 6080
voir 6077
l@@ 6019
new 5991
; 5928
pouvez 5892
r@@ 5881
she 5863
e@@ 5859
right 5855
e 5850
vie 5845
able 5797
v@@ 5783
c@@ 5745
genre 5669
ma 5647
m&apos; 5634
y@@ 5600
those 5548
autre 5488
m@@ 5461
a@@ 5455
said 5455
something 5448
than 5448
co@@ 5444
first 5437
dire 5362
ch@@ 5326
nos 5324
autres 5303
o 5284
ers 5274
ts 5273
fois 5236
entre 5229
ti@@ 5226
two 5196
al@@ 5183
avez 5180
te 5168
avait 5146
di@@ 5121
avoir 5099
é@@ 5057
ate 5055
er@@ 5045
his 5041
also 5032
thing 5025
look 5006
ag@@ 4995
f@@ 4959
pense 4946
got 4875
un@@ 4853
m 4829
little 4826
ées 4821
temps 4797
back 4783
life 4779
most 4772
peu 4756
over 4748
ré@@ 4744
much 4738
work 4724
alors 4679
even 4667
ar@@ 4655
d 4633
dis@@ 4629
only 4609
mes 4581
sommes 4562
con@@ 4552
say 4549
juste 4538
peut 4529
ses 4502
many 4476
voici 4462
age 4439
aient 4388
important 4379
its 4372
façon 4357
take 4330
el@@ 4306
elles 4301
need 4282
encore 4279
u@@ 4228
moi 4204
her 4158
an@@ 4143
is@@ 4137
point 4107
question 4102
why 4100
non 4094
ri@@ 4079
lot 4077
kind 4059
dont 4030
est-ce 4023
w@@ 4021
did 4019
leurs 4002
c 3986
around 3976
po@@ 3975
every 3970
là 3945
good 3944
on@@ 3940
ad@@ 3932
j@@ 3912
pouvons 3884
different 3835
sa 3827
ine 3820
bo@@ 3808
g 3787
eux 3783
day 3768
ro@@ 3748
li@@ 3746
toutes 3735
moment 3734
down 3724
pourquoi 3715
10 3695
st@@ 3694
through 3681
lectures 3675
let 3671
veux 3664
années 3661
re 3661
ab@@ 3652
come 3650
docid 3640
tant 3631
&apos;ll 3628
ter 3618
th@@ 3617
pendant 3612
or@@ 3610
use 3596
em@@ 3592
subtitles 3586
transcript 3579
enfants 3571
mar@@ 3565
peut-être 3559
ex@@ 3557
eur 3555
same 3542
ais 3534
am@@ 3530
el 3515
being 3509
op@@ 3493
besoin 3490
ca@@ 3462
lo@@ 3461
ac@@ 3460
vais 3450
puis 3405
it@@ 3385
si@@ 3378
put 3367
place 3362
ma@@ 3348
pays 3334
chaque 3329
mo@@ 3304
k 3284
histoire 3246
doing 3240
aire 3236
su@@ 3223
change 3219
im@@ 3219
tes 3215
savez 3205
jamais 3203
! 3178
travail 3177
qu@@ 3166
as@@ 3156
seulement 3154
ques 3151
gu@@ 3133
tr@@ 3125
par@@ 3120
es@@ 3119
ations 3108
personnes 3108
eau 3098
étaient 3095
any 3086
gr@@ 3080
three 3077
p 3072
trois 3071
ants 3053
peuvent 3053
hui 3052
aujourd&apos; 3048
ement 3048
ly 3047
at@@ 3030
eu 3025
sans 3020
quelques 3014
ds 3008
va 3008
ante 3003
called 3002
com@@ 2997
part 2997
après 2996
pro@@ 2993
idée 2972
ie 2971
percent 2969
% 2954
long 2948
commencé 2945
tions 2945
after 2934
today 2927
made 2916
êtes 2914
dollars 2909
le@@ 2906
&apos;d 2901
ated 2896
car@@ 2896
man 2893
l 2891
human 2883
der 2881
ité 2873
parler 2867
ins 2866
moins 2862
cr@@ 2851
tion 2846
z@@ 2840
toujours 2833
fi@@ 2822
20 2805
find 2800
tu@@ 2795
great 2793
tell 2789
year 2784
pl@@ 2783
eurs 2780
personne 2766
vers 2761
problème 2759
ting 2753
ance 2750
inter@@ 2745
big 2736
res@@ 2733
own 2713
de@@ 2694
et@@ 2674
br@@ 2667
per@@ 2666
quoi 2663
science 2663
partie 2659
fact 2642
sûr 2636
didn 2635
no@@ 2628
to@@ 2621
aires 2610
els 2609
ale 2601
end 2590
another 2589
design 2588
course 2574
idea 2561
om@@ 2554
sh@@ 2548
grand 2535
étais 2530
started 2522
last 2510
grande 2504
before 2492
bl@@ 2487
bi@@ 2486
bu@@ 2484
better 2479
assez 2477
toute 2476
avant 2474
ju@@ 2473
soit 2473
should 2472
cet 2471
and@@ 2470
première 2463
u 2457
am 2446
ite 2432
millions 2432
give 2422
ever 2420
might 2407
sou@@ 2399
off 2388
red 2388
&apos; 2383
simple 2377
went 2376
ou@@ 2371
thought 2351
merci 2350
never 2340
still 2338
information 2337
eh 2336
ver@@ 2330
pi@@ 2328
used 2325
devons 2319
système 2316
together 2316
min@@ 2312
n 2311
ok 2306
ales 2304
lui 2304
story 2304
depuis 2295
jusqu&apos; 2288
bit 2281
ity 2281
ous 2281
7@@ 2277
000 2275
environ 2271
public 2269
50 2263
jour 2263
ap@@ 2262
system 2262
quelqu&apos; 2260
problem 2259
again 2257
next 2254
pré@@ 2254
voyez 2247
each 2244
him 2237
ai@@ 2230
ph@@ 2229
thank 2228
bon 2225
ni@@ 2223
trans@@ 2219
cor@@ 2214
aller 2208
air 2204
start 2204
show 2203
does 2195
30 2192
avais 2189
women 2181
données 2175
ago 2173
ol@@ 2170
femmes 2168
technology 2165
exemple 2164
brain 2163
ère 2158
té 2156
possible 2148
ks 2143
vu 2141
nature 2138
x 2138
ic 2133
data 2123
came 2119
b 2115
internet 2114
technologie 2110
between 2102
few 2096
art 2091
million 2091
try 2089
h 2080
water 2080
too 2078
cerveau 2073
utiliser 2058
font 2049
sort 2042
av@@ 2041
cu@@ 2040
quel 2035
au@@ 2017
se@@ 2013
ci@@ 2006
oh 2001
so@@ 2001
ke 1996
du@@ 1994
do@@ 1993
looking 1991
found 1980
mer 1976
tique 1976
passe 1972
è@@ 1965
ser@@ 1958
dr@@ 1955
social 1949
ér@@ 1942
ally 1941
for@@ 1939
ating 1937
r 1936
prendre 1935
less 1932
maybe 1930
trouver 1928
vos 1921
... 1916
che 1913
six 1913
gi@@ 1912
man@@ 1912
comprendre 1910
mon@@ 1906
mean 1903
sorte 1902
ge 1899
oui 1894
love 1893
using 1890
ors 1884
importe 1882
certains 1881
4@@ 1880
children 1878
ho@@ 1878
live 1877
per 1869
100 1868
2 1867
doesn 1860
school 1860
lu@@ 1848
avaient 1846
done 1846
understand 1844
ens 1842
second 1840
pourrait 1838
example 1837
fer@@ 1836
may 1836
cou@@ 1834
ill@@ 1833
ines 1830
mi@@ 1829
wanted 1829
rien 1823
ves 1819
questions 1815
peux 1813
king 1810
pe@@ 1808
working 1806
real 1804
tri@@ 1803
cancer 1801
créer 1801
petit 1800
ment 1797
cas 1793
image 1793
pouvoir 1787
ga@@ 1786
plupart 1786
ét@@ 1786
times 1784
w 1783
four 1782
f 1781
chez 1780
penser 1779
9 1775
power 1767
whole 1765
ve 1763
call 1756
away 1752
ence 1750
help 1750
trying 1741
homme 1739
mu@@ 1736
face 1735
1 1734
vi@@ 1728
terre 1723
hu@@ 1721
city 1720
ise 1720
passé 1720
always 1710
person 1710
regardez 1709
old 1708
pre@@ 1708
ensuite 1700
sp@@ 1699
ches 1698
travers 1693
gen@@ 1692
ir@@ 1692
tu 1692
ensemble 1691
light 1688
country 1686
everything 1686
problèmes 1686
believe 1685
4 1684
3 1682
mettre 1680
feel 1679
appelle 1673
donner 1668
minutes 1667
ies 1656
5 1652
bou@@ 1649
premier 1647
pr@@ 1642
ber@@ 1638
side 1637
corps 1636
tent 1636
type 1633
année 1630
nouvelle 1629
space 1626
res 1625
tic 1624
create 1622
sur@@ 1622
ats 1621
thinking 1620
ra@@ 1618
montrer 1617
mor@@ 1612
fl@@ 1609
number 1609
nouveau 1606
ville 1606
future 1602
ps 1597
bonne 1596
faisons 1593
changer 1588
cher 1586
ter@@ 1586
ta@@ 1583
argent 1580
kids 1576
money 1575
be@@ 1574
ents 1574
ary 1571
côté 1567
allons 1565
hi@@ 1565
means 1565
ler 1562
&#91; 1561
&#93; 1561
took 1561
cause 1557
gar@@ 1556
.@@ 1552
il@@ 1552
difficile 1551
five 1550
making 1547
cl@@ 1546
home 1545
become 1544
pa@@ 1542
ages 1539
tive 1539
antes 1538
sais 1537
3@@ 1535
mal@@ 1535
small 1532
fin 1531
15 1530
vont 1530
jours 1523
ten@@ 1522
th 1522
bar@@ 1521
comes 1521
als 1520
parents 1518
men 1515
ca 1513
cré@@ 1513
us@@ 1509
jo@@ 1506
str@@ 1505
sub@@ 1504
fin@@ 1503
ic@@ 1503
ded 1502
ding 1496
forme 1485
quatre 1485
sens 1484
sure 1484
plutôt 1483
propre 1481
um 1477
gros 1476
getting 1471
pris 1471
laquelle 1467
santé 1467
ères 1465
end@@ 1463
play 1463
simplement 1463
ent@@ 1462
building 1461
tard 1457
faites 1455
ables 1449
pu@@ 1449
fu@@ 1448
signifie 1445
ne@@ 1443
énergie 1443
19@@ 1441
sense 1438
enough 1436
mois 1434
petite 1433
quite 1432
e-@@ 1431
ability 1430
without 1423
ways 1421
best 1420
25@@ 1418
food 1418
indi@@ 1418
ian 1417
bles 1416
trouvé 1416
me@@ 1415
energy 1413
5@@ 1410
machine 1408
9@@ 1406
construire 1405
vo@@ 1404
culture 1403
déjà 1403
essayer 1402
says 1402
body 1401
left 1400
global 1393
images 1392
autour 1389
countries 1386
♪ 1386
vrai 1385
enfant 1384
probably 1380
car 1379
thomas 1379
ms 1378
regarder 1376
sous 1376
imagine 1373
états-unis 1373
maison 1372
ness 1372
probablement 1372
x@@ 1372
while 1370
8 1369
population 1368
ru@@ 1368
sions 1368
talking 1368
expérience 1367
endroit 1366
mieux 1366
trop 1364
main 1363
vision 1363
char@@ 1362
lives 1362
build 1358
set 1356
tiques 1356
- 1355
onn@@ 1355
room 1355
interesting 1354
raison 1354
différentes 1353
espace 1351
por@@ 1351
presque 1351
tor@@ 1349
case 1344
coming 1344
ec@@ 1344
force 1343
ur@@ 1343
earth 1341
cul@@ 1340
devez 1340
ique 1340
femme 1339
told 1338
voulez 1338
ceux 1332
savoir 1327
mé@@ 1326
cours 1325
savons 1325
train 1325
mis 1324
such 1324
ist 1321
40 1318
york 1318
go@@ 1316
ul@@ 1315
ask 1313
mal 1313
pos@@ 1311
manière 1309
happened 1308
te@@ 1307
hard 1306
ch 1301
line 1301
once 1298
ass@@ 1296
6@@ 1295
8@@ 1294
ateur 1294
move 1293
led 1292
quement 1292
hommes 1291
int@@ 1287
makes 1287
stuff 1284
école 1284
ar 1280
pretty 1280
ge@@ 1279
anything 1278
action 1277
ban@@ 1277
open 1277
across 1273
quelle 1271
cinq 1270
contre 1270
ger 1268
seen 1268
allez 1266
can@@ 1266
land 1266
ia 1265
col@@ 1263
changement 1260
serait 1256
health 1255
’ 1254
family 1252
lieu 1252
all@@ 1251
ely 1250
happen 1249
har@@ 1248
ements 1247
high 1245
pe 1245
living 1244
ven@@ 1242
6 1241
ates 1240
ble 1240
yet 1240
ligne 1239
certain 1238
20@@ 1237
seule 1237
days 1236
attention 1235
vol@@ 1235
saw 1234
half 1231
photo 1229
africa 1227
care 1226
pou@@ 1225
tro@@ 1225
nu@@ 1224
chance 1221
ances 1220
young 1218
lumière 1217
ling 1216
business 1215
learn 1215
z 1215
pen@@ 1213
later 1211
la@@ 1209
war 1207
ker 1203
donné 1201
os 1200
computer 1198
having 1198
passer 1198
project 1198
ue 1197
ative 1195
experience 1195
asked 1193
sera 1193
ck 1192
idées 1191
groupe 1190
projet 1190
guerre 1188
souvent 1187
humains 1184
afrique 1182
cap@@ 1182
7 1180
commencer 1180
voyons 1180
surface 1179
avions 1176
teurs 1176
sup@@ 1175
nombre 1173
45@@ 1172
haut 1172
marché 1172
87 1171
almost 1171
hand 1171
incroyable 1170
else 1169
t-@@ 1168
ain 1166
société 1166
table 1164
ari@@ 1163
book 1163
goes 1163
out@@ 1163
appar@@ 1162
ton 1161
patients 1160
film 1159
travailler 1159
nouvelles 1158
bad 1157
inside 1154
gl@@ 1151
milliards 1151
cop@@ 1150
form 1150
ions 1150
27 1149
mind 1149
ner 1149
bio@@ 1148
cour@@ 1148
large 1146
ones 1146
act 1145
whether 1145
problems 1144
reason 1144
happens 1142
aider 1140
okay 1139
sa@@ 1139
esprit 1138
réponse 1138
both 1137
gh@@ 1136
ty 1135
bas@@ 1134
seul 1134
state 1134
ver 1132
process 1129
states 1129
dec@@ 1128
apprendre 1126
top 1125
pan@@ 1124
fac@@ 1123
picture 1123
planet 1121
far 1118
ir 1118
processus 1118
appelé 1116
basically 1116
ez-vous 1116
ment@@ 1115
humain 1114
bur@@ 1113
accord 1112
des@@ 1112
bri@@ 1111
vient 1111
connec@@ 1110
tés 1109
60 1108
moyen 1108
within 1108
mis@@ 1106
parfois 1106
sal@@ 1106
16@@ 1104
community 1104
often 1100
pres@@ 1100
euse 1099
jeu 1099
already 1098
cal@@ 1098
cre@@ 1098
époque 1098
history 1096
nothing 1096
futur 1093
test 1092
id@@ 1091
tur@@ 1091
pu 1090
rel@@ 1089
d-@@ 1088
single 1087
sion 1086
remember 1085
â@@ 1085
looked 1084
someone 1084
heures 1082
doit 1080
structure 1080
technologies 1080
saying 1079
gets 1078
rs 1078
ideas 1076
planète 1075
enne 1074
house 1074
ist@@ 1074
parle 1074
words 1072
ème 1070
ast@@ 1069
web 1069
ws 1068
agit 1067
lat@@ 1066
partir 1064
certaines 1063
keep 1063
voulons 1061
ev@@ 1060
mère 1060
cri@@ 1058
famille 1057
child 1056
solution 1056
différents 1055
ry 1055
looks 1054
mil@@ 1051
sol@@ 1050
ï@@ 1049
partout 1047
cal 1046
12 1045
true 1044
bas 1043
der@@ 1043
cont@@ 1042
fil@@ 1042
pensez 1041
blo@@ 1040
dernière 1039
lis@@ 1038
père 1038
ay@@ 1037
order 1037
yes 1037
yeux 1037
everybody 1036
complètement 1035
ed@@ 1035
quer 1032
ess@@ 1031
recherche 1031
answer 1030
he@@ 1030
combien 1029
wrong 1029
sho@@ 1028
alis@@ 1026
myself 1026
disent 1025
off@@ 1025
billion 1024
hom@@ 1023
research 1023
sometimes 1023
bring 1022
dev@@ 1022
ellement 1022
produit 1022
animal 1021
livre 1021
united 1019
ég@@ 1019
montre 1018
hope 1017
word 1017
appris 1015
ienne 1015
lin@@ 1015
compte 1014
super@@ 1014
eu@@ 1012
instead 1012
fo@@ 1011
group 1010
ah 1007
met 1007
arrive 1006
cellules 1004
ings 1004
pensé 1004
cho@@ 1002
matter 1002
près 1002
stop 1001
communauté 1000
guy 1000
front 999
iste 998
début 997
intérieur 997
built 996
sau@@ 996
cro@@ 995
the@@ 995
vue 995
months 994
night 994
read 994
sti@@ 994
tons 994
over@@ 993
sé@@ 993
continu@@ 992
control 992
ges 992
collec@@ 991
ainsi 990
mort 990
robot 989
since 989
ters 988
beautiful 987
80 985
amazing 985
niveau 984
until 984
ction 983
war@@ 983
heard 982
mondiale 982
my@@ 981
works 981
cells 980
job 980
mer@@ 980
histoires 979
nor@@ 979
fe@@ 978
national 978
capacité 977
demandé 977
head 977
animaux 976
modèle 976
music 976
nourriture 976
dou@@ 975
grandes 973
woman 970
turn 967
ceci 966
couple 964
government 964
bor@@ 963
teur 963
tre 963
piece 962
— 961
impact 959
places 959
vis@@ 959
plan 958
species 958
stories 958
ture 957
éri@@ 957
wasn 956
état 956
fab@@ 955
situation 954
ues 954
voiture 954
cer@@ 952
isn 952
phone 952
politique 951
48@@ 950
den@@ 950
tellement 949
ay 948
innovation 948
bon@@ 947
europe 947
pouvait 946
endroits 945
ordinateur 945
voulais 944
pour@@ 942
under 941
0s 940
rendre 940
reste 940
psycho@@ 939
camp 938
base 937
ics 936
site 936
video 934
jou@@ 930
pal@@ 930
language 929
univers 929
violence 929
lequel 927
education 926
patient 926
prim@@ 926
amis 925
ateurs 925
clo@@ 925
enti@@ 925
lar@@ 925
vivre 925
ites 924
model 924
types 924
dy 923
ner@@ 922
sent 922
dieu 920
environnement 920
informations 920
mots 920
petits 920
marche 918
ette 917
musique 917
ob@@ 917
grands 916
sive 916
turns 916
cur@@ 915
don@@ 915
taking 914
étudiants 914
ets 913
ked 912
her@@ 911
sent@@ 911
ard 910
ités 910
tour@@ 910
découvert 909
society 909
gs 907
abord 906
carolina 906
donne 906
heureux 906
développement 905
message 905
share 905
aide 902
flo@@ 902
ba@@ 901
local 901
25 899
friends 897
commence 896
completely 896
exactly 896
né 896
villes 896
,000 895
met@@ 895
ren@@ 895
study 895
éducation 893
peur 892
somebody 891
yeah 890
exactement 889
ff@@ 888
meilleur 888
rez 888
fai@@ 887
qué 887
universe 887
against 885
became 885
finalement 885
iss@@ 885
level 885
ourselves 885
position 885
students 885
mat@@ 884
points 884
run 883
sor@@ 883
voilà 883
america 881
na@@ 881
rap@@ 881
decided 880
sec@@ 880
voy@@ 880
énorme 880
ille 879
learned 879
intéressant 878
though 878
dernières 877
dic@@ 877
rée 876
rés 876
chi@@ 875
heart 875
ra 874
google 873
hear 871
takes 871
allé 870
ché 869
animals 868
knew 868
ressemble 868
décidé 865
era 865
everyone 865
prenez 864
tête 864
sécurité 863
company 862
gro@@ 861
15@@ 860
middle 860
bal@@ 859
itself 857
esti@@ 856
mot 856
érer 856
son@@ 855
aimerais 854
entr@@ 854
happy 854
milliers 854
happening 853
appro@@ 852
612126 851
montero 851
key 850
name 850
tra@@ 850
conférence 849
ful 849
rather 849
american 848
created 846
semble 845
ess 844
fais 844
aime 842
themselves 842
constru@@ 840
entendu 840
1@@ 839
ha 839
news 839
systems 839
70 838
veut 838
bul@@ 837
ré 837
devenir 836
must 836
god 834
18@@ 833
dois 831
comp@@ 830
val@@ 830
cli@@ 829
photos 829
rend@@ 828
syn@@ 828
donn@@ 827
dis 826
non-@@ 826
vidéo 826
fr@@ 825
entreprises 824
gouvernement 823
kinds 823
plusieurs 823
ber 822
figure 822
mother 822
st 822
rapidement 821
rou@@ 821
aucun 820
capable 820
systèmes 820
él@@ 819
huge 818
ties 818
devenu 817
india 817
source 817
ve@@ 817
others 816
code 815
environment 815
hours 815
anti@@ 814
ger@@ 813
nom 813
worked 813
amour 812
century 811
entreprise 811
ck@@ 810
disease 809
dû 809
explo@@ 809
fish 809
cool 808
humaine 808
ire 808
robots 808
11 807
wi@@ 807
aurait 806
entes 806
jouer 806
plan@@ 806
équipe 806
fille 805
loin 805
siècle 805
os@@ 804
thousands 804
cher@@ 803
couldn 803
tionn@@ 803
tres 802
pul@@ 800
pourrions 799
mètres 798
natural 798
early 797
ig@@ 797
iques 797
ty@@ 797
500 796
along 794
cities 794
game 794
centre 793
perhaps 793
termes 793
inde 792
turned 791
mp@@ 790
pass@@ 790
impli@@ 789
dent 788
taille 788
meilleure 787
shows 787
sound 787
écrit 787
bre@@ 786
facile 786
dro@@ 785
past 785
sortir 785
father 784
sujet 784
ea@@ 783
based 782
compassion 781
wh@@ 781
ad 780
sk@@ 779
ze 778
200 777
particular 777
third 777
veulent 777
voix 777
ach@@ 776
black 776
hor@@ 776
ier 776
ing@@ 776
effet 775
crois 774
publi@@ 774
échelle 774
changé 773
scientifiques 772
learning 771
aucune 770
prom@@ 768
199@@ 766
attend@@ 766
die 766
taken 766
zone 766
finally 765
lots 765
construit 764
lim@@ 764
physi@@ 763
won 763
entire 762
media 762
tes@@ 762
least 760
neuro@@ 760
fon@@ 759
free 758
économie 758
changed 757
pouvais 757
production 757
spec@@ 757
voyage 757
behind 756
continue 756
ori@@ 756
we@@ 756
market 755
trouve 755
village 755
wing 755
chris 754
compris 753
jeunes 752
moving 751
obtenir 751
powerful 751
entier 750
ke@@ 749
cent 748
pourraient 748
dernier 747
up@@ 746
arriver 745
inf@@ 745
af@@ 744
contr@@ 744
iter 744
tic@@ 744
tou@@ 744
0@@ 743
18 743
compar@@ 743
ature 742
china 742
ists 742
police 742
guys 741
deuxième 740
tif 740
cation 739
cell 739
créé 739
outside 739
comm@@ 738
pas@@ 737
gave 736
ments 736
ther@@ 736
bru@@ 734
choix 734
difference 734
mouvement 734
ce@@ 733
during 733
pensons 733
air@@ 732
att@@ 732
under@@ 732
virus 731
page 730
view 730
ends 729
prenons 729
ground 728
identi@@ 728
close 727
given 726
inqui@@ 726
pay@@ 726
scale 726
étions 726
s-@@ 725
unique 725
différence 724
milieu 724
morton 724
sil@@ 724
area 723
gue 723
mas@@ 723
venir 723
cen@@ 722
petites 722
âge 722
leave 721
pensent 721
conditions 720
gé@@ 720
salle 720
euses 719
center 718
hy@@ 718
rac@@ 718
chine 717
maladie 717
1108408 716
bast 716
ète 716
vent 715
tal@@ 713
utilisant 713
différent 712
walk 712
cy@@ 711
longtemps 710
viennent 710
david 709
pli@@ 709
tation 709
parts 708
team 708
université 708
tez 706
contrôle 705
extr@@ 705
fro@@ 702
gri@@ 702
uni@@ 702
amérique 701
companies 701
ain@@ 700
field 700
importante 699
ocean 699
inv@@ 698
réalité 698
sel@@ 698
ali@@ 696
prix 696
utilisé 696
self-@@ 695
gauche 692
viol@@ 692
clair 691
easy 691
economic 691
pourtant 691
seven 691
fa@@ 690
men@@ 690
90 689
devrait 689
tics 689
tures 689
yourself 689
size 688
vies 688
began 687
grand@@ 687
porte 687
rons 687
cœur 686
machines 686
normal 686
ted@@ 686
humans 685
impossible 684
ris@@ 684
sous-@@ 684
whatever 684
derrière 683
form@@ 683
là-bas 683
minute 683
needed 683
produire 683
green 681
physique 680
qui@@ 680
eyes 679
issent 679
version 679
éré 679
év@@ 679
ang@@ 678
istes 678
laissez-moi 678
seeing 678
26@@ 677
2@@ 677
excit@@ 677
street 677
faut 676
ni 676
architecture 675
friend 675
ving 675
assis 674
audience 674
esse 674
prin@@ 674
simply 674
sud 674
contribu@@ 673
dat@@ 673
grâce 673
poser 673
ship 673
cost 672
dessus 672
elec@@ 672
ell@@ 672
actions 671
parlé 671
produits 671
sha@@ 671
devient 670
full 670
positive 670
terms 670
difficult 669
stage 668
white 668
low 667
rer 667
bat@@ 666
devant 666
rai@@ 666
sen@@ 666
viv@@ 666
croissance 665
dra@@ 665
ency 665
etc 665
needs 665
bel@@ 664
mine 664
soleil 664
common 663
iser 663
particulier 663
beginning 662
john 662
reality 662
acy 661
nouveaux 661
solutions 661
active 660
death 660
realized 660
maladies 659
part@@ 659
pourriez 659
16 658
app@@ 658
ey 658
known 658
avère 657
doivent 657
poor 657
70@@ 656
conversation 656
hold 656
imagin@@ 656
regarde 656
ais@@ 655
grow 655
ss@@ 655
demander 654
ism 654
ended 653
rem@@ 653
mains 652
ana 651
demande 650
rom@@ 650
week 650
wonderful 650
mit 649
paper 649
alité 648
hands 648
tre@@ 648
z-vous 648
services 647
uns 647
étude 647
ator 646
partager 646
vari@@ 646
lib@@ 645
oil 645
south 645
ane 644
parties 644
puisse 644
service 644
felt 643
prise 643
ente 642
ming 642
cat@@ 641
centaines 641
devrions 641
programme 641
ili@@ 640
livres 640
chacun 639
est@@ 638
mêmes 638
spend 638
aw@@ 637
ill 637
mars 637
changes 635
imaginer 635
pil@@ 634
political 634
tel 634
amount 633
cannot 633
cs 633
visu@@ 633
arrière 632
growth 632
sol 632
climate 631
direction 631
impression 631
propres 630
ind@@ 629
longer 629
mauvais 629
modèles 628
moitié 628
arrivé 627
log@@ 627
micro@@ 627
prison 627
réseau 627
ann@@ 626
intelligence 626
sortes 625
atta@@ 624
imaginez 624
ously 624
quickly 624
,@@ 623
bâtiment 623
dit@@ 623
deal 622
diri@@ 622
nuit 622
écr@@ 622
blue 621
lab 621
ning 621
born 620
carte 619
dem@@ 619
journée 618
nord 618
ories 618
ong 617
west 617
différente 616
adap@@ 615
gone 615
inst@@ 615
jeune 615
lost 615
semaines 615
ami 614
bons 614
bs 614
ear@@ 614
semaine 614
books 613
den 613
ection 613
opportunity 613
tru@@ 613
propos 612
relation 612
réalis@@ 612
spent 612
lou@@ 611
ons-nous 611
sin@@ 611
traver@@ 611
ê@@ 611
croy@@ 610
mou@@ 610
droite 609
thé@@ 609
tried 609
scientists 608
fonctionne 607
institutions 607
14 606
17@@ 606
anc@@ 606
growing 606
interested 606
fri@@ 605
pur@@ 605
da 604
eg@@ 604
pri@@ 604
seconde 604
od@@ 603
tional 603
incredible 602
nes 602
scientifique 602
tement 602
leaders 601
classe 600
step 600
concept 599
eight 598
ice 598
weeks 598
complex 597
gre@@ 597
knowledge 597
ail 596
buy 596
comman@@ 596
permet 596
rest 596
suite 596
frapp@@ 594
law 594
personn@@ 594
uses 594
challenge 592
puis@@ 592
ther 592
fini 591
san@@ 591
write 591
ish 590
sitting 590
comportement 589
economy 589
hun@@ 589
mesure 588
sea 588
zed 588
ste 587
outils 586
vite 586
wouldn 586
a-@@ 585
behavior 585
construction 585
either 585
essayé 585
pay 585
vers@@ 585
mission 584
résoudre 584
value 584
bes 583
cale 583
montré 583
regardé 583
gag@@ 582
pièce 582
re-@@ 582
filles 581
rec@@ 581
san 581
chemin 580
économique 580
pouvaient 579
tap@@ 579
tle 579
eal 578
forward 578
map 578
program 578
telling 578
dna 577
forces 577
mag@@ 577
arr@@ 576
inten@@ 576
areas 575
giving 575
hand@@ 574
lire 574
pic@@ 574
radi@@ 574
ettes 573
hon@@ 573
justice 573
sé 573
ved 573
essay@@ 572
lie 572
autor@@ 571
cut 571
prof@@ 571
board 570
girl 570
valeur 570
troisième 569
voice 569
ath@@ 568
clear 568
combin@@ 568
ders 568
formes 568
late 568
medi@@ 568
star@@ 566
watch 566
ying 566
aise 565
océan 565
ot 565
raisons 565
résultats 564
siez 564
tives 564
understanding 564
certaine 563
physical 563
tw@@ 563
vivent 563
coun@@ 562
feeling 562
hundreds 562
iez 562
personal 562
premiers 562
scène 562
sig@@ 562
feet 561
médicaments 561
soient 561
ste@@ 561
adn 560
pat@@ 560
support 560
tan@@ 560
terri@@ 559
aut@@ 557
hum@@ 557
réfléch@@ 557
ton@@ 557
arti@@ 556
atteindre 556
cin@@ 556
del@@ 556
façons 556
lif@@ 556
mental 556
ster 556
téléphone 556
10@@ 555
access 554
calcul@@ 554
cel@@ 554
miles 554
movement 554
speak 554
surtout 554
utilise 553
blood 552
fs 552
international 552
kin@@ 552
mem@@ 552
y-@@ 552
13 551
ati@@ 551
perspective 551
utilisent 551
zones 551
ched 550
eri@@ 550
espère 550
parti@@ 550
entend@@ 549
terrain 549
américains 548
brought 548
ences 548
ently 548
o-@@ 548
venu 548
eng@@ 547
fied 547
tiny 547
voitures 547
wall 547
écrire 546
alone 545
average 545
bro@@ 545
cle 545
espèces 545
réel 545
communication 544
fier 544
ign@@ 544
intéress@@ 544
laisser 544
pain 544
v 544
developed 543
ley 543
numbers 542
realize 542
ical 541
suivre 541
ager 540
illes 540
langage 540
matin 539
affec@@ 538
int 538
tor 538
vou@@ 538
ade 537
anyone 537
capables 537
cars 537
ement@@ 537
fully 537
gives 537
nation 537
bureau 536
défi 536
gran@@ 536
ile 536
jeux 536
morning 536
network 536
produc@@ 536
tis@@ 536
yer 536
dly 535
eat 535
ham@@ 535
ordinateurs 535
ressources 535
risk 535
super 535
appelée 534
porter 534
tendance 534
wor@@ 534
éch@@ 534
changing 533
seems 533
concentr@@ 532
domin@@ 532
gener@@ 532
gènes 532
climatique 531
development 531
papier 531
réalisé 531
droit 530
rent 530
u.s. 530
chan@@ 529
groupes 529
individual 529
literally 529
starting 529
ths 529
tools 529
celui-ci 528
fast 528
fly 528
lég@@ 528
ong@@ 528
posé 528
utilis@@ 528
visage 528
lesquelles 527
oper@@ 527
élev@@ 527
erait 526
kid 526
sch@@ 526
engag@@ 525
gars 525
ically 525
médi@@ 525
rue 525
soci@@ 525
dar@@ 524
nice 524
sexu@@ 524
tab@@ 524
box 523
deep 523
dri@@ 523
espoir 523
fol@@ 523
ory 523
sun 523
performance 522
rend 522
absolutely 521
che@@ 521
enc@@ 521
online 521
bed 520
vert 520
wrote 520
zo@@ 520
confiance 519
connu 519
tirer 519
az@@ 518
habitu@@ 518
ls 518
mét@@ 518
short 518
theory 518
ô@@ 518
ambi@@ 517
sept 517
300 516
distance 516
medical 516
moral 516
final 515
girls 515
incroyablement 515
quantité 515
running 515
sam@@ 515
creating 514
generation 514
théorie 514
til@@ 514
travaille 514
ality 513
ans@@ 513
arrê@@ 513
ession 513
expériences 513
pé@@ 513
tend 513
likely 512
nations 512
relations 512
result 512
ciens 511
importance 511
sex 511
dd@@ 510
est-il 510
ki@@ 510
lea@@ 510
north 510
pauvres 510
save 510
solve 510
travaillé 510
0,000 509
allow 509
fort 509
issue 509
produce 509
soon 509
afghanistan 508
atives 508
brill@@ 508
graphique 508
reli@@ 508
sav@@ 508
aff@@ 507
arg@@ 507
certainement 507
industrie 507
isme 507
lé@@ 507
ram@@ 507
retour@@ 507
sait 507
vois 507
198@@ 506
iz@@ 506
sociaux 506
aid 505
designed 505
produ@@ 505
religion 505
récemment 505
24 504
cally 504
human@@ 504
issues 504
loc@@ 504
port@@ 504
equ@@ 503
savent 503
souff@@ 503
vie@@ 503
baby 502
forms 502
material 502
recently 502
tho@@ 502
extrêmement 501
laboratoire 501
playing 501
sauv@@ 501
university 501
fear 500
moments 500
radio 500
sum@@ 500
trouv@@ 500
conscience 499
histor@@ 499
kes 499
utilisons 499
abor@@ 498
domaine 498
dur@@ 498
ping 498
plac@@ 498
reven@@ 498
swe@@ 498
aura 497
faite 497
fils 497
ly@@ 497
quent 497
route 497
bottom 496
crimin@@ 496
ins@@ 496
discovered 495
inclu@@ 495
tem@@ 495
adop@@ 494
moved 494
fre@@ 493
je@@ 493
win@@ 493
adi@@ 492
court 492
pap@@ 492
photo@@ 492
rapide 492
terme 492
vir@@ 492
vitesse 492
14@@ 491
dark 491
fication 491
ha@@ 491
médias 491
rait 491
developing 490
iv@@ 490
bonnes 489
facebook 489
évolution 489
collabor@@ 488
fun 488
secret 488
bill 487
mc@@ 487
rate 487
stu@@ 487
taux 487
eli@@ 486
hol@@ 486
tour 486
asking 485
cit@@ 485
musi@@ 485
pin@@ 485
tically 485
deli@@ 484
far@@ 484
rouge 484
former 483
our@@ 483
rus@@ 483
allait 482
arrêter 482
celui 482
meilleurs 482
modern 482
nobody 482
pol@@ 482
analy@@ 481
entrer 481
fabri@@ 481
pose 481
succès 481
dan 480
industry 480
plant 480
beyond 479
dé 479
expli@@ 479
gén@@ 479
cependant 478
product 478
program@@ 478
relationship 478
wer 478
17 477
computers 477
died 477
général 477
nent 477
né@@ 477
parl@@ 477
ront 477
traiter 477
voulait 477
digital 476
génération 476
she@@ 476
squ@@ 476
amener 475
break 475
dom@@ 475
focus 475
littéralement 475
logique 475
rement 475
avez-vous 474
considé@@ 474
di 474
lever 474
meet 474
mé 474
née 474
pped 474
autant 473
major 473
optimis@@ 473
oubli@@ 473
q@@ 473
raconter 473
règles 473
showed 473
traitement 473
charge 472
especially 472
morceau 472
pren@@ 472
12@@ 471
aren 471
capital 471
english 471
groups 471
mari@@ 471
pho@@ 471
terrible 471
tion@@ 471
virtu@@ 471
accès 470
résultat 470
wn 470
crise 469
pensée 469
arriv@@ 468
bran@@ 468
ennes 468
nombreuses 468
pouvons-nous 468
én@@ 468
génial 467
resources 467
sing 467
talked 467
central 466
flu@@ 466
mauvaise 466
seem 466
stand 466
voie 466
continuer 465
gol@@ 465
trai@@ 465
coût 464
ingly 464
obs@@ 464
reasons 464
oun@@ 463
prot@@ 463
tenir 463
tt@@ 463
class 462
connected 462
eye 462
perdu 462
sites 462
ta 462
tée 462
étant 462
ant@@ 461
available 461
boy 461
ented 461
occu@@ 461
pes 461
prochaine 461
vic@@ 461
droits 460
lui-même 460
obviously 460
oc@@ 460
ol 460
accep@@ 459
drive 459
lived 459
several 459
tomb@@ 459
color 458
fun@@ 458
objets 458
passion 458
rights 458
begin 457
ear 457
incredibly 457
lev@@ 457
qués 457
security 457
special 457
suppose 457
a-t-il 456
coup 456
perfect 456
ports 456
worth 456
dehors 455
hour 455
lam@@ 455
lines 455
sociétés 455
tar@@ 455
trac@@ 455
absolument 454
ational 454
mobile 454
rester 454
réfléchir 454
sem@@ 454
acheter 453
ars 453
ef 453
esp@@ 453
gie 453
journey 453
mechan@@ 453
regardons 453
savais 453
structures 453
cha@@ 452
chem@@ 452
commencent 452
rées 452
wal@@ 452
writing 452
abilité 451
arch@@ 451
dead 451
drugs 451
haven 451
id 451
loi 451
sli@@ 451
strong 451
encour@@ 450
fix@@ 450
monter 450
risque 450
sun@@ 450
au-delà 449
essed 449
exp@@ 449
experiment 449
gam@@ 449
guess 449
hi 449
onto 449
organis@@ 449
organisation 449
quelles 449
travaill@@ 449
z-@@ 449
bigger 448
disons 448
humanité 448
land@@ 448
mondial 448
reading 448
sentiment 448
aine 447
approach 447
caus@@ 447
chercher 447
med 447
office 447
parlons 447
plants 447
scientific 447
tells 447
vérité 447
affaires 446
ben@@ 446
knows 446
ns 446
qualité 446
choice 445
pictures 445
représent@@ 445
soins 445
ail@@ 444
ash@@ 444
gal@@ 444
lé 444
marcher 444
onne 444
projets 444
putting 444
pétrole 444
sym@@ 444
truth 444
êtres 444
article 443
bras 443
carto@@ 443
espèce 443
high-@@ 443
moyenne 443
prend 443
professeur 443
send 443
approche 442
expliquer 442
faits 442
imagination 442
pers@@ 442
pire 442
ple 442
plu@@ 442
souris 442
univers@@ 442
vraie 442
3d 441
belle 441
celle-ci 441
développer 441
evidence 441
general 441
acc@@ 440
creative 440
distin@@ 440
exam@@ 440
ged 440
matériaux 440
sie 440
disait 439
déf@@ 439
faisant 439
fer 439
jobs 439
pouvions 439
teach 439
basic 438
quality 438
wish 438
explain 437
huit 437
essentiellement 436
financi@@ 436
les@@ 436
provi@@ 436
record 436
anybody 435
back@@ 435
det@@ 435
ina 435
isol@@ 435
pon@@ 435
towards 435
vend@@ 435
dites 434
east 434
individu@@ 434
solar 434
stay 434
gé 433
los 433
lose 433
rules 433
similar 433
attr@@ 432
drug 432
explor@@ 432
fall 432
involved 432
multi@@ 432
pit@@ 432
selon 432
sounds 432
suivante 432
avi@@ 431
effect 431
ery 431
massive 431
rencontré 431
schools 431
tôt 431
américain 430
associ@@ 430
becomes 430
ching 430
dance 430
fil 430
iner 430
nic@@ 430
révolution 430
shape 430
allés 429
listen 429
deviennent 428
emer@@ 428
verse 428
étrang@@ 428
cherch@@ 427
fascin@@ 427
sac@@ 427
soli@@ 427
économ@@ 427
élec@@ 427
park 426
rendu 426
revolution 426
reçu 426
cycle 425
logi@@ 425
ot@@ 425
xi@@ 425
commençons 424
cru@@ 424
développ@@ 424
initi@@ 424
recherches 424
road 424
ands 423
ases 423
chinese 423
cks 423
evolution 423
politiques 423
u.@@ 423
ach 422
bomb@@ 422
es-@@ 422
forest 422
gies 422
potential 422
sit 422
bus 421
duc@@ 421
entendre 421
han 421
hit 421
ky 421
tas 421
étonn@@ 421
alli@@ 420
appelons 420
hal@@ 420
reç@@ 420
transformer 420
étudier 420
coll@@ 419
device 419
ects 419
noir 419
études 419
consci@@ 418
pick 418
race 418
carbone 417
chap@@ 417
din@@ 417
dollar 417
eventually 417
hydro@@ 417
ka 417
ples 417
aim@@ 416
conduit 416
fonctionn@@ 416
ow@@ 416
success 416
vieux 416
walking 416
wo@@ 416
accident 415
college 415
erie 415
lt 415
migr@@ 415
peine 415
reach 415
rich 415
ring 415
tal 415
ç@@ 415
dy@@ 414
itaire 414
brea@@ 413
communities 413
diver@@ 413
software 413
yp@@ 413
197@@ 412
ave 412
changements 412
demand@@ 412
ered 412
essayons 412
isé 412
ned 412
pens@@ 412
portable 412
projects 412
sauver 412
thu@@ 412
twitter 412
éco@@ 412
alement 411
bre 411
certainly 411
lab@@ 411
logy 411
lun@@ 411
non@@ 411
particulièrement 411
stress 411
tin@@ 411
wat@@ 411
laiss@@ 410
largest 410
leadership 410
month 410
present 410
23@@ 409
door 409
infec@@ 409
list 409
préf@@ 409
ster@@ 409
viens 409
communautés 408
contrô@@ 408
neu@@ 408
particularly 408
pensais 408
ss 408
starts 408
série 408
cultures 407
entre@@ 407
frag@@ 407
measure 407
parmi 407
sw@@ 407
biggest 406
clu@@ 406
disant 406
distribu@@ 406
due 406
paix 406
écoles 406
1,@@ 405
among 405
anglais 405
avion 405
chois@@ 405
ciel 405
cles 405
contact 405
embr@@ 405
exemples 405
fli@@ 405
issons 405
pping 405
tun@@ 405
ack 404
ators 404
carbon 404
chiffres 404
examples 404
forc@@ 404
organization 404
période 404
complexe 403
couleur 403
dream 403
films 403
happiness 403
invent@@ 403
sl@@ 403
vécu 403
conduc@@ 402
poverty 402
results 402
assu@@ 401
découvrir 401
gg@@ 401
gouvern@@ 401
gène 401
infrastructure 401
proto@@ 401
som@@ 401
va@@ 401
éti@@ 401
arri@@ 400
auparavant 400
cales 400
conception 400
dispar@@ 400
fem@@ 400
hundred 400
lon@@ 400
progr@@ 400
reti@@ 400
richard 400
répondre 400
star 400
stri@@ 400
vement 400
agri@@ 399
atif 399
hop@@ 399
indeed 399
indre 399
seront 399
spo@@ 399
standard 399
effort 398
gas 398
ides 398
mass 398
permettre 398
please 398
remarqu@@ 398
sensi@@ 398
atten@@ 397
date 397
expression 397
foot 397
ide 397
ion 397
nine 397
row 397
teachers 397
vacc@@ 397
éro@@ 397
dre@@ 396
econom@@ 396
ected 396
materials 396
mondi@@ 396
mur 396
paul 396
peau 396
town 396
ajou@@ 395
appli@@ 395
camera 395
dia@@ 395
faisait 395
heure 395
langue 395
région 395
suiv@@ 395
écran 395
bonheur 394
celle 394
develop 394
four@@ 394
mul@@ 394
pauvreté 394
arm@@ 393
everywhere 393
including 393
km 393
liberté 393
opportunité 393
period 393
tourner 393
tra 393
hab@@ 392
longue 392
objet 392
peace 392
ridi@@ 392
robo@@ 392
èrent 392
émer@@ 392
400 391
aci@@ 391
cien 391
colon@@ 391
extremely 391
games 391
individuals 391
medicine 391
nov@@ 390
safe 390
traditionn@@ 390
œu@@ 390
asse@@ 389
bres 389
dimensions 389
emb@@ 389
exciting 389
plo@@ 389
port 389
agriculture 388
ationn@@ 388
audi@@ 388
cass@@ 388
notice 388
offi@@ 388
plantes 388
proche 388
ready 388
response 388
scar@@ 388
student 388
travaillent 388
causes 387
democracy 387
ize 387
lower 387
mel@@ 387
suddenly 387
tend@@ 387
vivant 387
équ@@ 387
apprentissage 386
crisis 386
enseignants 386
higher 386
lead 386
merveilleux 386
sentir 386
showing 386
tex@@ 386
ure 386
add 385
cellule 385
crime 385
intelligent 385
pages 385
posed 385
pt 385
totally 385
connaiss@@ 384
crée 384
esses 384
gagner 384
occup@@ 384
pla@@ 384
revenus 384
speed 384
wants 384
arts 383
conse@@ 383
essentially 383
fight 383
fourn@@ 383
glace 383
logie 383
masse 383
note 383
réussi 383
sky 383
tors 383
tree 383
trust 383
ys 383
éloign@@ 383
al-@@ 382
bébé 382
endre 382
ght@@ 382
standing 382
watching 382
22 381
capit@@ 381
démocratie 381
entraî@@ 381
hel@@ 381
sorti 381
ti 381
wind 381
arbres 380
cultural 380
designers 380
favorite 380
fire 380
nom@@ 380
ok@@ 380
parti 380
priv@@ 380
revenir 380
square 380
tél@@ 380
wed 380
gaz 379
goal 379
screen 379
sociale 379
voler 379
bin@@ 378
biolog@@ 378
efficace 378
forêt 378
graphie 378
issez 378
models 378
named 378
réduire 378
song 378
wait 378
appareil 377
au-dessus 377
concevoir 377
doctor 377
hors 377
ized 377
activ@@ 376
activité 376
agé 376
alisation 376
alized 376
amélior@@ 376
améliorer 376
buildings 376
cations 376
minds 376
ours 376
symbo@@ 376
t-il 376
trees 376
activity 375
crazy 375
extraordinary 375
inspir@@ 375
le-@@ 375
mang@@ 375
object 375
raient 375
rassembl@@ 375
tric@@ 375
agent 374
grandi 374
kers 374
lar 374
objects 374
ouv@@ 374
pression 374
role 374
smo@@ 374
totalement 374
45 373
assembl@@ 373
boîte 373
distribution 373
dre 373
isent 373
liste 373
manger 373
pun@@ 373
ser 373
solaire 373
anyway 372
développé 372
ean 372
enseign@@ 372
informatique 372
interaction 372
teacher 372
washington 372
wr@@ 372
allowed 371
lent 371
médecine 371
notion 371
ades 370
enter@@ 370
ever@@ 370
finding 370
hospital 370
influence 370
james 370
kilomètres 370
ress@@ 370
suit 370
cartes 369
direc@@ 369
invisible 369
truly 369
cket 368
constitu@@ 368
divis@@ 368
pousser 368
réseaux 368
sembl@@ 368
visual 368
défin@@ 367
hey 367
interest 367
meaning 367
pratique 367
vivons 367
écou@@ 367
évidemment 367
allu@@ 366
auto-@@ 366
condu@@ 366
conf@@ 366
ful@@ 366
gence 366
ial 366
milli@@ 366
ney 366
pouss@@ 366
ressent@@ 366
rôle 366
shu@@ 366
sleep 366
truc 366
tter 366
étoiles 366
envoyer 365
grew 365
mont@@ 365
nam@@ 365
taught 365
top@@ 365
bout 364
brains 364
devraient 364
essi@@ 364
ish@@ 364
magazine 364
spécifi@@ 364
studies 364
talks 364
aging 363
cases 363
choose 363
experts 363
familles 363
gent 363
gor@@ 363
haute 363
predic@@ 363
range 363
techniques 363
afin 362
automati@@ 362
continent 362
descend@@ 362
directement 362
employ@@ 362
memory 362
mod@@ 362
publique 362
racon@@ 362
signifi@@ 362
simples 362
sépar@@ 362
temp@@ 362
age@@ 361
américaine 361
dan@@ 361
diff@@ 361
families 361
jam@@ 361
michael 361
phones 361
protect 361
rapport 361
rés@@ 361
serious 361
skin 361
tas@@ 361
total 361
atifs 360
beau 360
ka@@ 360
surprise 360
bodies 359
fine 359
george 359
leg@@ 359
ref@@ 359
smart 359
trou@@ 359
workers 359
36 358
deven@@ 358
further 358
grav@@ 358
mass@@ 358
ore@@ 358
signal 358
spread 358
tool 358
zero 358
étape 358
35 357
argument 357
dge 357
ect 357
mark 357
sauf 357
shot 357
stars 357
algorith@@ 356
bil@@ 356
en-@@ 356
tations 356
trom@@ 356
whe@@ 356
ador@@ 355
allows 355
construc@@ 355
premières 355
sc@@ 355
usually 355
wil@@ 355
cité 354
de-@@ 354
eaux 354
introdu@@ 354
malheureusement 354
ome 354
products 354
tv 354
avenir 353
clairement 353
croire 353
nombreux 353
partage 353
ries 353
shown 353
worse 353
ash 352
atte@@ 352
difficiles 352
existence 352
fond 352
meant 352
mode 352
nant 352
somewhere 352
chau@@ 351
follow 351
galaxies 351
ily 351
importantes 351
killed 351
set@@ 351
trick 351
ace 350
dents 350
grandis@@ 350
imp@@ 350
ken@@ 350
main@@ 350
extérieur 349
liber@@ 349
tiers 349
traditional 349
transform@@ 349
ba 348
content 348
contexte 348
dur 348
expect 348
hér@@ 348
intervie@@ 348
mourir 348
médecins 348
passent 348
series 348
sons 348
utilisation 348
wife 348
zz@@ 348
appropri@@ 347
cian 347
geo@@ 347
idé@@ 347
net 347
prépar@@ 347
puissant 347
see@@ 347
stor@@ 347
compos@@ 346
concer@@ 346
corruption 346
fondament@@ 346
jan@@ 346
nuclear 346
protéger 346
sciences 346
abandonn@@ 345
armes 345
bour@@ 345
bunch 345
conserv@@ 345
essaie 345
faster 345
hau@@ 345
new@@ 345
ods 345
quel@@ 345
tox@@ 345
amp 344
bab@@ 344
chanson 344
chinois 344
complicated 344
ell 344
hypo@@ 344
math 344
movie 344
médecin 344
quée 344
rup@@ 344
secondes 344
ten 344
tent@@ 344
ailleurs 343
chef 343
effective 343
em 343
irs 343
regardant 343
revenu 343
sorts 343
successful 343
1020352 342
anti-@@ 342
excited 342
freedom 342
income 342
payer 342
thu-huong 342
activis@@ 341
appeler 341
bord 341
cortex 341
current 341
doctors 341
enregistr@@ 341
fran@@ 341
humanity 341
mettez 341
prennent 341
sell 341
tech 341
visi@@ 341
cold 340
document@@ 340
durable 340
genes 340
illustr@@ 340
itation 340
lation 340
lement 340
lor@@ 340
milit@@ 340
military 340
pattern 340
pieces 340
pouvez-vous 340
biology 339
clin@@ 339
direct 339
enf@@ 339
engineering 339
healthy 339
lit 339
progress 339
ran@@ 339
satis@@ 339
sexe 339
supposed 339
asi@@ 338
aviez 338
commen@@ 338
graphic 338
hôpital 338
manu@@ 338
mom 338
ouvert 338
self 338
tom@@ 338
voulaient 338
wit@@ 338
x-@@ 338
application 337
career 337
connaissons 337
const@@ 337
feu 337
fic@@ 337
garder 337
gratu@@ 337
moderne 337
motiv@@ 337
échou@@ 337
above 336
aliser 336
ball 336
capitalis@@ 336
condition 336
consider 336
frustr@@ 336
gouvernements 336
however 336
individus 336
jac@@ 336
microbes 336
naturel 336
puissent 336
ran 336
rencontr@@ 336
retour 336
souven@@ 336
spéci@@ 336
2000 335
anderson 335
arm 335
brû@@ 335
chent 335
cir@@ 335
cis@@ 335
corpor@@ 335
dig@@ 335
exist 335
gene 335
larger 335
older 335
repres@@ 335
respect 335
search 335
ward 335
électricité 335
-je 334
ably 334
angle 334
caméra 334
conclu@@ 334
famous 334
fic 334
glob@@ 334
jet@@ 334
kill 334
matique 334
morts 334
utile 334
voient 334
afri@@ 333
bank 333
classi@@ 333
compétences 333
except 333
ited 333
notes 333
pourrais 333
regard@@ 333
rép@@ 333
training 333
appréci@@ 332
bâtiments 332
citoyens 332
connect 332
expensive 332
hot 332
increase 332
ko@@ 332
quar@@ 332
sité 332
bateau 331
danger 331
ep@@ 331
fundamental 331
mâ@@ 331
personnel 331
profondément 331
tests 331
thanks 331
waste 331
élevé 331
ately 330
biologie 330
lions 330
observ@@ 330
americans 329
context 329
dangerous 329
espér@@ 329
func@@ 329
isons 329
march@@ 329
om 329
one-@@ 329
soir 329
telle 329
clé 328
cé@@ 328
génér@@ 328
insi@@ 328
mid@@ 328
occident@@ 328
ri 328
treatment 328
anda 327
anim@@ 327
appel@@ 327
avanc@@ 327
by@@ 327
clearly 327
co2 327
collective 327
commerci@@ 327
devi@@ 327
ghts 327
print 327
prises 327
souviens 327
specific 327
tomber 327
écriv@@ 327
although 326
batt@@ 326
conver@@ 326
cover 326
eté 326
famili@@ 326
ght 326
green@@ 326
gues 326
ium 326
membres 326
press 326
professionn@@ 326
prêts 326
rise 326
rêve 326
sting 326
adore 325
african 325
bacteria 325
compli@@ 325
governments 325
myst@@ 325
outil 325
physics 325
technique 325
thousand 325
vag@@ 325
196@@ 324
acting 324
bizarre 324
coû@@ 324
dad 324
dor@@ 324
eless 324
eth@@ 324
kept 324
noire 324
numéro 324
private 324
riches 324
roo@@ 324
sex@@ 324
touch 324
upon 324
wards 324
written 324
150 323
alités 323
astronom@@ 323
dam@@ 323
dea@@ 323
décisions 323
ext@@ 323
fron@@ 323
poids 323
réponses 323
berg 322
electricity 322
fou@@ 322
hyper@@ 322
lorsque 322
museum 322
reux 322
slow 322
tifs 322
treat 322
armée 321
décision 321
financial 321
listening 321
neurones 321
nés 321
président 321
region 321
somehow 321
tax@@ 321
40@@ 320
ards 320
ast 320
autonom@@ 320
connaissance 320
driving 320
eux-mêmes 320
mes@@ 320
ption 320
sang 320
tension 320
trop@@ 320
aines 319
auth@@ 319
carrière 319
concentrer 319
ent-ils 319
intérêt 319
nég@@ 319
president 319
présent 319
reflec@@ 319
therefore 319
tum@@ 319
érieure 319
alive 318
apport@@ 318
conç@@ 318
conçu 318
decisions 318
down@@ 318
ey@@ 318
messages 318
potentiel 318
shor@@ 318
spi@@ 318
sû@@ 318
thro@@ 318
tim@@ 318
tol@@ 318
win 318
compl@@ 317
dedans 317
pièces 317
privil@@ 317
provide 317
quant 317
skills 317
bing 316
biom@@ 316
bébés 316
centi@@ 316
collègues 316
commun 316
ese 316
faux 316
innov@@ 316
itable 316
journalis@@ 316
lignes 316
nan@@ 316
permis 316
spon@@ 316
station 316
arrivent 315
choisir 315
compréhension 315
designer 315
dés 315
importants 315
iran 315
preuves 315
recognize 315
étudiant 315
actual 314
appel 314
atom@@ 314
becoming 314
citizens 314
original 314
patterns 314
seconds 314
acti@@ 313
explore 313
formed 313
lig@@ 313
lo 313
loved 313
sed 313
tivement 313
ah@@ 312
ained 312
anymore 312
ays 312
beauty 312
beauté 312
concep@@ 312
dir 312
impro@@ 312
interface 312
mée 312
regu@@ 312
scre@@ 312
throughout 312
well-@@ 312
énormes 312
beings 311
einstein 311
existe 311
laws 311
lets 311
mit@@ 311
mur@@ 311
nel 311
nécess@@ 311
opération 311
policy 311
tradu@@ 311
travel 311
tuer 311
weight 311
weren 311
western 311
co 310
conduire 310
contrôler 310
coup@@ 310
diseases 310
diversity 310
dépend@@ 310
eter 310
foun@@ 310
hear@@ 310
onal 310
provo@@ 310
présentation 310
prêt 310
rire 310
sev@@ 310
ak@@ 309
critical 309
habit@@ 309
organ@@ 309
parlent 309
perception 309
sebastian 309
waiting 309
wonder 309
zing 309
aves 308
boo@@ 308
chant 308
confron@@ 308
devais 308
explorer 308
i-@@ 308
imag@@ 308
integr@@ 308
kenya 308
politics 308
précé@@ 308
smaller 308
tées 308
wan@@ 308
élé@@ 308
évolu@@ 308
assurer 307
aveu@@ 307
discours 307
ere 307
faible 307
investiss@@ 307
organisations 307
poisson 307
réus@@ 307
store 307
ab 306
aiment 306
anywhere 306
diversité 306
han@@ 306
head@@ 306
lois 306
poissons 306
préci@@ 306
rar@@ 306
stimul@@ 306
tiv@@ 306
alle@@ 305
déplac@@ 305
greater 305
tail 305
to-@@ 305
two-@@ 305
user 305
van@@ 305
applications 304
depend@@ 304
invention 304
island 304
mus@@ 304
plastic 304
regar@@ 304
serv@@ 304
tical 304
2008 303
aiss@@ 303
aware 303
diminu@@ 303
ep 303
formation 303
montr@@ 303
neurons 303
puissance 303
style 303
teaching 303
00 302
apple 302
charles 302
connexion 302
cérébr@@ 302
ennu@@ 302
hiv 302
protection 302
sommet 302
suivi 302
sy@@ 302
wel@@ 302
étrange 302
celebr@@ 301
dessous 301
flow 301
pom@@ 301
présent@@ 301
reg@@ 301
rest@@ 301
tait 301
tradition 301
trouble 301
vidéos 301
0-@@ 300
ancy 300
babies 300
expériment@@ 300
ima@@ 300
install@@ 300
pleu@@ 300
price 300
sionn@@ 300
stre@@ 300
bit@@ 299
bleu 299
faisaient 299
gram@@ 299
ister 299
oiseaux 299
ote 299
river 299
scientist 299
section 299
tered 299
unfortunately 299
voit 299
75 298
cians 298
crati@@ 298
douleur 298
ek 298
fir@@ 298
imm@@ 298
isation 298
jer@@ 298
lated 298
net@@ 298
prochaines 298
sources 298
ssi@@ 298
trag@@ 298
trav@@ 298
création 297
dez 297
garçon 297
gay 297
inte 297
journal 297
lands 297
malgré 297
narr@@ 297
neuf 297
rédu@@ 297
sh 297
term 297
tom 297
atti@@ 296
commercial 296
correspon@@ 296
earlier 296
flux 296
goo@@ 296
gotten 296
greatest 296
géné@@ 296
horrible 296
inc@@ 296
loo@@ 296
lu 296
maisons 296
meilleures 296
mémoire 296
ray 296
recogni@@ 296
transport@@ 296
vide 296
wea@@ 296
accu@@ 295
amen@@ 295
clim@@ 295
costs 295
crow@@ 295
ering 295
intéressante 295
ith 295
quartier 295
remarkable 295
responsabilité 295
speaking 295
trade 295
aver@@ 294
challenges 294
chu@@ 294
conflict 294
finir 294
gle 294
himself 294
immediately 294
infin@@ 294
maths 294
origin@@ 294
posi@@ 294
sco@@ 294
strange 294
suivant 294
values 294
&apos;@@ 293
bits 293
decade 293
imprim@@ 293
manque 293
rempl@@ 293
robert 293
sugges@@ 293
supplément@@ 293
visible 293
éviter 293
chances 292
demi 292
dès 292
fantastic 292
function 292
meters 292
monte 292
mp 292
none 292
person@@ 292
progrès 292
pull 292
artiste 291
connaissez 291
emplois 291
kets 291
marchés 291
pressure 291
satellite 291
émotionn@@ 291
atures 290
engagement 290
fié 290
floor 290
forth 290
magic 290
nasa 290
nation@@ 290
pir@@ 290
practice 290
sign@@ 290
simpli@@ 290
sérieux 290
transformation 290
éli@@ 290
éte@@ 290
acqu@@ 289
bag@@ 289
ef@@ 289
hea@@ 289
matière 289
montrent 289
rare 289
steve 289
surviv@@ 289
tea@@ 289
valeurs 289
canada 288
chair 288
demonstr@@ 288
eff@@ 288
exc@@ 288
extraordinaire 288
fonctionnent 288
genetic 288
harvard 288
inventé 288
levels 288
moyens 288
numérique 288
plein 288
sens@@ 288
three-@@ 288
tit@@ 288
wers 288
arbre 287
bactéries 287
discussion 287
enter 287
faces 287
female 287
francisco 287
ingénierie 287
lies 287
mathématiques 287
remarqué 287
retourner 287
termin@@ 287
véri@@ 287
ads 286
after@@ 286
cer 286
clean 286
connection 286
créativité 286
côte 286
dos 286
familiar 286
fit 286
graphi@@ 286
iller 286
instant 286
leader 286
menti@@ 286
mic@@ 286
ous@@ 286
shared 286
stone 286
sustainable 286
walked 286
accompl@@ 285
chicago 285
complete 285
immédiatement 285
lesquels 285
pouviez 285
raise 285
ène 285
alternative 284
amus@@ 284
contenu 284
creativity 284
decades 284
effets 284
eusement 284
following 284
ick 284
lancé 284
meeting 284
party 284
peuple 284
sign 284
tiennent 284
track 284
viend@@ 284
99 283
ains 283
apporter 283
bois 283
decision 283
enfin 283
logue 283
m. 283
mountain 283
rejo@@ 283
sat 283
text 283
verrez 283
2010 282
artist 282
aurais 282
blu@@ 282
budget 282
descen@@ 282
domes@@ 282
défis 282
essing 282
fau@@ 282
nez 282
phrase 282
sul@@ 282
whose 282
ép@@ 282
21 281
cide 281
environmental 281
helped 281
horiz@@ 281
inspired 281
ires 281
oph@@ 281
riche 281
subject 281
transition 281
website 281
aliment@@ 280
arab@@ 280
ato@@ 280
clients 280
colleagues 280
critique 280
devait 280
dog 280
entrepreneurs 280
gés 280
ive 280
j 280
lin 280
moteur 280
ols 280
plastique 280
sein 280
trucs 280
écouter 280
éléments 280
abil@@ 279
coin 279
cyber@@ 279
différences 279
flying 279
forget 279
résol@@ 279
tly 279
80@@ 278
blanc 278
diam@@ 278
envers 278
funny 278
gagné 278
taient 278
unes 278
édu@@ 278
ak 277
ayons 277
disaient 277
donnent 277
fal@@ 277
financ@@ 277
hur@@ 277
nous-mêmes 277
planètes 277
positions 277
prob@@ 277
produisent 277
recent 277
riez 277
scr@@ 277
simul@@ 277
various 277
voulions 277
wood 277
édi@@ 277
amaz@@ 276
atmosphère 276
cule 276
devriez 276
diplô@@ 276
effects 276
feed 276
lancer 276
lit@@ 276
logist 276
mi 276
sn@@ 276
surr@@ 276
tivity 276
understood 276
venue 276
wee@@ 276
$ 275
attendre 275
broad@@ 275
complexes 275
ern@@ 275
fiction 275
glass 275
généralement 275
invented 275
ken 275
levé 275
male 275
near 275
politi@@ 275
représente 275
thy 275
tin 275
tran@@ 275
trice 275
ège 275
étiez 275
ahead 274
choices 274
civil 274
collection 274
dau@@ 274
decide 274
difficul@@ 274
dol@@ 274
draw 274
ele@@ 274
lanc@@ 274
legs 274
mate 274
modi@@ 274
océans 274
programs 274
quels 274
useful 274
vin 274
adultes 273
allais 273
architec@@ 273
augmentation 273
dio@@ 273
double 273
déplacer 273
entation 273
eront 273
grade 273
génétique 273
lors 273
organizations 273
plas@@ 273
principalement 273
ques@@ 273
recycl@@ 273
turning 273
240535 272
answers 272
mea@@ 272
situations 272
sters 272
studio 272
suc@@ 272
zéro 272
19 271
accél@@ 271
agree 271
aimons 271
auraient 271
campagne 271
conversations 271
déchets 271
instance 271
kar@@ 271
mac@@ 271
programmes 271
streets 271
tam@@ 271
travaillons 271
alimentaire 270
appear 270
ase 270
batter@@ 270
bly 270
clai@@ 270
collaboration 270
destro@@ 270
découverte 270
eful 270
london 270
matériau 270
opportunités 270
played 270
profit 270
traits 270
vit 270
you@@ 270
aît 269
boys 269
chée 269
email 269
honn@@ 269
ignor@@ 269
len@@ 269
limit@@ 269
mesurer 269
path 269
riv@@ 269
sing@@ 269
vit@@ 269
vote 269
acts 268
bar 268
connecter 268
décennies 268
géni@@ 268
lec@@ 268
ll 268
markets 268
mené 268
mostly 268
obvious 268
opér@@ 268
orches@@ 268
planets 268
quotidi@@ 268
ération 268
aspects 267
biological 267
commun@@ 267
devenus 267
enci@@ 267
expec@@ 267
fonctionner 267
high@@ 267
lau@@ 267
lights 267
mation 267
médicament 267
nat@@ 267
nur@@ 267
obtenez 267
pied 267
popular 267
seuls 267
trouvons 267
wealth 267
youtube 267
800 266
adv@@ 266
chemical 266
courir 266
dying 266
fournir 266
ishing 266
neur@@ 266
ounded 266
respec@@ 266
rir 266
rule 266
récom@@ 266
typi@@ 266
wa@@ 266
willing 266
cens@@ 265
cross@@ 265
célèbre 265
ending 265
engage 265
facilement 265
gérer 265
humaines 265
milliard 265
mouvements 265
related 265
shi@@ 265
stick 265
suff@@ 265
électrique 265
acu@@ 264
centr@@ 264
civi@@ 264
color@@ 264
commit@@ 264
dés@@ 264
ei@@ 264
enormous 264
hed 264
iers 264
instrument 264
mam@@ 264
mix@@ 264
networks 264
parten@@ 264
proc@@ 264
prosp@@ 264
seraient 264
sto@@ 264
survive 264
terror@@ 264
thr@@ 264
consommation 263
démocrati@@ 263
iles 263
logues 263
musée 263
on-@@ 263
paid 263
passionn@@ 263
relationships 263
slightly 263
température 263
urban 263
vas@@ 263
vin@@ 263
worst 263
-up 262
c. 262
cadre 262
conference 262
event 262
experiments 262
grad@@ 262
naissance 262
particules 262
perdre 262
pig@@ 262
possibly 262
préfé@@ 262
réaliser 262
below 261
ci 261
despite 261
exist@@ 261
lan@@ 261
liv@@ 261
logical 261
paris 261
réc@@ 261
agre@@ 260
broken 260
celles 260
efficient 260
mettons 260
ordin@@ 260
pass 260
peter 260
propor@@ 260
significant 260
silence 260
soutien 260
stade 260
trouvez 260
ust 260
bringing 259
dinosau@@ 259
discover 259
essayez 259
foundation 259
gen 259
gers 259
inspiration 259
law@@ 259
mobil@@ 259
profond 259
pén@@ 259
rain@@ 259
serve 259
&amp; 258
abeilles 258
agir 258
alization 258
birds 258
card 258
chimiques 258
daughter 258
eled 258
fuel 258
ny 258
nécessaire 258
plaît 258
ple@@ 258
pus@@ 258
rock 258
temperature 258
-year-old 257
21@@ 257
atmosphere 257
augmenter 257
drop 257
elle-même 257
envoyé 257
france 257
fy 257
hole 257
ide@@ 257
informa@@ 257
marine 257
nucléaire 257
ouver@@ 257
pain@@ 257
purpose 257
ray@@ 257
societies 257
sorry 257
thetic 257
-là 256
allo@@ 256
allée 256
analo@@ 256
apart 256
haw@@ 256
ib@@ 256
improve 256
kel@@ 256
knowing 256
libre 256
manif@@ 256
ops 256
pieds 256
post-@@ 256
pp@@ 256
sis 256
some@@ 256
38@@ 255
angeles 255
cier 255
communicate 255
destruction 255
dil@@ 255
ight 255
incroyables 255
influenc@@ 255
quali@@ 255
ral@@ 255
valley 255
ventions 255
échantill@@ 255
ass 254
atu@@ 254
bg 254
blement 254
boston 254
chris@@ 254
connaissent 254
correc@@ 254
fe 254
fou 254
ging 254
habitude 254
isés 254
logiciel 254
ordre 254
pollution 254
report 254
saf@@ 254
sharing 254
surprising 254
aspect 253
cate 253
core 253
culturel@@ 253
dant 253
directly 253
dr 253
eding 253
entièrement 253
fonction 253
fur@@ 253
industrial 253
match 253
mér@@ 253
published 253
rep@@ 253
restaurant 253
summer 253
yed 253
2007 252
600 252
alo@@ 252
ation@@ 252
chambre 252
chien 252
cuisine 252
custom@@ 252
darwin 252
emotional 252
hen@@ 252
moon 252
organiz@@ 252
puissions 252
rece@@ 252
rions-nous 252
répon@@ 252
slide 252
trial 252
union 252
absor@@ 251
antibio@@ 251
capacity 251
cents 251
chaud 251
dans@@ 251
dirais 251
fémin@@ 251
helping 251
lune 251
poli@@ 251
sugg@@ 251
sus 251
vih 251
wer@@ 251
émotions 251
états 251
évalu@@ 251
acte 250
bees 250
chang@@ 250
envoy@@ 250
exis@@ 250
isi@@ 250
option 250
principal 250
puissante 250
soyez 250
sses 250
tivité 250
ément 250
achiev@@ 249
amène 249
ancien 249
atic 249
battre 249
bert 249
chim@@ 249
chés 249
conclusion 249
degrees 249
effon@@ 249
fellow 249
identité 249
ills 249
insectes 249
iné 249
join 249
londres 249
pressed 249
quit@@ 249
sures 249
tiss@@ 249
télé@@ 249
verre 249
ètes 249
étudi@@ 249
aces 248
ank 248
archi@@ 248
birth 248
curi@@ 248
effray@@ 248
europé@@ 248
invol@@ 248
limites 248
membre 248
nourr@@ 248
struc@@ 248
univer@@ 248
vibr@@ 248
2009 247
address 247
ams 247
anxi@@ 247
asp@@ 247
calls 247
closer 247
def@@ 247
devenue 247
feels 247
identity 247
islam@@ 247
magnifique 247
nearly 247
noticed 247
proches 247
reas@@ 247
rely 247
trouver@@ 247
tte 247
work@@ 247
ben 246
bird 246
devices 246
fur 246
ises 246
objectif 246
ouvrir 246
passed 246
ported 246
que@@ 246
responsibility 246
ressembl@@ 246
révél@@ 246
shift 246
television 246
trau@@ 246
éth@@ 246
attack 245
comfortable 245
devions 245
held 245
laissé 245
lève 245
members 245
moi-même 245
scol@@ 245
adam 244
ball@@ 244
cas@@ 244
colère 244
compu@@ 244
doub@@ 244
experiences 244
fying 244
gab@@ 244
heat 244
lying 244
oxy@@ 244
rand@@ 244
télévision 244
vé@@ 244
wow 244
égalité 244
éter 244
1,000 243
abo@@ 243
acier 243
cerveaux 243
conservation 243
consu@@ 243
demandez 243
différemment 243
er-@@ 243
evolved 243
exploration 243
fav@@ 243
foot@@ 243
inno@@ 243
na 243
religi@@ 243
sangu@@ 243
shel@@ 243
speci@@ 243
ails 242
aven@@ 242
café 242
cam@@ 242
conn@@ 242
désolé 242
liter@@ 242
noirs 242
ologie 242
poin@@ 242
produced 242
proj@@ 242
regardent 242
stopped 242
trem@@ 242
trou 242
ancient 241
balance 241
believ@@ 241
boat 241
carry 241
christ@@ 241
commerce 241
graph@@ 241
industri@@ 241
iquement 241
iti@@ 241
marketing 241
ound 241
power@@ 241
respon@@ 241
return 241
accro@@ 240
aids 240
aud@@ 240
boun@@ 240
calement 240
commencez 240
differently 240
extra 240
iron@@ 240
jun@@ 240
mise 240
photograph@@ 240
rais@@ 240
transport 240
utilisez 240
vendre 240
vering 240
ête 240
bone 239
cellu@@ 239
célébr@@ 239
glu@@ 239
ined 239
itaires 239
legal 239
omb@@ 239
pensait 239
photograph 239
possibilité 239
quick 239
sick 239
technologi@@ 239
téléphones 239
virtual 239
worry 239
œil 239
200@@ 238
achieve 238
alph@@ 238
basis 238
câ@@ 238
discu@@ 238
dons 238
edge 238
expert 238
highly 238
isant 238
ished 238
lav@@ 238
naturelle 238
passait 238
pense@@ 238
peti@@ 238
rel 238
rie 238
ritu@@ 238
sper@@ 238
spiritu@@ 238
task 238
aimer@@ 237
banque 237
blind 237
bure@@ 237
diagno@@ 237
differences 237
dr. 237
décou@@ 237
genome 237
institution 237
jud@@ 237
kid@@ 237
laun@@ 237
lycée 237
pounds 237
quées 237
rythme 237
tient 237
travailleurs 237
ve-@@ 237
yl@@ 237
co-@@ 236
complexité 236
conventi@@ 236
diplom@@ 236
easily 236
issement 236
logists 236
molécules 236
reduce 236
récup@@ 236
shares 236
speech 236
supply 236
surgery 236
tus 236
twice 236
ultimately 236
ètre 236
accoun@@ 235
bought 235
consciousness 235
eating 235
giant 235
matic 235
mom@@ 235
mères 235
richesse 235
rivière 235
sculp@@ 235
seu@@ 235
stupi@@ 235
195@@ 234
actu@@ 234
agne 234
amusant 234
anger 234
california 234
choisi 234
disponibles 234
efforts 234
indépend@@ 234
iphone 234
let@@ 234
ought 234
phase 234
prati@@ 234
prend@@ 234
push 234
sour@@ 234
tissu 234
amment 233
artistes 233
bale@@ 233
bang 233
fonds 233
fram@@ 233
fré@@ 233
gradu@@ 233
muscle 233
navi@@ 233
netto@@ 233
options 233
réci@@ 233
sombre 233
stique 233
affi@@ 232
afraid 232
combat 232
conflit 232
définition 232
détru@@ 232
exposition 232
gâ@@ 232
héros 232
missing 232
oxygène 232
remarquable 232
rencontrer 232
rier 232
ron@@ 232
réellement 232
sand@@ 232
seemed 232
stati@@ 232
straight 232
surveillance 232
télé 232
zen 232
airement 231
bie 231
cep@@ 231
chaîne 231
couleurs 231
destin@@ 231
deuxièmement 231
doubl@@ 231
fabrication 231
focused 231
garçons 231
hidden 231
issant 231
low-@@ 231
may@@ 231
molecules 231
ologi@@ 231
philosophi@@ 231
repli@@ 231
susp@@ 231
tribu@@ 231
vieill@@ 231
abstr@@ 230
ama 230
brown 230
creates 230
definition 230
dest 230
dée 230
entrée 230
mauvaises 230
mène 230
ners 230
oxygen 230
pakistan 230
requ@@ 230
sy 230
toi 230
tâche 230
via 230
13@@ 229
appareils 229
aus@@ 229
comb@@ 229
compon@@ 229
derniers 229
ela 229
encourage 229
equal 229
erreur 229
extreme 229
fascinating 229
fore@@ 229
hearing 229
ior 229
meurent 229
mons 229
of@@ 229
parent 229
pel@@ 229
reconnaître 229
sion@@ 229
studying 229
window 229
228293 228
23 228
astr@@ 228
betti 228
californie 228
degree 228
diag@@ 228
fenêtre 228
intéresse 228
populaire 228
possibility 228
quitté 228
réparer 228
sif 228
vaut 228
academ@@ 227
angl@@ 227
appl@@ 227
asie 227
bouger 227
cognitive 227
ert 227
fantastique 227
forming 227
gin@@ 227
graph 227
isse 227
jambes 227
jon@@ 227
mettent 227
paradig@@ 227
piano 227
princip@@ 227
sty@@ 227
thir@@ 227
timate 227
twe@@ 227
vention 227
çant 227
atteint 226
besoins 226
bridge 226
cking 226
corner 226
demi-@@ 226
dreams 226
finance 226
his@@ 226
juli@@ 226
mark@@ 226
monit@@ 226
nie 226
parfait 226
plans 226
significa@@ 226
tain@@ 226
traverser 226
ack@@ 225
britanni@@ 225
character 225
continué 225
discovery 225
fabriquer 225
faç@@ 225
ica 225
ii 225
instinc@@ 225
instruments 225
jane 225
li 225
magi@@ 225
martin 225
nigeria 225
probable 225
regre@@ 225
soutenir 225
tempor@@ 225
tombe 225
volume 225
ander@@ 224
cham@@ 224
conséquent 224
courage 224
déclar@@ 224
détails 224
intelligents 224
intern@@ 224
merveill@@ 224
navig@@ 224
neighborhood 224
profonde 224
rooms 224
shop 224
spending 224
tableau 224
terres 224
tim 224
tter@@ 224
vol 224
allaient 223
complexity 223
dangereux 223
forever 223
ges@@ 223
gging 223
gps 223
hing 223
motivation 223
ole 223
orig@@ 223
permettent 223
plong@@ 223
protec@@ 223
ressentir 223
statistiques 223
terres@@ 223
venus 223
évolué 223
achet@@ 222
aie 222
bol@@ 222
brings 222
check 222
comment@@ 222
créatures 222
dynam@@ 222
démo@@ 222
détermin@@ 222
environnement@@ 222
génome 222
leads 222
micro-@@ 222
nulle 222
obten@@ 222
onner 222
origine 222
potenti@@ 222
raconte 222
recu@@ 222
rentr@@ 222
sir 222
trouvent 222
unité 222
violent 222
visit 222
apo@@ 221
augment@@ 221
ban 221
changent 221
curr@@ 221
danse 221
debout 221
drag@@ 221
effectivement 221
failure 221
indian 221
investment 221
prê@@ 221
raised 221
read@@ 221
rol@@ 221
sel 221
sida 221
sphere 221
st-@@ 221
statu@@ 221
suggère 221
ug@@ 221
vel@@ 221
villages 221
aison 220
dies 220
doute 220
emploi 220
forte 220
hall 220
leading 220
morceaux 220
peu@@ 220
rain 220
rêves 220
second@@ 220
similaire 220
tries 220
arrivés 219
benefits 219
cardiaque 219
conseil 219
consum@@ 219
creatures 219
dizaines 219
emotions 219
gates 219
graphy 219
hô@@ 219
lating 219
objectifs 219
organismes 219
règle 219
stru@@ 219
tively 219
ès 219
1.@@ 218
actuellement 218
affir@@ 218
aged 218
airs 218
authenti@@ 218
bilité 218
british 218
bush 218
capture 218
concepts 218
connais 218
ct 218
drap@@ 218
farmers 218
fighting 218
ght-@@ 218
gry 218
mari 218
pole 218
resol@@ 218
saving 218
tele@@ 218
tric 218
and-@@ 217
apply 217
artists 217
asia 217
aurions 217
cau@@ 217
change@@ 217
contro@@ 217
electron@@ 217
gré 217
lucky 217
musul@@ 217
més 217
perte 217
phénomène 217
productive 217
risques 217
teen@@ 217
tiens 217
transpar@@ 217
vice 217
vrais 217
vulnér@@ 217
épou@@ 217
étend@@ 217
alize 216
antarc@@ 216
ap 216
assur@@ 216
brand 216
brilliant 216
chirurgi@@ 216
consom@@ 216
culaire 216
domaines 216
fall@@ 216
fis@@ 216
gender 216
hair 216
interact 216
jardin 216
joue 216
occasion 216
oir 216
onnement 216
particles 216
pauvre 216
personnelle 216
poly@@ 216
throw 216
ange 215
apprennent 215
augmente 215
brother 215
cloud 215
coffee 215
cooper@@ 215
improvis@@ 215
opposite 215
religious 215
satur@@ 215
semblait 215
sle@@ 215
spaces 215
vres 215
échec 215
î@@ 215
00@@ 214
2005 214
abilities 214
alie 214
champ 214
cked 214
cris@@ 214
devrais 214
dix 214
easier 214
erreurs 214
escent 214
fix 214
hé@@ 214
ja 214
john@@ 214
kee@@ 214
limited 214
minus@@ 214
nar@@ 214
neighb@@ 214
opportunities 214
prize 214
scen@@ 214
teau 214
vêtements 214
wide 214
èmes 214
billions 213
block 213
diab@@ 213
dynamique 213
efs 213
fair 213
faisais 213
heads 213
intégr@@ 213
islam 213
mariage 213
matters 213
organisms 213
patho@@ 213
paysage 213
professor 213
promise 213
rant 213
ressemblent 213
septembre 213
stem 213
tester 213
trained 213
venez 213
wild 213
écriture 213
émissions 213
antly 212
bility 212
caractéristiques 212
describe 212
essence 212
finished 212
minim@@ 212
musli@@ 212
necessary 212
obama 212
objec@@ 212
oli@@ 212
patri@@ 212
plaisir 212
premièrement 212
quantit@@ 212
semblent 212
sifs 212
suffering 212
suffis@@ 212
campaign 211
conférences 211
constamment 211
european 211
helps 211
intr@@ 211
landscape 211
microscope 211
particulière 211
pm 211
rê@@ 211
sey 211
spring 211
stream 211
ède 211
10,000 210
2011 210
appreci@@ 210
brésil 210
chons 210
diction 210
ears 210
efficaces 210
escal@@ 210
ff 210
itting 210
kill@@ 210
lentement 210
mètre 210
nourrir 210
opinion 210
paraly@@ 210
phenomenon 210
puts 210
recru@@ 210
responsible 210
russi@@ 210
secteur 210
sky@@ 210
île 210
aqu@@ 209
courant 209
covered 209
curios@@ 209
débat 209
entirely 209
erons 209
handi@@ 209
importantly 209
ja@@ 209
offici@@ 209
ouest 209
rang@@ 209
sible 209
sold 209
sustain@@ 209
tables 209
tremendous 209
utilisés 209
vast 209
vre 209
atoires 208
bo 208
capacités 208
club 208
educ@@ 208
everyday 208
fields 208
fle@@ 208
gestion 208
guer 208
habitat 208
hier 208
implications 208
interactions 208
mary 208
mouth 208
niveaux 208
painting 208
pensaient 208
plani@@ 208
ressemblait 208
sely 208
succe@@ 208
translation 208
afford 207
apped 207
brazil 207
catch 207
chol@@ 207
ez-@@ 207
facts 207
holding 207
ingénieurs 207
iraq 207
loss 207
mich@@ 207
ots 207
preuve 207
présente 207
refl@@ 207
repe@@ 207
rose 207
rues 207
shar@@ 207
tens 207
tissue 207
tron 207
typical 207
van 207
yo@@ 207
accur@@ 206
bass@@ 206
captur@@ 206
connaître 206
conscious 206
correct 206
dirige@@ 206
décrit 206
edu@@ 206
espaces 206
essayant 206
fairly 206
frontières 206
géo@@ 206
necessarily 206
quence 206
respi@@ 206
roll 206
royaume-uni 206
rural 206
savions 206
thes@@ 206
yellow 206
èle 206
26 205
65 205
barri@@ 205
beh@@ 205
cheveux 205
collap@@ 205
compare 205
conséquences 205
dépression 205
figured 205
filled 205
flight 205
frère 205
guar@@ 205
invest 205
irak 205
istic 205
lesson 205
marque 205
rab@@ 205
stes 205
super-@@ 205
theater 205
tué 205
volonté 205
aches 204
asse 204
auto@@ 204
background 204
bonjour 204
bé@@ 204
ced 204
descri@@ 204
directeur 204
eco@@ 204
husband 204
institute 204
mélang@@ 204
nement 204
otherwise 204
pai@@ 204
permet@@ 204
phant 204
polio 204
prop@@ 204
psych@@ 204
random 204
réelle 204
stuck 204
th-@@ 204
toucher 204
vis 204
year-old 204
youn@@ 204
économiques 204
éner@@ 204
étudié 204
2,@@ 203
ajouter 203
appellent 203
basé 203
chauff@@ 203
compared 203
cosmo@@ 203
deeply 203
events 203
exu@@ 203
invest@@ 203
investissement 203
kil@@ 203
measu@@ 203
murs 203
oivent 203
prochain 203
profon@@ 203
sable 203
sector 203
verte 203
anding 202
calcul 202
class@@ 202
cuis@@ 202
depression 202
devoir 202
documents 202
evol@@ 202
facil@@ 202
fusion 202
illusion 202
keeping 202
microsoft 202
mouse 202
negative 202
passons 202
similaires 202
sted 202
syl@@ 202
séqu@@ 202
tton 202
vues 202
1000 201
acceler@@ 201
according 201
acheté 201
benefit 201
break@@ 201
care@@ 201
classes 201
cure 201
enfance 201
enjoy 201
fas@@ 201
ffe 201
fif@@ 201
investig@@ 201
lutte 201
mas 201
occident 201
oceans 201
placed 201
radical 201
responsable 201
récol@@ 201
réveill@@ 201
sommeil 201
stop@@ 201
truc@@ 201
ution 201
vac@@ 201
équilibre 201
32 200
acked 200
aries 200
chocol@@ 200
cue 200
diagnosti@@ 200
dry 200
eraient 200
exclu@@ 200
gh 200
just@@ 200
lack 200
mothers 200
muscles 200
nouv@@ 200
planning 200
pleine 200
presse 200
prime 200
publié 200
ral 200
rappeler 200
réunion 200
shouldn 200
soudain 200
tel@@ 200
tes-vous 200
û@@ 200
arms 199
circul@@ 199
engineers 199
exhi@@ 199
fallu 199
identifier 199
ira 199
jour@@ 199
lettres 199
lever@@ 199
merveilleuse 199
mortalité 199
nationale 199
ore 199
phins 199
predict 199
péri@@ 199
scanner 199
stic 199
tie 199
travaillant 199
ya 199
addi@@ 198
africains 198
agissent 198
alu@@ 198
anta 198
anthropo@@ 198
antici@@ 198
cad@@ 198
chacune 198
considérer 198
creation 198
enting 198
fill 198
forment 198
heureusement 198
japan 198
lic@@ 198
lux@@ 198
parfaitement 198
pont 198
propriété 198
soi 198
studied 198
survivre 198
usine 198
adults 197
atlan@@ 197
aurons 197
bac@@ 197
bec@@ 197
candi@@ 197
childhood 197
chimpanz@@ 197
chron@@ 197
décider 197
déjeuner 197
désir 197
frank 197
leçon 197
maman 197
mess@@ 197
meur@@ 197
now@@ 197
oi@@ 197
opened 197
parc 197
24@@ 196
250 196
avons-nous 196
bin 196
businesses 196
cogni@@ 196
communications 196
communiquer 196
disponible 196
détes@@ 196
engine 196
erez 196
expl@@ 196
fish@@ 196
ford 196
horri@@ 196
intu@@ 196
lour@@ 196
mates 196
mm 196
oblig@@ 196
organized 196
philosoph@@ 196
populations 196
privée 196
proud 196
quête 196
régime 196
savait 196
sculpture 196
spir@@ 196
sts 196
t-ils 196
tort 196
tured 196
walls 196
wave 196
aig@@ 195
arc@@ 195
argue 195
ayant 195
beat 195
bénéfi@@ 195
department 195
determin@@ 195
dimensional 195
elements 195
empêcher 195
erve 195
exponenti@@ 195
flu 195
grat@@ 195
intéressé 195
leaving 195
lumières 195
mique 195
prototype 195
quote 195
réaction 195
sea@@ 195
strategy 195
tue 195
voyager 195
étapes 195
ayez 194
belief 194
circle 194
comprennent 194
découv@@ 194
ework 194
forced 194
french 194
hé 194
locaux 194
mathemati@@ 194
offer 194
parking 194
phili@@ 194
portables 194
pyram@@ 194
ron 194
stock@@ 194
tionnaire 194
trait 194
weird 194
wid@@ 194
aisse 193
ario 193
ason 193
bia 193
bron@@ 193
chercheurs 193
chers 193
competition 193
cos@@ 193
dépend 193
ecu@@ 193
entour@@ 193
exact 193
foreign 193
forêts 193
insec@@ 193
jec@@ 193
quo@@ 193
rej@@ 193
remar@@ 193
s-je 193
steps 193
avis 192
caught 192
chat 192
coast 192
combinaison 192
concerned 192
dame 192
descendre 192
disco@@ 192
démi@@ 192
engineer 192
flies 192
fondation 192
froid 192
ku@@ 192
maj@@ 192
mexico 192
nav@@ 192
partage@@ 192
plat@@ 192
professional 192
profound 192
refuge@@ 192
safety 192
seriously 192
stratégie 192
sudden 192
transform 192
trie 192
wear 192
zer@@ 192
appr@@ 191
atterr@@ 191
auquel 191
bes@@ 191
blog 191
box@@ 191
cape 191
carbur@@ 191
church 191
colum@@ 191
count 191
directions 191
experiment@@ 191
failed 191
fashion 191
ft 191
gel@@ 191
gene@@ 191
hai@@ 191
inju@@ 191
itage 191
letter 191
long@@ 191
married 191
mathematics 191
mour@@ 191
oit 191
publics 191
routes 191
spr@@ 191
stable 191
sub-@@ 191
them@@ 191
thin@@ 191
toire 191
vieille 191
volunte@@ 191
account 190
ald 190
arily 190
ath 190
aï@@ 190
blanche 190
bless@@ 190
chec@@ 190
cid@@ 190
correctement 190
dense 190
dessin@@ 190
discus@@ 190
dness 190
esthé@@ 190
feedback 190
friend@@ 190
gn@@ 190
higgs 190
ital 190
ix 190
japon 190
load 190
newsp@@ 190
personnage 190
principale 190
pure 190
rio 190
signaux 190
slo@@ 190
slowly 190
sm@@ 190
statisti@@ 190
wearing 190
érieur 190
95 189
affaire 189
aidé 189
alex@@ 189
bear 189
bientôt 189
bun@@ 189
cercle 189
challeng@@ 189
collect 189
colors 189
dure 189
esprits 189
fam@@ 189
insects 189
lè@@ 189
management 189
montagne 189
names 189
noise 189
normally 189
pairs 189
ped 189
pluie 189
pois@@ 189
puzzle 189
rendent 189
separate 189
shap@@ 189
traffic 189
vor@@ 189
vouloir 189
watched 189
whit@@ 189
élément 189
énergé@@ 189
ablement 188
ac 188
accidents 188
aded 188
amazon 188
angi@@ 188
argu@@ 188
bay 188
belles 188
congo 188
dessin 188
electric 188
factory 188
frères 188
ghana 188
insul@@ 188
intense 188
mach@@ 188
majority 188
miss@@ 188
orient 188
pop 188
principes 188
putation 188
rai 188
respond 188
réun@@ 188
sca@@ 188
separ@@ 188
sociales 188
sphère 188
spl@@ 188
surpris 188
également 188
acted 187
bouche 187
climat 187
currently 187
endem@@ 187
essais 187
graphe 187
internationale 187
itent 187
ière 187
jar@@ 187
labor 187
labor@@ 187
littér@@ 187
magie 187
majorité 187
managed 187
moy@@ 187
mr. 187
ois 187
olym@@ 187
parlait 187
pes@@ 187
philanthro@@ 187
rappel@@ 187
sain@@ 187
sexual 187
sister 187
spécialis@@ 187
trajec@@ 187
vast@@ 187
apr@@ 186
avoid 186
believed 186
clinique 186
collis@@ 186
décennie 186
découvertes 186
eill@@ 186
eric 186
exo@@ 186
hil@@ 186
honest 186
ki 186
manipul@@ 186
menace 186
noms 186
ology 186
phon@@ 186
prev@@ 186
régu@@ 186
secrets 186
tels 186
texas 186
unit 186
worldwide 186
élimin@@ 186
épidémie 186
.com 185
aimer 185
biologique 185
described 185
dirigeants 185
driven 185
efficacité 185
empê@@ 185
enh@@ 185
faim 185
fund 185
generate 185
intellectu@@ 185
jor@@ 185
lic 185
lien 185
mentale 185
montagnes 185
moves 185
multi-@@ 185
nes@@ 185
od 185
org@@ 185
peri@@ 185
plante 185
principles 185
sujets 185
target 185
tat@@ 185
than@@ 185
thre@@ 185
tube 185
tural 185
érir 185
affect 184
amené 184
animation 184
artifici@@ 184
begins 184
cans 184
consommat@@ 184
créent 184
demand 184
dign@@ 184
faus@@ 184
frequ@@ 184
fus@@ 184
gées 184
houses 184
identify 184
ji@@ 184
ket 184
là-@@ 184
maintenir 184
maps 184
obtenu 184
persu@@ 184
poign@@ 184
pollen 184
protéines 184
pâ@@ 184
pê@@ 184
rappelle 184
ried 184
sagesse 184
sand 184
sport 184
stand@@ 184
stre 184
advantage 183
atique 183
chass@@ 183
circuit 183
classique 183
connections 183
crip@@ 183
daily 183
drôle 183
détec@@ 183
effici@@ 183
enz@@ 183
govern@@ 183
graduate 183
générations 183
individu 183
infirmi@@ 183
innovations 183
isez 183
jim 183
k-@@ 183
manhattan 183
master 183
occuper 183
particip@@ 183
prevent 183
quez 183
régions 183
sensor@@ 183
ships 183
simil@@ 183
spati@@ 183
stanford 183
struggle 183
thes 183
tine 183
tonnes 183
volont@@ 183
weapons 183
yor@@ 183
évi@@ 183
évident 183
29 182
alé@@ 182
anci@@ 182
any@@ 182
aspir@@ 182
attendez 182
avoc@@ 182
bruit 182
cardia@@ 182
cend@@ 182
centrale 182
chev@@ 182
chirur@@ 182
communi@@ 182
consequences 182
contraire 182
eling 182
eries 182
expos@@ 182
folks 182
gold 182
gy 182
hasard 182
ige 182
illi@@ 182
istant 182
kilometers 182
modu@@ 182
mén@@ 182
passés 182
plate@@ 182
roman@@ 182
score 182
soldiers 182
spot 182
strai@@ 182
suscepti@@ 182
toilettes 182
vélo 182
waves 182
whenever 182
wol@@ 182
agents 181
agers 181
anciens 181
chaos 181
contient 181
couche 181
ero@@ 181
escl@@ 181
flor@@ 181
formu@@ 181
ghter 181
hell 181
homes 181
ko 181
lady 181
langues 181
là-dessus 181
lée 181
malade 181
orange 181
pile 181
press@@ 181
présenter 181
represent 181
soil 181
spe@@ 181
surge@@ 181
unless 181
utilisée 181
voices 181
vous-même 181
vrai@@ 181
wisdom 181
étoile 181
actor 180
aissent 180
appelait 180
arry 180
articles 180
bles@@ 180
chaleur 180
civilisation 180
constantly 180
cous@@ 180
dients 180
donnez 180
drawing 180
déc@@ 180
est-@@ 180
grown 180
hopefully 180
in-@@ 180
incar@@ 180
independent 180
jaz@@ 180
jen@@ 180
lee 180
motion 180
plane 180
propri@@ 180
ramener 180
survival 180
vet@@ 180
whom 180
28 179
ander 179
bers 179
cain 179
character@@ 179
comport@@ 179
doigts 179
décrire 179
expres@@ 179
favor@@ 179
fourmis 179
hec@@ 179
internation@@ 179
invited 179
kh@@ 179
king@@ 179
nec@@ 179
nig@@ 179
opening 179
operating 179
organic 179
pau@@ 179
penses 179
pierre 179
play@@ 179
polici@@ 179
primer 179
prisonn@@ 179
promo@@ 179
rus 179
ski@@ 179
tier 179
tough 179
venant 179
veu@@ 179
adolescents 178
aper 178
arabe 178
arriver@@ 178
arrêté 178
ayed 178
biens 178
cards 178
detail 178
déplo@@ 178
forests 178
gain 178
goals 178
interpre@@ 178
lati@@ 178
multiple 178
médicaux 178
nobel 178
pare 178
perfectly 178
quons 178
radiation 178
ressembler 178
sequence 178
sim@@ 178
tail@@ 178
testing 178
treated 178
èse 178
événement 178
2,000 177
adver@@ 177
ague 177
annu@@ 177
cev@@ 177
clinical 177
coordin@@ 177
degrés 177
deman@@ 177
dynamic 177
enseigner 177
followed 177
increasingly 177
interview 177
joy 177
mail 177
ouverte 177
passe-t-il 177
possibilités 177
queue 177
researchers 177
sta@@ 177
story@@ 177
thinks 177
tomorrow 177
universal 177
2006 176
acking 176
act@@ 176
acteur 176
beaux 176
cheap 176
coûte 176
côtés 176
deliver 176
déb@@ 176
eting 176
exists 176
feuille 176
gall@@ 176
gang 176
graphiques 176
hate 176
lettre 176
levez 176
magasin 176
matériel 176
mix 176
paint 176
panneau 176
ram 176
received 176
rich@@ 176
sad@@ 176
sophisti@@ 176
tenu 176
titre 176
tours 176
utilisateurs 176
yesterday 176
yn@@ 176
33 175
ait-il 175
aming 175
appeared 175
bud@@ 175
clock 175
confi@@ 175
debate 175
encies 175
ferait 175
igne 175
institu@@ 175
intention 175
laisse 175
lap@@ 175
laugh@@ 175
musical 175
noy@@ 175
occur@@ 175
parlant 175
pers 175
protein 175
puissants 175
red@@ 175
ro 175
scann@@ 175
signals 175
smith 175
therapy 175
44 174
85 174
ama@@ 174
analysis 174
ani@@ 174
associated 174
attitude 174
chant@@ 174
classroom 174
client 174
compliqué 174
connaissances 174
copy 174
crucial 174
desert 174
designing 174
dinner 174
dom 174
ez-moi 174
faith 174
free@@ 174
fé@@ 174
intelligen@@ 174
isra@@ 174
itu@@ 174
lunch 174
menac@@ 174
menson@@ 174
meu@@ 174
quantum 174
satellites 174
sen 174
smart@@ 174
statistics 174
suppos@@ 174
threat 174
thérapie 174
venait 174
yo 174
écoutez 174
épar@@ 174
2003 173
accessible 173
alzheimer 173
analyse 173
avancer 173
bi 173
cial 173
civilization 173
closed 173
cock@@ 173
considered 173
coo@@ 173
cô@@ 173
develop@@ 173
dop@@ 173
economics 173
employés 173
erais 173
explique 173
generations 173
glo@@ 173
goût 173
jump 173
largement 173
laser 173
launched 173
liens 173
nor 173
observation 173
offre 173
orph@@ 173
paying 173
proté@@ 173
psychia@@ 173
rid 173
soldats 173
spac@@ 173
venti@@ 173
victimes 173
électriques 173
augmenté 172
avantages 172
aî@@ 172
boug@@ 172
breast 172
bright 172
clar@@ 172
counter@@ 172
desire 172
insur@@ 172
inves@@ 172
là-dedans 172
mati@@ 172
meter 172
mili@@ 172
moment-là 172
morale 172
nin@@ 172
plate 172
possibles 172
shoes 172
small@@ 172
souches 172
suggests 172
toil@@ 172
trib@@ 172
urban@@ 172
visite 172
ancing 171
attraper 171
auriez 171
beach 171
bâ@@ 171
compren@@ 171
congrès 171
consumption 171
coral 171
define 171
expansion 171
explosion 171
franch@@ 171
hasn 171
héli@@ 171
inventer 171
izing 171
joie 171
kilos 171
leaves 171
revie@@ 171
rouges 171
surprised 171
théâtre 171
trique 171
versus 171
wake 171
écl@@ 171
adulte 170
announ@@ 170
australia 170
autom@@ 170
aying 170
catastrop@@ 170
concerne 170
contin@@ 170
contrairement 170
dente 170
dir@@ 170
divi@@ 170
emmener 170
f-@@ 170
gdp 170
glaci@@ 170
heav@@ 170
istance 170
lande 170
lecture 170
mesur@@ 170
mille 170
mountains 170
nano@@ 170
normale 170
onné 170
pati@@ 170
précis 170
puisque 170
roy@@ 170
réser@@ 170
scene 170
silicon 170
spatial 170
spécial 170
straté@@ 170
sum 170
toward 170
trons 170
étaire 170
étranger 170
adult 169
autism 169
broo@@ 169
bét@@ 169
cami@@ 169
catég@@ 169
chimie 169
connexions 169
dable 169
dî@@ 169
england 169
extrême 169
fourth 169
healthcare 169
kin 169
manage 169
miro@@ 169
organes 169
partag@@ 169
participants 169
pause 169
publicité 169
rencontre 169
simu@@ 169
texte 169
tourne 169
transforma@@ 169
users 169
visibles 169
worried 169
black@@ 168
blancs 168
calling 168
cat 168
coûts 168
dési@@ 168
elling 168
ex 168
fant@@ 168
fold 168
ignorance 168
intellig@@ 168
kly 168
kno@@ 168
larg@@ 168
location 168
marriage 168
mathematical 168
matis@@ 168
mexique 168
molecule 168
ological 168
ond 168
ough 168
phants 168
pib 168
powered 168
prédire 168
quatrième 168
roul@@ 168
sar@@ 168
sentiments 168
serez 168
smell 168
specifically 168
survie 168
technical 168
uniquement 168
vier 168
web@@ 168
wikipedia 168
1990 167
ancest@@ 167
anny 167
army 167
auteur 167
cast 167
chées 167
civile 167
dimension 167
distric@@ 167
facteurs 167
gul@@ 167
highest 167
journaliste 167
layer 167
meat 167
movements 167
obstacles 167
pertin@@ 167
physiques 167
reaction 167
rempli@@ 167
selling 167
shif@@ 167
sms 167
spea@@ 167
steven 167
tais 167
telescope 167
thesis 167
œuvre 167
47 166
andrew 166
categ@@ 166
crai@@ 166
croient 166
dessiner 166
entou@@ 166
erai 166
eur@@ 166
expected 166
fais@@ 166
fantas@@ 166
galaxy 166
gles 166
grippe 166
hou@@ 166
illu@@ 166
infl@@ 166
joueurs 166
longues 166
mentioned 166
molécule 166
numéri@@ 166
pensées 166
principle 166
promis 166
prostitu@@ 166
sac 166
souvenir 166
tt 166
um@@ 166
viet@@ 166
visit@@ 166
69@@ 165
advanced 165
airplane 165
amin@@ 165
atch 165
australie 165
bea@@ 165
ble@@ 165
charbon 165
cides 165
demain 165
dh 165
dépar@@ 165
dévelop@@ 165
fallait 165
grand-@@ 165
hip@@ 165
incenti@@ 165
intéressantes 165
itement 165
jaune 165
jouent 165
joué 165
kore@@ 165
lag@@ 165
lessons 165
mile 165
mono@@ 165
normalement 165
nutri@@ 165
octo@@ 165
ordinary 165
perman@@ 165
picked 165
platform 165
precis@@ 165
publ@@ 165
rati@@ 165
recor@@ 165
reu@@ 165
seat 165
soin 165
spin@@ 165
sports 165
technologique 165
transformé 165
église 165
700 164
addition 164
arrived 164
artificial 164
attaque 164
avance 164
bott@@ 164
cente 164
chemistry 164
civil@@ 164
coca@@ 164
combu@@ 164
complet 164
contempor@@ 164
control@@ 164
convain@@ 164
essenti@@ 164
fell 164
foie 164
gon@@ 164
ink 164
letters 164
link 164
losing 164
player 164
poetry 164
pollu@@ 164
poss@@ 164
poun@@ 164
principe 164
résolution 164
scal@@ 164
sending 164
shapes 164
sommes-nous 164
stea@@ 164
stood 164
strate@@ 164
tch 164
tious 164
trous 164
visages 164
warming 164
wash@@ 164
weather 164
yers 164
zes 164
zu@@ 164
éduca@@ 164
2004 163
aining 163
arrivée 163
attribu@@ 163
bataille 163
bby 163
bien-être 163
cing 163
concentration 163
croyons 163
cu 163
curious 163
discipl@@ 163
démonstration 163
exerci@@ 163
fiés 163
gren@@ 163
itude 163
ization 163
ladies 163
languages 163
leg 163
mécanique 163
partner 163
perce@@ 163
pointe 163
pousse 163
prove 163
quitter 163
risks 163
répondu 163
se-@@ 163
spectacul@@ 163
venaient 163
viande 163
çons 163
œurs 163
aident 162
asks 162
ater 162
atoire 162
camér@@ 162
caused 162
ciels 162
cross 162
details 162
deter@@ 162
dirait 162
eas@@ 162
even@@ 162
fondamentale 162
gap 162
gather@@ 162
grand-mère 162
gun 162
happ@@ 162
impressionn@@ 162
investir 162
killing 162
licen@@ 162
mammif@@ 162
mani@@ 162
metaphor 162
mè@@ 162
métaphore 162
pa 162
paras@@ 162
phil@@ 162
prior@@ 162
processes 162
release 162
ren 162
représentent 162
rwanda 162
référence 162
sentence 162
sorti@@ 162
t&apos; 162
videos 162
anonym@@ 161
apprend 161
avantage 161
balle 161
brun@@ 161
centres 161
champi@@ 161
conflits 161
demandent 161
défense 161
ember 161
emissions 161
entrepreneur 161
equipment 161
equivalent 161
essai 161
evil 161
factors 161
farm 161
ference 161
finger 161
gan@@ 161
inequality 161
invite 161
kilom@@ 161
leçons 161
mathémati@@ 161
modé@@ 161
pd@@ 161
pea@@ 161
résili@@ 161
saved 161
schizoph@@ 161
symme@@ 161
tian 161
underneath 161
ven 161
administration 160
athan 160
baseball 160
cameras 160
cave 160
cules 160
cus@@ 160
estab@@ 160
eton 160
explan@@ 160
gique 160
gos 160
harder 160
inner 160
itali@@ 160
l-@@ 160
marin 160
moun@@ 160
occa@@ 160
ony 160
pollin@@ 160
poésie 160
préserv@@ 160
released 160
sant 160
t-elle 160
threat@@ 160
utilisées 160
ym@@ 160
zi@@ 160
èrement 160
équi@@ 160
actif 159
bibliothèque 159
campus 159
ce-@@ 159
cent@@ 159
cident@@ 159
citation 159
clip 159
courbe 159
essive 159
ests 159
fail 159
feder@@ 159
inspiré 159
mange@@ 159
nommé 159
oning 159
participation 159
performan@@ 159
printing 159
proposition 159
précisément 159
rav@@ 159
regular 159
roots 159
shall 159
sight 159
spirit 159
symé@@ 159
tise 159
utiles 159
warm 159
wars 159
étab@@ 159
aéro@@ 158
bible 158
bill@@ 158
bis@@ 158
champign@@ 158
chaussures 158
clés 158
dence 158
designs 158
driver 158
frais 158
gar 158
germany 158
gram 158
holo@@ 158
impul@@ 158
intain 158
malaria 158
member 158
orders 158
ota 158
pharmaceu@@ 158
pic 158
propriétés 158
recev@@ 158
remote 158
stock 158
stupé@@ 158
syri@@ 158
tile 158
48 157
amou@@ 157
angleterre 157
arro@@ 157
auxquels 157
aître 157
bet 157
bread 157
circulation 157
clean@@ 157
complète 157
compétition 157
confir@@ 157
controlled 157
convinced 157
couv@@ 157
dealing 157
democratic 157
ennem@@ 157
facing 157
figures 157
foss@@ 157
gency 157
ghten@@ 157
guide 157
hadn 157
heureuse 157
irr@@ 157
kr@@ 157
lad@@ 157
movies 157
passage 157
projec@@ 157
talent 157
thoughts 157
accept 156
actifs 156
angers 156
araig@@ 156
bain 156
bleue 156
carré 156
chain 156
chin@@ 156
connue 156
constant 156
danger@@ 156
devaient 156
disparu 156
electrical 156
ethiop@@ 156
exchange 156
hackers 156
illage 156
joe 156
keys 156
mad 156
miss 156
méthode 156
need@@ 156
nervous 156
origami 156
pack@@ 156
path@@ 156
pathy 156
pier@@ 156
prenant 156
proce@@ 156
producing 156
protég@@ 156
pêche 156
relevant 156
reur 156
reve@@ 156
ror 156
sacrifi@@ 156
seri@@ 156
shoul@@ 156
simulation 156
sity 156
spoke 156
stations 156
stro@@ 156
surfaces 156
tern@@ 156
troubles 156
turb@@ 156
ute 156
veget@@ 156
wondering 156
ôtre 156
20th 155
avan@@ 155
awesome 155
bref 155
cage 155
chromo@@ 155
cil 155
compagnie 155
conten@@ 155
crimes 155
damage 155
désert 155
existent 155
express 155
ferme 155
foi 155
geni@@ 155
iling 155
israel 155
near@@ 155
nouvel 155
parado@@ 155
poem 155
propag@@ 155
properties 155
prouv@@ 155
rat 155
records 155
simpl@@ 155
slu@@ 155
strength 155
tar 155
trials 155
vehicle 155
bad@@ 154
basi@@ 154
bling 154
contra@@ 154
convaincre 154
embarrass@@ 154
enem@@ 154
feelings 154
fluor@@ 154
garde 154
grati@@ 154
guerres 154
hard@@ 154
intuition 154
isée 154
method 154
ministre 154
mir@@ 154
miracle 154
mousti@@ 154
mécan@@ 154
offrir 154
oiseau 154
plays 154
poor@@ 154
propos@@ 154
prét@@ 154
requins 154
ride 154
sad 154
sovi@@ 154
suggest 154
territ@@ 154
trip 154
wonder@@ 154
électronique 154
42 153
amine 153
arrang@@ 153
calcu@@ 153
chimpanzés 153
clou@@ 153
dialogue 153
débarrass@@ 153
emerging 153
enda 153
epidemic 153
est-à-dire 153
experienced 153
finish 153
football 153
ham 153
honor 153
intervention 153
iss 153
jack 153
k. 153
players 153
pre-@@ 153
prisons 153
réfugiés 153
seaux 153
skel@@ 153
toit 153
visions 153
échapp@@ 153
alism 152
alities 152
ancienne 152
arab 152
atrice 152
bed@@ 152
cheval 152
coal 152
combine 152
courte 152
deb@@ 152
dess@@ 152
dorm@@ 152
effectively 152
empre@@ 152
essential 152
eues 152
excellent 152
exper@@ 152
forestation 152
franc@@ 152
frontière 152
instru@@ 152
interagir 152
interprét@@ 152
jet 152
ket@@ 152
lait 152
life@@ 152
légèrement 152
modernes 152
nick 152
ons-@@ 152
ouverture 152
ping@@ 152
poster 152
process@@ 152
property 152
sale 152
sets 152
solved 152
stery 152
te-@@ 152
tro 152
was@@ 152
épi@@ 152
100,000 151
blan@@ 151
claim 151
cliniques 151
conc@@ 151
créons 151
dations 151
denti@@ 151
derek 151
discrimin@@ 151
dist@@ 151
excep@@ 151
exprimer 151
fresh 151
hôpitaux 151
inking 151
laire 151
liked 151
magique 151
minister 151
observer 151
oxford 151
partenaires 151
porting 151
rates 151
represents 151
requires 151
robu@@ 151
rément 151
sensation 151
signed 151
singes 151
swit@@ 151
ut 151
variety 151
évén@@ 151
actuelle 150
aigu@@ 150
allemagne 150
arguments 150
arrête 150
attrap@@ 150
awful 150
biles 150
brothers 150
cap 150
doctor@@ 150
estin@@ 150
fabul@@ 150
harmon@@ 150
holes 150
hormon@@ 150
installation 150
ints 150
limite 150
parall@@ 150
passionate 150
pete 150
sai@@ 150
séquence 150
tains 150
techni@@ 150
ts@@ 150
typically 150
verb@@ 150
ware 150
2001 149
accor@@ 149
altitude 149
axe 149
centers 149
cine 149
craft 149
disaster 149
drink 149
emment 149
empi@@ 149
ems 149
enjo@@ 149
eve 149
fati@@ 149
fera 149
gne 149
grain 149
honte 149
ient 149
japon@@ 149
laptop 149
lay@@ 149
library 149
ounds 149
philosop@@ 149
practical 149
pratiques 149
prote@@ 149
rapidly 149
require 149
respir@@ 149
ry@@ 149
sees 149
setting 149
sides 149
siège 149
solving 149
strugg@@ 149
tain 149
transforme 149
usage 149
vely 149
whereas 149
ani 148
anniversaire 148
appliquer 148
beat@@ 148
breaking 148
caf@@ 148
concre@@ 148
conscient 148
doigt 148
dow 148
empathie 148
funding 148
garden 148
gore 148
iens 148
instructions 148
intes 148
intitu@@ 148
kne@@ 148
locale 148
moder@@ 148
molecular 148
nutrition 148
op 148
orb@@ 148
pix@@ 148
post 148
pot 148
poème 148
ramen@@ 148
realiz@@ 148
resource 148
rhy@@ 148
stephen 148
stun@@ 148
surprenant 148
tan 148
tane@@ 148
tioning 148
voi@@ 148
accepté 147
amy 147
appu@@ 147
biologi@@ 147
brow@@ 147
carefully 147
citiz@@ 147
civ@@ 147
conven@@ 147
convince 147
départ 147
emotion 147
entière 147
exception 147
exercise 147
exécu@@ 147
frau@@ 147
galaxie 147
gment 147
golf 147
heavy 147
impacts 147
lock 147
metho@@ 147
mic 147
molé@@ 147
moteurs 147
nel@@ 147
ont-ils 147
personnages 147
possibilities 147
prac@@ 147
profits 147
prouver 147
rale 147
regard 147
restent 147
retraite 147
roughly 147
réduit 147
révolu@@ 147
sahar@@ 147
signs 147
sse 147
systé@@ 147
terrorism 147
tis 147
viruses 147
who@@ 147
yn 147
écar@@ 147
étique 147
apparemment 146
band 146
bot@@ 146
breath 146
characters 146
chiffre 146
cious 146
comprends 146
connus 146
courag@@ 146
daniel 146
eds 146
eus 146
fiant 146
flott@@ 146
fondamentalement 146
français 146
gravité 146
gée 146
illing 146
increasing 146
kevin 146
multipli@@ 146
onie 146
opti@@ 146
permettez-moi 146
privé 146
protected 146
présence 146
remain 146
required 146
roi 146
rég@@ 146
sis@@ 146
trices 146
trillion 146
venture 146
versions 146
william 146
windows 146
accepter 145
activités 145
battle 145
broke 145
certi@@ 145
circuits 145
compati@@ 145
dam 145
dames 145
deeper 145
defined 145
diagnostic 145
déclen@@ 145
déli@@ 145
grandmother 145
gy@@ 145
hill 145
honnête 145
inform@@ 145
ived 145
lay 145
lifetime 145
long-term 145
mol@@ 145
mortality 145
negoti@@ 145
pengu@@ 145
pie 145
q 145
quantique 145
rési@@ 145
scott 145
sui@@ 145
swim@@ 145
switch 145
tac@@ 145
transmission 145
téléphon@@ 145
voisins 145
water@@ 145
écoute 145
édie 145
affected 144
association 144
attacks 144
bam@@ 144
bee 144
bell 144
bow@@ 144
bénéfici@@ 144
canc@@ 144
commis@@ 144
defin@@ 144
dictions 144
dimin@@ 144
discipline 144
document 144
entertain@@ 144
faudr@@ 144
fossiles 144
hide 144
hood 144
industries 144
isto@@ 144
kins 144
manières 144
mans 144
matern@@ 144
mondes 144
neutr@@ 144
northern 144
passée 144
perform 144
pris@@ 144
reconn@@ 144
refus@@ 144
sensitive 144
sep@@ 144
sert 144
session 144
southern 144
spectrum 144
stupid 144
tombé 144
triste 144
2012 143
5,000 143
acteurs 143
angles 143
art@@ 143
ballo@@ 143
battery 143
blocks 143
connecté 143
cycl@@ 143
cé 143
doc@@ 143
dots 143
drogue 143
drones 143
environments 143
environn@@ 143
essaye 143
fossil 143
hero 143
i.@@ 143
include 143
intri@@ 143
introduce 143
ooh 143
opar@@ 143
ouvre 143
permission 143
primary 143
rh@@ 143
spectac@@ 143
till@@ 143
totale 143
treat@@ 143
tubes 143
tumor 143
unlike 143
visuel 143
wings 143
worlds 143
zan@@ 143
° 143
éclair@@ 143
agno@@ 142
anten@@ 142
applied 142
attend 142
bloo@@ 142
bob 142
britain 142
carrying 142
cident 142
comportements 142
couverture 142
crash 142
definitely 142
dep@@ 142
detect 142
existing 142
extinction 142
fishing 142
greg@@ 142
générer 142
israël 142
jones 142
kinson 142
nai@@ 142
naturally 142
nécessaires 142
open@@ 142
partis 142
peinture 142
percep@@ 142
rey 142
rome 142
réchauffement 142
s. 142
standards 142
vaccine 142
victims 142
absolute 141
aling 141
allem@@ 141
appear@@ 141
bage 141
buying 141
cambridge 141
combination 141
compter 141
dogs 141
empty 141
enregist@@ 141
envelop@@ 141
essions 141
eted 141
fewer 141
frame 141
globe 141
infrastruc@@ 141
invent 141
japanese 141
less@@ 141
liqui@@ 141
maire 141
mammo@@ 141
mike 141
paci@@ 141
phin 141
relatively 141
rene@@ 141
shan@@ 141
soign@@ 141
stat@@ 141
suring 141
terrorisme 141
unusual 141
variations 141
vivants 141
vole 141
voudrais 141
watts 141
wired 141
writer 141
émo@@ 141
+ 140
anna 140
aperçu 140
brian 140
computing 140
credit 140
dat 140
dinosaures 140
désesp@@ 140
ethni@@ 140
extin@@ 140
generally 140
gentlemen 140
grapher 140
grave 140
hospitals 140
infection 140
iting 140
jeff 140
makers 140
politicians 140
possé@@ 140
predat@@ 140
reci@@ 140
relative 140
repas 140
round 140
rétro@@ 140
savaient 140
seat@@ 140
server 140
stoc@@ 140
swi@@ 140
tera 140
thèse 140
tiles 140
tionally 140
translat@@ 140
ttes 140
ular 140
variation 140
ysi@@ 140
ze@@ 140
économies 140
21st 139
ande 139
aps 139
bag 139
dise 139
drives 139
dét@@ 139
ebola 139
encoun@@ 139
enseignement 139
enty 139
igh@@ 139
immer@@ 139
inher@@ 139
institut 139
midi 139
mim@@ 139
opérations 139
pation 139
photographs 139
probabilité 139
remplacer 139
status 139
steel 139
surveill@@ 139
traditions 139
tude 139
tz 139
ènes 139
1916658 138
actors 138
atl@@ 138
attaquer 138
awareness 138
ax@@ 138
buil@@ 138
camp@@ 138
cherche 138
condi@@ 138
cript 138
cruci@@ 138
créatif 138
céré@@ 138
description 138
desper@@ 138
diet 138
donnée 138
détecter 138
edi@@ 138
effec@@ 138
engaged 138
fbi 138
flag 138
flexible 138
hollywood 138
housing 138
howard 138
innovative 138
jack@@ 138
majeu@@ 138
messieurs 138
narrative 138
pacifique 138
permanent 138
promis@@ 138
py@@ 138
reached 138
roads 138
rot@@ 138
shir@@ 138
smile 138
stein 138
surpren@@ 138
vr@@ 138
épau@@ 138
-ci 137
a.@@ 137
aliz@@ 137
ancer 137
ancêtres 137
architect 137
arme 137
augh 137
bubble 137
chemicals 137
circumst@@ 137
dark@@ 137
depends 137
dessins 137
empire 137
fortune 137
garage 137
hypothèse 137
laboratory 137
laissez 137
lion 137
liquide 137
mainten@@ 137
manufacturing 137
mélange 137
nets 137
nombres 137
oral 137
physically 137
previous 137
prison@@ 137
resear@@ 137
sandwich 137
staff 137
stern 137
suicide 137
thers 137
toy 137
valuable 137
véhicule 137
winter 137
woo@@ 137
électro@@ 137
2.@@ 136
adapter 136
adesh 136
agré@@ 136
alisé 136
appears 136
assemble 136
atoms 136
aur@@ 136
chiens 136
chimique 136
click 136
dép@@ 136
ecosystem 136
ee@@ 136
escopes 136
fi 136
gang@@ 136
harv@@ 136
ingénieur 136
journalist 136
mann 136
motor 136
nerveux 136
nose 136
one@@ 136
outcome 136
pointed 136
potentially 136
prepared 136
processing 136
sci@@ 136
scén@@ 136
sharks 136
spectacle 136
synchron@@ 136
terroristes 136
tionary 136
vague 136
vivi@@ 136
émis@@ 136
adol@@ 135
ailed 135
ala 135
annon@@ 135
bet@@ 135
bouteille 135
chil@@ 135
collè@@ 135
confidence 135
culaires 135
cutting 135
dia 135
director 135
escope 135
explains 135
extraordinaires 135
feuilles 135
house@@ 135
illir 135
initiative 135
interests 135
introduced 135
itarian 135
meaningful 135
restric@@ 135
subst@@ 135
sue 135
symptômes 135
tape 135
tory 135
ush 135
vulnerable 135
véhicules 135
wire 135
xim@@ 135
120 134
accumul@@ 134
ada 134
africa@@ 134
asses 134
chip 134
chr@@ 134
comfort 134
conflic@@ 134
dimen@@ 134
dings 134
fruit 134
goods 134
historique 134
hotel 134
iments 134
intellectual 134
lumin@@ 134
magné@@ 134
mandel@@ 134
maxim@@ 134
mention 134
mets 134
migration 134
mirror 134
moore 134
muni@@ 134
ode 134
overwhel@@ 134
participate 134
participer 134
photographi@@ 134
raising 134
roof 134
search@@ 134
senti@@ 134
shark 134
sophisticated 134
stric@@ 134
thri@@ 134
thèses 134
trage@@ 134
té@@ 134
ôme 134
37 133
aft 133
an-@@ 133
assi@@ 133
aurez 133
automobile 133
axis 133
beg@@ 133
bottle 133
béné@@ 133
chor@@ 133
colonies 133
congress 133
continents 133
dee@@ 133
ello 133
employees 133
ength 133
ening 133
entrepren@@ 133
evolutionary 133
exag@@ 133
fen@@ 133
gli@@ 133
hurt 133
illegal 133
journaux 133
kitchen 133
libér@@ 133
lique 133
lié 133
mb 133
mo 133
oire 133
organs 133
orities 133
personally 133
recorded 133
remain@@ 133
reward 133
runs 133
souffr@@ 133
symptoms 133
séri@@ 133
techno@@ 133
teeth 133
tien 133
transparent 133
underwater 133
écosystème 133
énormément 133
équivalent 133
activities 132
added 132
algorithms 132
auront 132
autrement 132
birth@@ 132
distr@@ 132
engager 132
fundamentally 132
hallucin@@ 132
ien 132
increased 132
inde@@ 132
lifes@@ 132
mesures 132
metal 132
mistake 132
nei@@ 132
obé@@ 132
open-source 132
parach@@ 132
peac@@ 132
propose 132
rais 132
rentrer 132
replace 132
restaur@@ 132
singing 132
survey 132
tale 132
traveling 132
unexpected 132
unknown 132
worker 132
ôle 132
actuel 131
alternatives 131
architecte 131
attaques 131
authority 131
behaviors 131
bition 131
bomb 131
burn 131
concert 131
dions 131
docteur 131
ent-@@ 131
falls 131
fat@@ 131
gift 131
gou@@ 131
horse 131
ingre@@ 131
inspi@@ 131
inva@@ 131
inég@@ 131
key@@ 131
lier 131
linked 131
micros@@ 131
milk 131
naturellement 131
obser@@ 131
opy 131
organiser 131
oug@@ 131
pad 131
partners 131
pleasure 131
powers 131
presence 131
quelques-uns 131
rements 131
restaurants 131
revolu@@ 131
servir 131
sively 131
stronger 131
success@@ 131
tempt 131
terr@@ 131
tissus 131
topic 131
élè@@ 131
abon@@ 130
amoun@@ 130
ardo 130
aser 130
blogs 130
chute 130
defense 130
dose 130
ells 130
fascinant 130
gueur 130
générale 130
hang@@ 130
heroes 130
illed 130
instantan@@ 130
naturelles 130
neighbor@@ 130
pack 130
parfaite 130
point@@ 130
regions 130
résu@@ 130
sarah 130
somme 130
sortie 130
therap@@ 130
vation 130
walks 130
ël 130
acceptable 129
bande 129
cess@@ 129
chans@@ 129
chicken 129
considér@@ 129
cuse 129
ee 129
equality 129
fel@@ 129
fes@@ 129
has@@ 129
industrielle 129
intuitive 129
médical 129
positif 129
programm@@ 129
pron@@ 129
puiss@@ 129
remer@@ 129
reuse 129
rev@@ 129
serons 129
signific@@ 129
tron@@ 129
za 129
2050 128
atomes 128
centu@@ 128
consist@@ 128
dun@@ 128
fermi@@ 128
hat@@ 128
matiques 128
pair 128
positifs 128
qua@@ 128
souvenirs 128
substance 128
trine 128
tâches 128
vehic@@ 128
échange 128
équipement 128
31 127
72 127
allant 127
atement 127
autis@@ 127
camps 127
cry@@ 127
ices 127
ities 127
ker@@ 127
mean@@ 127
placement 127
practi@@ 127
reco@@ 127
religions 127
responsables 127
ros@@ 127
rév@@ 127
stabil@@ 127
œur 127
accou@@ 126
brou@@ 126
camer@@ 126
chea@@ 126
cible 126
exploitation 126
fiée 126
habitants 126
implique 126
inspire 126
justi@@ 126
lan 126
ouais 126
portée 126
quartiers 126
refu@@ 126
schéma 126
servi@@ 126
sher@@ 126
souhai@@ 126
ts-@@ 126
unies 126
well@@ 126
0 125
38 125
aisons 125
audit@@ 125
cable 125
champs 125
competi@@ 125
demo@@ 125
définir 125
iture 125
jeter 125
manag@@ 125
mathé@@ 125
oned 125
quet 125
résistance 125
shirt 125
soy@@ 125
subj@@ 125
system@@ 125
tag@@ 125
terminer 125
transmettre 125
vertical 125
aises 124
caract@@ 124
caractéris@@ 124
composants 124
escence 124
immense 124
intérêts 124
mener 124
monu@@ 124
pourcentage 124
renouvel@@ 124
revient 124
secon@@ 124
soud@@ 124
talents 124
util@@ 124
wise 124
érie 124
admi@@ 123
amie 123
beli@@ 123
bir@@ 123
cons@@ 123
créée 123
implan@@ 123
logiques 123
nées 123
portrait 123
quad@@ 123
regi@@ 123
vaccin@@ 123
écri@@ 123
afgh@@ 122
angel@@ 122
aux@@ 122
bicy@@ 122
cieux 122
cope 122
eures 122
fruits 122
lieux 122
mage 122
mises 122
ondes 122
recher@@ 122
telles 122
á@@ 122
absence 121
app 121
bble 121
benjam@@ 121
configu@@ 121
correspond 121
essentiel 121
figu@@ 121
infr@@ 121
injec@@ 121
liés 121
lle 121
manipu@@ 121
négoci@@ 121
panneaux 121
prends 121
siècles 121
tir 121
vér@@ 121
wher@@ 121
yme 121
a. 120
albu@@ 120
aly@@ 120
aug@@ 120
aut 120
ballon 120
ence@@ 120
entends 120
excell@@ 120
fut 120
illumin@@ 120
ivent 120
lang@@ 120
leon@@ 120
me-@@ 120
ority 120
poche 120
précision 120
recevoir 120
abeth 119
appell@@ 119
behavi@@ 119
centage 119
claire 119
disparaître 119
duced 119
détruire 119
facteur 119
foc@@ 119
ini 119
itive 119
mécanisme 119
publiques 119
reconnaissance 119
rè@@ 119
smar@@ 119
thou@@ 119
titude 119
22@@ 118
bactéri@@ 118
boute@@ 118
corri@@ 118
curité 118
donnant 118
durée 118
exposé 118
fasse 118
flexi@@ 118
follo@@ 118
influ@@ 118
ira@@ 118
jeu@@ 118
jug@@ 118
pend 118
quat@@ 118
secre@@ 118
sinon 118
trace 118
36@@ 117
archit@@ 117
bases 117
combattre 117
deviend@@ 117
ety 117
fonctionnement 117
motifs 117
quiconque 117
radio@@ 117
redu@@ 117
refer@@ 117
répar@@ 117
sélection 117
végét@@ 117
émission 117
1960 116
acks 116
américa@@ 116
até 116
citoy@@ 116
colo@@ 116
contrain@@ 116
croyez 116
extrait 116
goû@@ 116
labo 116
oppos@@ 116
pourrai@@ 116
troisi@@ 116
55 115
aimé 115
chefs 115
compas@@ 115
emprun@@ 115
farm@@ 115
minis@@ 115
oux 115
phenomen@@ 115
reach@@ 115
septem@@ 115
signe 115
soft 115
titudes 115
étudie 115
í@@ 115
ame 114
anced 114
buff@@ 114
emp@@ 114
fortun@@ 114
symp@@ 114
11@@ 113
1980 113
analyser 113
aving 113
cated 113
croiss@@ 113
emis@@ 113
génie 113
montrant 113
oid 113
profondeur 113
ration 113
relativement 113
rions 113
voulu 113
wai@@ 113
australi@@ 112
cancers 112
cement 112
cky 112
communaut@@ 112
compagnies 112
dérou@@ 112
désor@@ 112
ees 112
exer@@ 112
fête 112
great@@ 112
ignore 112
magnifi@@ 112
mirac@@ 112
scho@@ 112
èmement 112
administr@@ 111
crit@@ 111
estation 111
fonctions 111
him@@ 111
it-@@ 111
sage 111
sier 111
terait 111
traité 111
ased 110
elle-@@ 110
méthodes 110
pon 110
pons 110
sérieusement 110
témo@@ 110
équili@@ 110
éris@@ 110
carol@@ 109
consider@@ 109
cour 109
interes@@ 109
organisme 109
ply 109
travail@@ 109
vaste 109
vois@@ 109
cy 108
democr@@ 108
ecs 108
fie 108
forma@@ 108
gir@@ 108
hus@@ 108
ld 108
naturel@@ 108
preci@@ 108
prepar@@ 108
stom@@ 108
sélec@@ 108
tements 108
weal@@ 108
willi@@ 108
cord 107
discussions 107
egyp@@ 107
formidable 107
véritable 107
étonnant 107
anima@@ 106
bel 106
bom@@ 106
ghting 106
guer@@ 106
impres@@ 106
interro@@ 106
océ@@ 106
pétro@@ 106
quanti@@ 106
reuses 106
réussite 106
ceux-@@ 105
consac@@ 105
décid@@ 105
décl@@ 105
opin@@ 105
régl@@ 105
till 105
traitements 105
underst@@ 105
éni@@ 105
ainement 104
atory 104
boî@@ 104
compag@@ 104
comprend 104
endu 104
joh@@ 104
maî@@ 104
partment 104
phénom@@ 104
quette 104
remettre 104
réguli@@ 104
réussir 104
tradi@@ 104
vienne 104
agissait 103
billi@@ 103
ener@@ 103
matéri@@ 103
oms 103
parole 103
peut-@@ 103
proper@@ 103
composition 102
dru@@ 102
déterminer 102
intro@@ 102
manifes@@ 102
observe 102
photographie 102
resp@@ 102
tech@@ 102
accomplir 101
conque 101
listen@@ 101
mun@@ 101
nuclé@@ 101
peut-on 101
professi@@ 101
sop@@ 101
ape 100
cali@@ 100
collea@@ 100
communic@@ 100
durant 100
etting 100
extrê@@ 100
immen@@ 100
num@@ 100
run@@ 100
tum 100
auv@@ 99
forts 99
minu@@ 99
pace 99
soi@@ 99
sult@@ 99
tér@@ 99
vered 99
50@@ 98
dait 98
décri@@ 98
enthousi@@ 98
euro@@ 98
ignent 98
increas@@ 98
maîtr@@ 98
oeil 98
oles 98
professeurs 98
quelques-@@ 98
réflexion 98
stac@@ 98
thérap@@ 98
vas 98
volu@@ 98
équip@@ 98
évè@@ 98
clear@@ 97
conséquence 97
dres 97
envie 97
exac@@ 97
fla@@ 97
grou@@ 97
independ@@ 97
intégrer 97
issu@@ 97
mai@@ 97
monsi@@ 97
normal@@ 97
orie 97
oy@@ 97
probl@@ 97
til 97
traî@@ 97
uti@@ 97
what@@ 97
44@@ 96
ailles 96
anger@@ 96
chen 96
contex@@ 96
convainc@@ 96
disais 96
geor@@ 96
ind 96
passant 96
perç@@ 96
year-@@ 96
alisée 95
anon@@ 95
aph@@ 95
chaî@@ 95
emo@@ 95
evi@@ 95
fail@@ 95
ghtly 95
long-@@ 95
magnifiques 95
obstac@@ 95
remo@@ 95
writ@@ 95
46 94
abe@@ 94
aille 94
baisse 94
démie 94
fabriqué 94
fortunately 94
health@@ 94
ids 94
impos@@ 94
ource 94
tionner 94
unis 94
catastr@@ 93
chiff@@ 93
efficac@@ 93
eue 93
lorsqu&apos; 93
magaz@@ 93
puzz@@ 93
rassembler 93
stitu@@ 93
temper@@ 93
touche 93
alg@@ 92
exi@@ 92
heal@@ 92
ign 92
lear@@ 92
plann@@ 92
ception 91
chir@@ 91
cise 91
grosse 91
hero@@ 91
rivi@@ 91
sement 91
t-on 91
tenti@@ 91
usual 91
certa@@ 90
dama@@ 90
differ@@ 90
décr@@ 90
eria 90
extra@@ 90
ffi@@ 90
héro@@ 90
ine@@ 90
magas@@ 90
monter@@ 90
nia 90
norm@@ 90
vente 90
39 89
adolesc@@ 89
amor@@ 89
congr@@ 89
dispositif 89
détail@@ 89
examin@@ 89
gla@@ 89
surpris@@ 89
67@@ 88
compét@@ 88
consiste 88
itablement 88
portent 88
ryth@@ 88
veill@@ 88
vill@@ 88
ître 88
arly 87
assistance 87
atis@@ 87
bacter@@ 87
din 87
ennent 87
igno@@ 87
low@@ 87
mesu@@ 87
mex@@ 87
onom@@ 87
représentation 87
angu@@ 86
baiss@@ 86
cultu@@ 86
dow@@ 86
entir 86
gaz@@ 86
gott@@ 86
hore 86
mement 86
moindre 86
neg@@ 86
pein@@ 86
scep@@ 86
électron@@ 86
étr@@ 86
célè@@ 85
enthousias@@ 85
etats-unis 85
eters 85
hav@@ 85
immédi@@ 85
manufactu@@ 85
respons@@ 85
rur@@ 85
seign@@ 85
altern@@ 84
ano 84
are@@ 84
austr@@ 84
considère 84
iness 84
ingéni@@ 84
mau@@ 84
particuli@@ 84
popul@@ 84
stly 84
traite 84
tune 84
z-moi 84
élo@@ 84
bizar@@ 83
celui-là 83
complet@@ 83
gigan@@ 83
immedi@@ 83
monté 83
sag@@ 83
éma 83
“ 83
” 83
couver@@ 82
dress 82
démar@@ 82
ington 82
libr@@ 82
mouv@@ 82
oeu@@ 82
réf@@ 82
situ@@ 82
traf@@ 82
vertes 82
atmosp@@ 81
conv@@ 81
extraordin@@ 81
issait 81
quences 81
retrouver 81
siè@@ 81
with@@ 81
érence 81
circu@@ 80
compéti@@ 80
croit 80
instruc@@ 80
ition 80
scientifi@@ 80
auté 79
ec 79
famil@@ 79
globale 79
midd@@ 79
popu@@ 79
pos 79
prési@@ 79
zaines 79
çait 79
citer 78
compan@@ 78
dation 78
deu@@ 78
différ@@ 78
dus 78
fortable 78
mption 78
soldi@@ 78
vulner@@ 78
world@@ 78
ôt 78
alimentation 77
atively 77
auc@@ 77
embl@@ 77
fici@@ 77
lais@@ 77
média 77
onger 77
perspec@@ 77
porté 77
èce 77
connaît 76
dp 76
epi@@ 76
eth 76
hauteur 76
loir 76
naiss@@ 76
oli 76
profi@@ 76
réchauff@@ 76
spé@@ 76
surve@@ 76
wis@@ 76
améli@@ 75
kit@@ 75
ox@@ 75
partici@@ 75
tils 75
ètres 75
bic@@ 74
chur@@ 74
envis@@ 74
lish 74
meth@@ 74
ressor@@ 74
ston 74
wiki@@ 74
acro@@ 73
ender 73
futu@@ 73
get@@ 73
hospit@@ 73
pend@@ 73
sit@@ 73
solu@@ 73
travaux 73
wall@@ 73
cle@@ 72
del 72
experienc@@ 72
nee@@ 72
tes-@@ 72
ving@@ 72
# 71
27@@ 71
30@@ 71
ches@@ 71
ech 71
etry 71
jau@@ 71
len 71
observé 71
voire 71
won@@ 71
beauti@@ 70
braz@@ 70
caux 70
gau@@ 70
lywood 70
nas@@ 70
ose 70
préc@@ 70
suffisamment 70
suffit 70
valu@@ 70
érences 70
arian 69
desp@@ 69
fru@@ 69
inging 69
journ@@ 69
knowle@@ 69
open-@@ 69
plai@@ 69
terminé 69
524687 68
débu@@ 68
engine@@ 68
esh 68
icon 68
keyser 68
lik@@ 68
rying 68
ã@@ 68
chic@@ 67
corru@@ 67
previ@@ 67
seem@@ 67
sof@@ 67
ave@@ 66
i-même 66
ich 66
orm@@ 66
possède 66
stan@@ 66
établir 66
accessi@@ 65
compréhen@@ 65
emplo@@ 65
présents 65
sionate 65
tempér@@ 65
ï 65
35@@ 64
affron@@ 64
alise 64
failu@@ 64
immeu@@ 64
mov@@ 64
perf@@ 64
proch@@ 64
steph@@ 64
tting 64
vul@@ 64
œ@@ 64
brit@@ 63
chal@@ 63
itures 63
requi@@ 63
sust@@ 63
worl@@ 63
fashi@@ 62
fres@@ 62
inning 62
pak@@ 62
rele@@ 62
royau@@ 62
élèves 62
automo@@ 61
consid@@ 61
epidem@@ 61
gentlem@@ 61
itié 61
placer 61
agnes 60
artifi@@ 60
dats 60
grap@@ 60
inté@@ 60
natu@@ 60
nou@@ 60
perfec@@ 60
remark@@ 60
sat@@ 60
titu@@ 60
trical 60
évo@@ 60
) 59
65@@ 59
eure 59
incre@@ 59
métap@@ 59
pharmac@@ 59
ésie 59
ü@@ 59
andre@@ 58
empath@@ 58
environ@@ 58
espo@@ 58
laisse@@ 58
lem@@ 58
obtient 58
onnes 58
peop@@ 58
transi@@ 58
anz@@ 57
cevoir 57
extrem@@ 57
ided 57
know@@ 57
survi@@ 57
ó@@ 57
@ 56
dispos@@ 56
itely 56
perfor@@ 56
tec@@ 56
train@@ 56
copes 55
neaux 55
permettant 55
poste 55
profond@@ 55
strat@@ 55
voil@@ 55
étu@@ 55
239263 54
ativité 54
buffard 54
democrati@@ 54
eil 54
elisabeth 54
sever@@ 54
adul@@ 53
appe@@ 53
aster 53
ativity 53
campaig@@ 53
ease 53
enn@@ 53
equi@@ 53
heu@@ 53
istan 53
modifier 53
tely 53
wear@@ 53
au-@@ 52
bén@@ 52
jus@@ 52
mê@@ 52
pedia 52
ppe 52
r. 52
çu 52
110@@ 51
ause 51
enorm@@ 51
import@@ 51
ival@@ 51
lir 51
tiz@@ 51
voudr@@ 51
anneau 50
bibli@@ 50
fundament@@ 50
lem 50
particu@@ 50
succ@@ 50
total@@ 50
usement 50
ousness 49
psy@@ 49
yel@@ 49
annivers@@ 48
ceau 48
eness 48
gent@@ 48
responsi@@ 48
sear@@ 48
tabl@@ 48
vern@@ 48
ö@@ 48
dows 47
régi@@ 47
èces 47
call@@ 46
désormais 46
heure@@ 46
intellec@@ 46
museu@@ 46
tually 46
usa 46
volun@@ 46
desc@@ 45
entiss@@ 45
hap@@ 45
nies 45
celle-@@ 44
factu@@ 44
other@@ 44
pareil 44
quic@@ 44
rough@@ 44
selves 44
étés 44
americ@@ 43
bli@@ 43
coeur 43
culp@@ 43
gger 43
natur@@ 43
pouv@@ 43
resul@@ 43
atur@@ 42
beau@@ 42
champ@@ 42
child@@ 42
cée 42
eric@@ 42
extre@@ 42
materi@@ 42
oce@@ 42
ough@@ 42
réfl@@ 42
there@@ 42
voul@@ 42
apes 41
busin@@ 41
déci@@ 41
esc@@ 41
hosp@@ 41
relev@@ 41
through@@ 41
tish 41
aband@@ 40
belo@@ 40
efully 40
fonc@@ 40
iel 40
osau@@ 40
profess@@ 40
prés@@ 40
roug@@ 40
sudd@@ 40
surger@@ 40
year@@ 40
à-@@ 40
.000 39
29@@ 39
aria 39
brilli@@ 39
complex@@ 39
eils 39
ackers 38
ado@@ 38
com 38
convinc@@ 38
deca@@ 38
delà 38
ebr@@ 38
formid@@ 38
grow@@ 38
iop@@ 38
ould 38
psychi@@ 38
sacri@@ 38
shou@@ 38
écu@@ 38
elop@@ 37
presid@@ 37
procha@@ 37
trilli@@ 37
vau@@ 37
zar@@ 37
66@@ 36
cog@@ 36
demment 36
ead 36
exem@@ 36
lites 36
meaning@@ 36
métho@@ 36
réfugi@@ 36
weir@@ 36
ë 36
ativement 35
istr@@ 35
marri@@ 35
plea@@ 35
plé@@ 35
bibliothè@@ 34
investi@@ 34
lam 34
monstr@@ 34
précis@@ 34
résou@@ 34
vide@@ 34
ômes 34
capac@@ 33
cidents 33
dden 33
fossi@@ 33
notic@@ 33
nucl@@ 33
specifi@@ 33
thè@@ 33
vê@@ 33
antages 32
chaus@@ 32
clas@@ 32
commer@@ 32
eties 32
hundre@@ 32
lent@@ 32
obj@@ 32
quan@@ 32
coff@@ 31
nour@@ 31
négo@@ 31
tandis 31
tell@@ 31
tremend@@ 31
twit@@ 31
uni 31
ñ@@ 31
dai@@ 30
expen@@ 30
fair@@ 30
quasiment 30
recy@@ 30
sands 30
scape 30
titles 30
awar@@ 29
disponi@@ 29
ense 29
ree 29
studi@@ 29
– 29
colle@@ 28
davantage 28
dialo@@ 28
evolu@@ 28
fren@@ 28
premi@@ 28
retrouve 28
çais 28
écon@@ 28
ît 28
concernant 27
ester@@ 27
tau@@ 27
² 27
épo@@ 27
239@@ 26
achi@@ 26
benef@@ 26
ebo@@ 26
insp@@ 26
ww@@ 26
… 26
_ 25
décis@@ 25
emble 25
enreg@@ 25
hic@@ 25
major@@ 25
obs 25
qu 25
reté 25
sympt@@ 25
avid 24
circum@@ 24
design@@ 24
erre 24
ois@@ 24
pale 24
procé@@ 24
rière 24
avail@@ 23
avel 23
bien-@@ 23
eces 23
effic@@ 23
europ@@ 23
rw@@ 23
récu@@ 23
sional 23
somme@@ 23
boulot 22
expéri@@ 22
where@@ 22
wom@@ 22
biblio@@ 21
feed@@ 21
timately 21
tionne 21
expan@@ 20
feu@@ 20
lars 20
sophis@@ 20
staf@@ 20
á 20
âtre 20
ètement 20
necess@@ 19
phen@@ 19
andis 18
exion 18
heur 18
rapid@@ 18
adminis@@ 17
patter@@ 17
plains 17
pourra 17
tenter 17
aper@@ 16
craz@@ 16
plément@@ 16
pover@@ 16
s-là 16
( 15
anni@@ 15
cept 15
commenc@@ 15
consi@@ 15
demon@@ 15
diseas@@ 15
fiel@@ 15
iment@@ 15
nifi@@ 15
infir@@ 14
quasi@@ 14
convers@@ 13
how@@ 13
televis@@ 13
urity 13
volution 13
-hu@@ 12
246@@ 12
antage 12
derni@@ 12
esome 12
face@@ 12
feel@@ 12
histo@@ 12
japan@@ 12
langu@@ 12
rase 12
sûrement 12
240@@ 11
chets 11
chrom@@ 11
cid 11
comple@@ 11
dn 11
electric@@ 11
intelli@@ 11
mexic@@ 11
particul@@ 11
proces@@ 11
voila 11
améri@@ 10
anthro@@ 10
oud 10
pharm@@ 10
raid 10
slow@@ 10
thom@@ 10
your@@ 10
ä@@ 10
è 10
éto@@ 10
ó 10
aitre 9
ancs 9
califor@@ 9
ceaux 9
ein 9
exions 9
grés 9
istry 9
kev@@ 9
metaph@@ 9
tex 9
ticated 9
tot@@ 9
wester@@ 9
accompli@@ 8
adem@@ 8
antan@@ 8
certain@@ 8
experi@@ 8
mente 8
micha@@ 8
moment-@@ 8
opportun@@ 8
pie@@ 8
renouv@@ 8
vous-@@ 8
‘ 8
^ 7
adu@@ 7
ats-@@ 7
bey@@ 7
célé@@ 7
disci@@ 7
eball 7
pment 7
poni@@ 7
princi@@ 7
préhen@@ 7
suj@@ 7
ted.com 7
tty 7
www.@@ 7
ø@@ 7
ù 7
* 6
degre@@ 6
démonstr@@ 6
obvi@@ 6
schiz@@ 6
symptom@@ 6
tice 6
toge@@ 6
vities 6
í 6
211 5
228@@ 5
absolu@@ 5
astruc@@ 5
decis@@ 5
every@@ 5
happen@@ 5
huma@@ 5
indus@@ 5
list@@ 5
mortal@@ 5
mémo@@ 5
victi@@ 5
w.@@ 5
ween 5
wich 5
 5
ć 5
126 4
artic@@ 4
bile 4
déjeu@@ 4
espr@@ 4
excel@@ 4
fore 4
goti@@ 4
heim@@ 4
ially 4
ince 4
instein 4
mathem@@ 4
nér@@ 4
pacifi@@ 4
scienti@@ 4
sebas@@ 4
tâ@@ 4
ā@@ 4
́ 4
อ@@ 4
352 3
abs@@ 3
actly 3
ameri@@ 3
dres@@ 3
effi@@ 3
elis@@ 3
expon@@ 3
fronti@@ 3
hatt@@ 3
heimer 3
molecu@@ 3
omen@@ 3
ood 3
prun@@ 3
softw@@ 3
yester@@ 3
 3
£ 3
â 3
çon 3
.. 2
408 2
again@@ 2
aujourd 2
cec@@ 2
centur@@ 2
confl@@ 2
endro@@ 2
enly 2
envir@@ 2
gion 2
hig@@ 2
icals 2
isco 2
jap@@ 2
nous-@@ 2
pital 2
quarti@@ 2
rote 2
syst@@ 2
telev@@ 2
tidi@@ 2
tuni@@ 2
yea@@ 2
 2
ù@@ 2
ร 2
่ 2
263 1
535 1
afghan@@ 1
ativ@@ 1
bact@@ 1
beso@@ 1
challen@@ 1
chica@@ 1
chimp@@ 1
coté 1
divers@@ 1
docu@@ 1
does@@ 1
ducation 1
décen@@ 1
elop 1
ext 1
haps 1
incredi@@ 1
inte@@ 1
manhatt@@ 1
mately 1
mes-@@ 1
passe-@@ 1
possibil@@ 1
présen@@ 1
relation@@ 1
réfu@@ 1
tiana 1
trum 1
¡ 1
¢ 1
± 1
º@@ 1
¿ 1
à@@ 1
å@@ 1
æ 1
æ@@ 1
éro 1
êt 1
ì 1
ò@@ 1
ø 1
ú@@ 1
ā 1
č@@ 1
ě@@ 1
ī 1
ī@@ 1
ū@@ 1
˚ 1
ย 1
ย@@ 1
€ 1
√ 1
你@@ 1
葱 1
送@@ 1
madeupword0000 0
madeupword0001 0
madeupword0002 0
madeupword0003 0
madeupword0004 0
