, 521846
. 440339
the 182054
de 168859
a 142538
and 122608
et 115195
to 113684
of 97542
la 93949
le 80005
les 79327
que 77842
i 75339
&quot; 74770
est 72622
in 71641
that 71462
à 70902
it 69277
un 64077
l&apos; 62511
des 60503
you 59158
we 58547
en 58084
nous 53495
is 51899
une 51512
&apos;s 51417
d&apos; 49634
on 49199
vous 46273
ce 43157
this 42561
je 42538
il 42115
: 41998
qui 40803
/ 40668
dans 38781
? 37739
pour 37650
pas 35002
c&apos; 33293
-- 29046
&lt; 27706
&gt; 27701
they 27209
qu&apos; 26982
was 25805
du 25473
plus 24718
for 24565
ne 24342
so 23941
but 23571
j&apos; 23407
have 23376
y 23266
mais 23005
are 22646
what 21856
can 21617
me 21413
with 21235
&apos;t 20716
ils 20394
sur 20319
n&apos; 19958
at 19398
ai 19285
about 18571
as 17960
an 17948
se 17270
avec 17147
au 16989
ces 16903
sont 16802
be 16793
there 16605
si 16339
all 15798
re@@ 15539
&apos;re 15486
my 15474
do 15320
not 15197
ça 14936
or 14828
ont 14527
cette 14515
comme 14411
if 14284
fait 14276
these 14273
people 14262
par 13939
= 13878
er 13839
one 13822
like 13404
from 13039
he 13031
elle 12961
our 12892
faire 12548
tout 12523
’ 12502
était 12424
ou 12413
in@@ 12133
avons 11904
s&apos; 11865
é 11855
when 11740
donc 11661
by 11169
because 11159
going 11137
us 11135
them 11083
very 10686
s@@ 10304
how 10064
très 9921
aux 9918
être 9914
bien 9667
es 9662
think 9652
more 9597
ed 9536
who 9488
ted 9414
see 9308
know 9248
their 9238
ent 9127
were 9117
ing 9009
monde 9003
had 8965
cela 8928
ant 8892
quand 8867
just 8825
&apos;m 8695
dé@@ 8645
gens 8542
don 8416
world 8263
your 8247
time 8106
même 7969
now 7936
d@@ 7871
son 7851
leur 7838
notre 7807
ons 7777
chose 7768
out 7743
would 7688
up 7679
mon 7660
dit 7648
où 7557
parce 7531
ée 7504
♫ 7492
which 7470
-@@ 7459
p@@ 7440
speaker 7421
ans 7381
ation 7356
doc 7324
ait 7303
« 7246
és 7169
alors 7150
here 7129
» 7114
&apos;ve 7040
al 7011
talk 6984
tous 6977
été 6960
t@@ 6875
g@@ 6865
has 6862
d 6857
years 6848
peut 6754
t 6744
suis 6731
really 6728
get 6633
o@@ 6630
go 6628
way 6594
where 6580
translator 6571
b@@ 6569
aussi 6556
http 6551
profiles 6549
href 6530
www.ted.com 6530
reviewer 6527
h@@ 6504
then 6484
s 6457
e 6354
vraiment 6307
other 6300
l 6271
i@@ 6269
want 6210
en@@ 6198
ez 6180
k@@ 6149
elles 6122
r@@ 6106
could 6089
beaucoup 6070
é@@ 6057
n@@ 6051
c@@ 6010
able 5974
deux 5961
no 5955
comment 5944
things 5943
new 5935
she 5933
te 5914
l@@ 5834
some 5794
e@@ 5758
m&apos; 5743
autre 5722
ma 5720
c 5687
nos 5668
ré@@ 5666
first 5628
choses 5624
will 5613
his 5583
voir 5569
vie 5564
make 5490
said 5485
a@@ 5445
ch@@ 5418
m@@ 5413
into 5393
ti@@ 5388
autres 5378
genre 5373
di@@ 5368
two 5326
been 5314
ate 5293
look 5271
right 5264
con@@ 5254
votre 5251
than 5246
little 5239
ers 5231
ses 5214
co@@ 5205
o 5198
y@@ 5195
ts 5174
maintenant 5151
ici 5144
quelque 5084
dis@@ 5073
also 5062
al@@ 5049
avait 5035
dire 4997
entre 4980
m 4977
ées 4936
most 4934
f@@ 4923
là 4918
mes 4888
work 4886
avoir 4876
v@@ 4847
peu 4787
something 4786
temps 4773
fois 4712
important 4675
only 4666
life 4610
well 4552
even 4538
age 4529
many 4438
need 4437
ar@@ 4434
un@@ 4415
lot 4413
an@@ 4393
aient 4378
question 4357
moi 4335
say 4321
actually 4319
is@@ 4270
sa 4253
its 4248
take 4237
back 4226
ag@@ 4208
leurs 4192
much 4170
pouvez 4140
why 4140
over 4133
; 4129
par@@ 4101
ri@@ 4086
every 4083
er@@ 4082
thing 4062
her 4044
j@@ 4039
point 4032
on@@ 4013
ine 4011
encore 3997
el@@ 3965
! 3963
em@@ 3950
u@@ 3949
ad@@ 3936
voici 3930
personnes 3922
pense 3920
avez 3911
re 3911
ab@@ 3893
use 3890
ais 3874
good 3872
ex@@ 3826
sommes 3819
non 3799
am@@ 3796
po@@ 3783
dont 3775
same 3746
ac@@ 3745
tes 3730
eur 3701
ter 3692
années 3674
or@@ 3674
day 3664
lectures 3661
li@@ 3659
eux 3642
docid 3640
th@@ 3639
10 3625
- 3617
im@@ 3608
toutes 3608
let 3604
ement 3590
different 3586
subtitles 3583
transcript 3576
sans 3543
mar@@ 3533
g 3522
ro@@ 3510
pourquoi 3509
juste 3499
façon 3462
place 3460
w@@ 3458
ca@@ 3453
ations 3449
el 3440
change 3433
car 3429
pays 3428
moment 3417
après 3410
it@@ 3405
tant 3400
st@@ 3380
enfants 3346
around 3344
come 3344
mo@@ 3341
part 3338
ma@@ 3332
tr@@ 3318
did 3282
aire 3274
lo@@ 3273
hui 3255
vais 3255
didn 3247
va 3243
qu@@ 3240
est-ce 3239
n 3209
tions 3206
gu@@ 3205
si@@ 3197
chaque 3196
pro@@ 3194
es@@ 3184
ité 3167
pendant 3148
su@@ 3140
besoin 3139
today 3132
ie 3126
histoire 3120
put 3114
as@@ 3111
jamais 3095
three 3072
ants 3067
aujourd&apos; 3066
kind 3063
ins 3044
lui 3042
ques 3035
tion 3026
ante 3025
percent 3024
eau 3018
moins 3005
&apos;ll 3002
gr@@ 2998
through 2996
after 2989
fi@@ 2989
long 2989
peut-être 2974
quelques 2974
cr@@ 2962
inter@@ 2958
com@@ 2951
those 2951
tell 2946
idée 2944
man 2929
called 2925
ated 2922
find 2915
ds 2898
et@@ 2895
last 2869
étaient 2856
fact 2852
k 2851
eu 2835
res@@ 2827
veux 2820
vers 2819
per@@ 2817
car@@ 2816
dollars 2816
seulement 2810
personne 2808
pl@@ 2808
problème 2807
at@@ 2806
toujours 2799
ance 2790
idea 2771
z@@ 2760
eurs 2752
human 2750
puis 2750
made 2741
20 2735
aires 2730
got 2716
peuvent 2716
bon 2698
op@@ 2697
end 2696
simple 2684
problem 2661
pouvons 2646
bo@@ 2642
another 2639
cet 2637
year 2631
tu@@ 2620
big 2619
parler 2619
trois 2618
before 2617
... 2614
to@@ 2606
p 2600
down 2595
&apos; 2593
els 2593
great 2593
avant 2588
bi@@ 2570
thought 2567
pré@@ 2562
information 2556
tu 2553
soit 2545
ou@@ 2542
partie 2539
ap@@ 2537
no@@ 2536
science 2534
ite 2527
êtes 2525
being 2519
doing 2512
u 2511
give 2510
travail 2506
few 2499
ale 2496
om@@ 2496
de@@ 2494
étais 2482
jour 2464
ly 2458
started 2457
quoi 2451
exemple 2447
trans@@ 2439
savez 2435
té 2433
course 2431
thank 2423
possible 2421
better 2411
toute 2408
au@@ 2406
ju@@ 2406
système 2397
ère 2397
millions 2387
première 2386
any 2368
br@@ 2367
example 2365
sou@@ 2347
ting 2343
story 2341
system 2340
ver@@ 2337
merci 2334
commencé 2333
voyez 2328
went 2316
depuis 2308
ceci 2307
understand 2302
% 2301
ai@@ 2299
pi@@ 2287
design 2281
never 2280
grand 2279
50 2278
used 2268
sh@@ 2263
le@@ 2262
ity 2238
still 2230
internet 2225
next 2225
ago 2222
ni@@ 2219
ic 2215
show 2213
bu@@ 2210
ci@@ 2210
him 2207
min@@ 2201
manière 2200
bl@@ 2199
nature 2199
between 2198
should 2191
women 2187
ous 2184
avais 2181
ph@@ 2181
children 2177
own 2173
public 2170
red 2167
30 2166
&apos;d 2163
3 2158
ales 2156
rien 2153
technology 2150
x 2144
2 2140
jusqu&apos; 2136
sûr 2131
ainsi 2130
grande 2129
brain 2121
cor@@ 2121
è@@ 2112
million 2098
femmes 2095
vu 2094
together 2089
av@@ 2082
live 2081
water 2071
start 2063
doesn 2061
données 2054
create 2051
ser@@ 2051
h 2050
air 2048
data 2037
3@@ 2033
ér@@ 2032
che 2031
everything 2030
cerveau 2029
cu@@ 2029
ol@@ 2021
do@@ 2020
vi@@ 2020
aller 2013
quelqu&apos; 1999
der 1994
4 1992
cou@@ 1992
wanted 1990
chez 1988
ill@@ 1984
looking 1984
r 1981
for@@ 1977
petit 1976
ve 1976
each 1972
real 1972
technologie 1970
came 1969
ensuite 1966
prendre 1963
too 1962
ever 1958
art 1954
found 1948
social 1946
assez 1945
ment 1944
000 1941
mer 1940
dr@@ 1935
pourrait 1933
again 1932
ge 1931
trouver 1929
du@@ 1928
b 1920
face 1918
ves 1917
ors 1912
mon@@ 1906
ok 1905
gi@@ 1903
questions 1902
does 1898
less 1897
ke 1896
créer 1892
bit 1891
faut 1890
tique 1890
ks 1889
1 1877
se@@ 1876
font 1869
pr@@ 1867
ence 1864
love 1861
ent@@ 1855
cas 1852
ines 1849
city 1845
voilà 1843
without 1843
school 1842
8@@ 1840
utiliser 1840
ca 1839
so@@ 1839
ating 1838
man@@ 1837
ens 1835
ét@@ 1834
maybe 1832
pouvoir 1821
5@@ 1817
old 1813
9@@ 1811
lu@@ 1809
four 1805
vos 1805
train 1803
image 1801
cl@@ 1792
environ 1792
country 1791
100 1790
second 1790
7@@ 1786
comprendre 1785
fer@@ 1782
pre@@ 1780
cancer 1778
passe 1778
try 1775
help 1770
mi@@ 1769
sorte 1764
certains 1755
six 1755
homme 1754
res 1751
ies 1749
bou@@ 1748
5 1738
nouveau 1738
mu@@ 1736
devons 1734
premier 1718
oh 1715
trying 1714
avaient 1713
cher 1710
oui 1704
f 1697
ir@@ 1694
passé 1689
person 1688
using 1688
lorsque 1687
tri@@ 1685
déjà 1684
mettre 1684
pe@@ 1683
times 1683
always 1680
ches 1679
ères 1677
ats 1674
il@@ 1672
peux 1669
sur@@ 1660
ary 1656
terre 1655
.@@ 1653
ler 1652
light 1652
appelle 1649
gen@@ 1648
plutôt 1642
quel 1642
bar@@ 1641
future 1637
ables 1634
done 1633
ber@@ 1631
minutes 1629
ho@@ 1623
took 1623
per 1622
five 1621
hu@@ 1620
ter@@ 1617
imagine 1616
sens 1616
call 1612
simplement 1611
feel 1609
hi@@ 1606
ages 1605
indi@@ 1600
pu@@ 1599
power 1598
working 1598
mor@@ 1596
ensemble 1593
6@@ 1591
ents 1590
us@@ 1590
tic 1589
bonne 1587
sub@@ 1586
problèmes 1582
x@@ 1582
gar@@ 1578
sais 1578
ta@@ 1578
ceux 1576
parents 1576
donner 1575
forme 1575
um 1574
corps 1571
année 1569
cause 1569
am 1567
nouvelle 1567
qu 1564
w 1564
cré@@ 1563
money 1563
cours 1562
ra@@ 1558
men 1556
savoir 1556
ville 1554
montrer 1553
6 1549
space 1549
penser 1545
19@@ 1540
fu@@ 1540
j 1537
jo@@ 1536
sp@@ 1535
travers 1534
ten@@ 1531
jours 1529
ability 1528
plupart 1521
energy 1520
8 1519
4@@ 1518
ec@@ 1516
images 1516
means 1515
15 1509
mé@@ 1507
best 1504
become 1501
number 1497
talking 1496
king 1494
ask 1493
sous 1493
side 1490
states 1488
ally 1487
ass@@ 1487
mal@@ 1485
mieux 1482
population 1482
fl@@ 1478
crois 1477
main 1477
morton 1476
mois 1473
enough 1471
th 1470
and@@ 1469
1108408 1468
bast 1468
trop 1467
changer 1466
away 1462
left 1462
be@@ 1459
fin 1459
countries 1455
tent 1452
contre 1450
small 1448
machine 1447
laquelle 1446
sions 1444
énergie 1443
raison 1442
importe 1441
tive 1441
près 1440
fin@@ 1438
sure 1438
petite 1437
pris 1436
antes 1435
vo@@ 1433
lives 1431
ru@@ 1430
thinking 1428
interesting 1427
hommes 1426
move 1426
force 1424
str@@ 1424
united 1424
als 1422
nombre 1422
culture 1421
told 1419
earth 1417
project 1417
whole 1417
might 1416
ps 1413
argent 1412
room 1411
home 1408
food 1404
santé 1404
ue 1404
ements 1403
comes 1401
ms 1399
says 1399
end@@ 1397
projet 1394
pe 1392
problems 1392
mean 1389
serait 1389
bles 1388
ates 1387
appar@@ 1385
pa@@ 1383
vrai 1383
ur@@ 1382
attention 1380
case 1380
doit 1379
type 1378
tor@@ 1375
global 1374
almost 1373
cent 1370
char@@ 1368
ne@@ 1365
everybody 1364
probably 1364
9 1361
por@@ 1357
play 1356
ise 1354
ded 1353
onn@@ 1352
pos@@ 1352
femme 1351
agit 1350
lieu 1350
building 1349
ul@@ 1346
mal 1345
action 1344
believe 1343
♪ 1341
ban@@ 1340
me@@ 1337
ique 1336
veut 1336
build 1335
saw 1333
asked 1324
makes 1321
cul@@ 1315
expérience 1314
vont 1314
off 1313
sera 1312
go@@ 1311
ia 1309
york 1309
body 1308
ist 1308
beautiful 1305
ic@@ 1305
côté 1304
compte 1300
ances 1299
passer 1298
propre 1298
sense 1298
trouvé 1296
20@@ 1294
while 1294
espace 1293
te@@ 1292
souvent 1290
7 1289
mis 1289
ger 1288
hard 1288
happened 1287
40 1286
young 1286
ble 1281
may 1281
care 1277
ateur 1275
solution 1274
tard 1274
surface 1272
kids 1270
&#91; 1269
ding 1268
dec@@ 1265
computer 1264
ir 1264
ton 1262
&#93; 1261
trouve 1256
vision 1255
allons 1253
tro@@ 1250
différentes 1248
picture 1248
carolina 1247
family 1247
act 1246
learn 1246
sal@@ 1245
seule 1245
health 1243
enfant 1242
can@@ 1241
parle 1239
pres@@ 1238
ven@@ 1235
all@@ 1234
vient 1233
col@@ 1231
maison 1231
quatre 1229
e-@@ 1228
anything 1226
cont@@ 1224
later 1222
des@@ 1221
int@@ 1220
pan@@ 1216
regardez 1216
autour 1215
quement 1215
réalité 1215
technologies 1215
often 1212
pou@@ 1211
sup@@ 1209
cap@@ 1207
happen 1207
endroit 1205
someone 1205
tiques 1202
ways 1201
école 1201
eh 1199
gl@@ 1199
africa 1196
difficile 1196
idées 1196
afrique 1194
612126 1193
montero 1193
os 1193
ones 1190
situation 1190
certain 1188
ari@@ 1186
met 1186
pen@@ 1186
ette 1185
hand 1184
eu@@ 1183
once 1178
seen 1178
cour@@ 1177
la@@ 1175
bad 1174
quelle 1174
vol@@ 1174
cal@@ 1173
ge@@ 1172
sa@@ 1172
construire 1170
pu 1170
société 1170
war 1170
patients 1169
half 1167
yes 1167
ess@@ 1165
groupe 1164
high 1164
seul 1164
cop@@ 1162
euse 1162
film 1162
gros 1162
super@@ 1162
making 1160
yet 1160
z 1160
ren@@ 1159
teurs 1159
stop 1158
open 1156
pretty 1156
ar 1152
nothing 1152
created 1151
days 1150
pour@@ 1150
remember 1150
enne 1149
cal 1147
table 1146
ideas 1145
fil@@ 1144
changement 1142
niveau 1142
planète 1141
arrive 1138
bio@@ 1138
vue 1137
famille 1136
state 1136
ness 1135
research 1135
ev@@ 1133
guerre 1131
sion 1130
également 1130
looks 1129
book 1127
front 1126
planet 1126
â@@ 1126
ist@@ 1124
structure 1124
har@@ 1121
ch 1119
works 1119
tés 1118
land 1117
nouvelles 1117
already 1116
presque 1116
form 1113
far 1112
rel@@ 1112
else 1111
marché 1111
words 1109
cro@@ 1107
answer 1106
chance 1106
allez 1105
fac@@ 1105
reste 1105
t-@@ 1105
dev@@ 1103
plusieurs 1103
ment@@ 1101
donne 1100
sé@@ 1100
led 1099
happens 1098
alis@@ 1097
bur@@ 1097
faisons 1097
essayer 1096
sometimes 1095
nu@@ 1093
group 1091
line 1091
faites 1090
test 1087
bri@@ 1086
humain 1086
mis@@ 1086
hope 1085
lumière 1085
id@@ 1084
milliards 1084
travailler 1084
wrong 1083
okay 1082
cri@@ 1081
looked 1081
ain 1080
partir 1078
goes 1077
tellement 1077
60 1076
ver 1076
cho@@ 1071
quer 1071
whether 1071
ème 1071
aider 1070
apprendre 1068
child 1068
ni 1067
completely 1066
photo 1065
réponse 1065
produit 1063
read 1063
savons 1062
cer@@ 1061
since 1061
ah 1060
coming 1060
yeux 1058
experience 1057
gh@@ 1057
sujet 1055
dou@@ 1053
père 1051
vis@@ 1051
sol@@ 1049
ï@@ 1047
moyen 1046
ast@@ 1044
ative 1044
humains 1044
mil@@ 1044
esprit 1043
process 1043
ker 1042
rez 1042
tre 1042
set 1041
bas@@ 1039
business 1039
cinq 1039
mère 1039
model 1038
community 1037
finally 1037
différents 1036
iste 1036
ner 1036
billion 1035
ely 1035
état 1035
certaines 1032
donné 1032
montre 1032
instead 1029
rs 1029
mind 1028
avions 1026
house 1025
demandé 1024
ws 1024
aide 1023
recherche 1023
ck 1022
reason 1019
study 1018
animal 1017
base 1017
parfois 1017
rap@@ 1017
huge 1016
ligne 1016
video 1016
haut 1015
woman 1015
éri@@ 1015
months 1014
12 1012
ry 1012
living 1009
commencer 1008
der@@ 1007
ez-vous 1007
cre@@ 1006
grâce 1004
others 1004
ction 1003
hom@@ 1002
ling 1002
era 1001
livre 1001
robot 1001
époque 1001
accord 1000
species 1000
fo@@ 998
large 994
probablement 994
animaux 993
jeu 993
cellules 992
places 990
plan 990
education 989
national 989
night 988
heures 987
tur@@ 987
80 985
off@@ 985
signifie 985
ture 983
ges 982
impact 982
pouvait 982
bor@@ 981
ellement 981
cells 980
true 980
wasn 980
ités 978
order 978
history 977
ty 977
lar@@ 975
ra 975
became 973
ters 973
voulez 970
0@@ 969
control 969
europe 969
keep 969
students 968
den@@ 967
ille 967
until 966
appris 965
he@@ 965
na@@ 965
,000 963
lat@@ 963
word 963
1@@ 962
univers 961
music 960
my@@ 960
stories 959
ites 958
both 957
rendre 957
couldn 955
environnement 955
jou@@ 955
tête 954
aucun 953
bring 953
innovation 953
lis@@ 953
ob@@ 953
top 953
cur@@ 952
ues 952
communauté 951
modèle 949
learned 947
message 947
mother 947
processus 947
psycho@@ 947
government 946
regarder 945
vivre 945
ordinateur 944
plan@@ 944
getting 943
iss@@ 943
phone 943
él@@ 943
ay@@ 942
sau@@ 942
tra@@ 942
heard 941
partout 941
combien 939
prim@@ 939
sti@@ 939
18@@ 938
clo@@ 937
don@@ 937
connec@@ 936
job 936
violence 936
esti@@ 935
fon@@ 935
bas 933
développement 933
society 933
ve@@ 933
aucune 931
dernière 930
ions 930
états-unis 929
decided 928
début 928
friends 928
petits 928
happy 927
venir 927
company 926
collec@@ 925
share 925
aurait 924
level 924
pensé 924
mort 923
mots 922
pal@@ 921
intérieur 920
language 920
nor@@ 920
points 920
ég@@ 920
heart 919
such 919
teur 919
turn 919
universe 919
takes 917
ateurs 916
complètement 916
qué 916
voiture 916
out@@ 915
tou@@ 915
matter 914
amis 913
position 913
ed@@ 912
rée 912
aime 911
continu@@ 911
devenir 911
middle 911
ay 910
dic@@ 908
ets 908
patient 908
the@@ 907
head 906
meilleur 903
voy@@ 903
musique 902
politique 901
commence 899
0s 897
25 897
met@@ 897
né 896
tionn@@ 896
informations 895
devez 893
myself 893
histoires 891
animals 890
production 889
ché 888
comp@@ 888
shows 888
disent 886
tour@@ 886
voit 886
environment 884
google 884
lin@@ 884
syn@@ 884
fe@@ 882
gave 882
ig@@ 882
under 882
knew 881
site 881
afin 880
vidéo 880
ics 879
tons 879
blo@@ 878
sec@@ 878
source 877
nom 876
incroyable 875
intéressant 872
tes@@ 871
ff@@ 870
peur 870
father 869
érer 869
appelé 868
créé 868
voulais 868
american 866
entendu 866
fr@@ 865
sho@@ 863
pas@@ 862
web 862
gs 861
porte 861
hear 859
ba@@ 858
ze 858
enti@@ 857
mat@@ 857
war@@ 857
dieu 855
god 855
types 855
ard 854
happening 854
rent 854
bal@@ 853
ire 853
propos 853
dernières 852
flo@@ 851
sive 850
capacité 849
mer@@ 849
sent 849
hours 848
realized 848
500 845
incredible 845
son@@ 845
appro@@ 844
moving 844
val@@ 844
entes 842
ger@@ 842
impossible 841
loin 841
ain@@ 840
explo@@ 840
having 840
local 840
robots 840
saying 840
décidé 839
gro@@ 839
disease 838
gouvernement 838
ach@@ 837
actions 837
century 837
marche 837
2@@ 836
villes 836
name 835
poser 834
sait 834
jeunes 832
ori@@ 832
lequel 831
pass@@ 831
across 830
voyons 830
market 829
over@@ 829
abord 828
rend@@ 826
built 825
single 825
donn@@ 824
least 824
black 823
cities 823
effet 823
futur 822
imagin@@ 822
lim@@ 822
exactement 821
grandes 821
leave 821
s-@@ 821
rem@@ 820
anti@@ 819
tel 819
exactly 818
capable 817
entr@@ 817
companies 815
dent 814
fais 814
os@@ 814
against 813
her@@ 813
guy 812
ner@@ 811
centre 810
compassion 810
die 810
india 810
choix 809
won 809
worked 809
dernier 808
pensez 808
third 808
tres 808
siècle 807
themselves 807
70 806
bon@@ 806
celui 806
fai@@ 806
milliers 805
systems 805
code 804
game 804
ré 804
ss@@ 803
cli@@ 802
kinds 802
mondiale 802
selon 802
équipe 802
celle 801
fish 800
ties 800
audience 799
natural 799
alité 798
grands 798
rés 798
dis 797
ourselves 797
sort 797
ier 796
chi@@ 795
existe 795
changed 794
éducation 794
esse 793
gets 792
key 792
écrit 792
beginning 791
cell 790
conditions 790
demande 790
mesure 790
mot 790
nourriture 790
sent@@ 790
sécurité 790
view 790
chacun 789
inde 789
iter 788
ings 787
amour 786
découvert 784
hy@@ 784
systèmes 784
18 783
powerful 783
iques 781
att@@ 780
dy 780
inside 780
police 780
11 779
taking 779
contr@@ 778
thousands 778
pose 777
prix 776
compar@@ 775
fille 775
neuro@@ 775
gue 774
itself 774
bul@@ 772
quite 772
virus 772
dois 771
ends 771
inv@@ 771
non-@@ 770
village 770
ber 769
coup 769
turns 768
voulons 768
économie 767
identi@@ 766
rapidement 766
difficult 765
jouer 765
media 764
199@@ 763
continue 763
rather 763
ty@@ 762
chris 761
tation 760
ann@@ 759
ists 759
200 758
ing@@ 758
réellement 758
team 758
ful 757
based 756
hor@@ 756
men@@ 756
piece 756
ente 754
ga@@ 754
devant 753
center 752
longer 750
taille 748
meilleure 747
cation 745
ris@@ 745
scientifiques 745
arriver 744
compris 744
15@@ 743
common 743
contribu@@ 742
regarde 741
vent 741
dessus 740
difference 740
unique 740
importante 739
ressemble 739
tics 739
america 738
photos 738
rer 738
semble 738
suite 738
ais@@ 736
eyes 735
page 735
adap@@ 734
ments 734
though 734
wi@@ 734
étudiants 734
dro@@ 733
service 733
version 732
china 731
pul@@ 731
voix 731
news 730
permet 728
economic 727
bre@@ 725
entier 725
fa@@ 725
amazing 724
normal 724
ature 723
endroits 723
prenez 723
tures 723
vies 723
âge 723
90 722
finalement 722
istes 722
milieu 722
turned 722
maladie 721
mit 720
comm@@ 719
ète 719
ce@@ 718
euses 717
solutions 717
changes 715
cher@@ 715
chine 715
longtemps 715
mêmes 714
basically 713
david 713
publi@@ 712
rou@@ 712
utilise 711
prom@@ 710
sha@@ 710
white 710
cy@@ 709
direction 709
etc 709
machines 709
sound 709
behind 708
humaine 708
walk 708
wonderful 708
différence 707
free 706
mine 706
during 705
entreprises 705
learning 705
obtenir 705
ess 704
ground 704
gé@@ 704
petites 704
seven 704
fut 703
green 703
changé 702
facile 702
physi@@ 702
part@@ 700
énorme 700
air@@ 699
heureux 699
low 699
mouvement 699
ê@@ 699
architecture 698
dû 698
iser 698
ories 698
tement 698
év@@ 698
port@@ 697
sk@@ 697
elec@@ 696
ang@@ 695
somebody 695
spent 695
yeah 695
bru@@ 694
sel@@ 694
ted@@ 693
amérique 692
area 692
ali@@ 691
interested 691
ad 690
devenu 690
plein 690
spend 690
tic@@ 689
active 688
viol@@ 688
friend 687
puisse 687
services 687
complex 686
droit 686
cool 685
intelligence 685
yourself 685
field 684
ism 684
mp@@ 684
quickly 684
échelle 684
issent 683
rai@@ 683
veulent 683
ked 682
produits 681
tis@@ 681
ell@@ 680
mas@@ 680
tif 680
within 680
pay@@ 679
easy 677
jeune 676
rons 676
demander 675
extr@@ 675
program 675
outside 674
af@@ 673
réseau 673
sin@@ 673
taken 673
cen@@ 672
gauche 670
salle 670
st 670
viennent 670
bat@@ 669
lab 669
ocean 668
16 667
croissance 667
dra@@ 667
imaginez 667
inf@@ 667
nouveaux 667
political 667
produire 667
app@@ 666
ea@@ 666
devrait 665
humans 665
death 664
spec@@ 664
vite 664
16@@ 663
17@@ 663
deuxième 663
qui@@ 663
dat@@ 662
grand@@ 662
porter 662
we@@ 662
eng@@ 661
ile 661
sud 661
ency 660
mètres 660
uni@@ 660
vari@@ 660
10@@ 659
arrivé 659
run 659
grow 658
pay 658
concept 657
utilisé 657
ection 656
ane 655
nuit 655
reality 655
street 655
ther@@ 655
south 654
étude 654
devient 653
john 653
particular 653
scale 653
aimerais 652
différent 652
doivent 652
eg@@ 652
bel@@ 651
posé 650
rac@@ 649
contrôle 648
entire 648
entreprise 647
solve 646
ager 645
micro@@ 645
mission 645
pourtant 645
size 645
université 645
allé 644
born 644
particulier 644
close 643
needs 643
trouv@@ 643
èrent 643
cel@@ 642
lorsqu&apos; 642
lost 642
buy 641
dem@@ 641
ettes 641
inst@@ 641
parlé 641
zone 641
knowledge 640
ck@@ 639
tal@@ 639
tre@@ 639
autant 638
fro@@ 638
nes 638
imaginer 637
prof@@ 637
derrière 636
ended 636
ind@@ 636
physique 636
attend@@ 635
blue 635
erait 635
mains 635
parts 635
terms 635
week 635
given 634
clair 633
growth 632
parti@@ 632
tru@@ 632
wouldn 631
cost 630
mars 630
conférence 629
importance 629
lie 629
programme 629
étions 629
ili@@ 628
prise 628
ana 627
ences 627
fonctionne 627
ant@@ 626
eight 626
centaines 625
climate 625
early 625
partager 624
visu@@ 624
access 623
pouvais 623
seconde 623
sen@@ 623
sor@@ 623
ste 623
allow 622
construction 622
est@@ 622
nord 622
soleil 622
voie 622
leaders 621
uses 621
aff@@ 620
ey 620
poor 620
areas 619
bes 619
carte 619
cin@@ 619
institutions 619
moitié 619
movement 619
voudrais 619
support 618
ator 617
ke@@ 617
d-@@ 616
stage 616
ta 615
,@@ 614
books 614
gives 614
soon 614
tez 614
write 614
parmi 613
personn@@ 613
prin@@ 613
propres 613
da 612
economy 612
mou@@ 612
oil 612
rom@@ 612
résultats 612
justice 611
présent 611
construit 610
pourraient 610
ice 609
international 609
opportunity 609
pli@@ 609
terme 609
tried 609
anc@@ 608
droite 608
especially 608
log@@ 608
lou@@ 608
maladies 608
map 608
paper 608
san@@ 608
semaines 608
cat@@ 607
constru@@ 607
den 607
thé@@ 607
eal 606
gri@@ 606
ins@@ 606
realize 606
step 606
inten@@ 605
ô@@ 605
14 604
dé 604
mag@@ 604
pil@@ 604
réalis@@ 604
éré 604
heure 602
figure 601
fs 601
prend 600
soient 600
law 599
pé@@ 599
calcul@@ 598
wing 598
formes 597
pensent 597
prison 597
résoudre 596
weeks 596
impression 595
prenons 595
produce 595
quent 595
scientists 595
developed 594
ming 594
semaine 594
vers@@ 594
évolution 594
ambi@@ 593
communication 593
pat@@ 593
atta@@ 592
felt 592
pri@@ 592
avenir 590
network 590
montré 589
west 589
del@@ 588
value 588
ail 587
termes 587
én@@ 587
croy@@ 586
ented 586
fri@@ 586
scientifique 586
stuff 586
allows 585
ons-nous 585
talked 585
livres 584
pensons 584
raisons 584
illes 582
nombreux 582
wrote 582
acy 581
positive 581
san 581
analy@@ 580
ati@@ 580
lire 580
under@@ 580
économique 580
ailleurs 579
ath@@ 578
bs 578
espèces 578
filles 578
known 578
plac@@ 578
behavior 577
isme 577
autor@@ 575
relation 575
dna 574
minute 574
pièce 574
average 573
hands 573
ç@@ 573
expli@@ 572
fied 572
form@@ 572
bout 571
eat 571
full 571
impli@@ 571
outils 571
several 571
ade 570
adop@@ 570
durant 570
fort 570
hun@@ 570
sil@@ 570
super 570
vir@@ 570
13 569
adi@@ 569
sous-@@ 569
ved 569
aura 568
nombreuses 568
objets 568
rait 568
ship 568
cs 567
save 567
étant 567
connu 566
discovered 566
dit@@ 566
gener@@ 566
risk 566
résultat 566
forces 565
hundreds 565
send 565
challenge 564
comportement 564
réfléch@@ 564
accès 562
arr@@ 562
conversation 562
ders 562
development 562
everyone 562
til@@ 562
wh@@ 562
mem@@ 561
ot 561
rapport 561
sortes 561
blood 560
hon@@ 560
ical 560
our@@ 560
rement 560
sortir 560
travaille 560
valeur 559
— 559
aut@@ 558
seems 558
viv@@ 558
adn 557
fier 557
girl 557
ession 556
sol 556
0,000 555
disait 555
ther 555
tional 555
ami 554
sea 554
zed 554
bottom 553
cars 553
comman@@ 553
deal 553
det@@ 553
enfin 553
espèce 553
ian 553
tives 553
voyage 553
gre@@ 552
différente 551
faisant 551
jeux 551
laisser 551
souff@@ 551
late 550
lors 550
t-il 550
premiers 549
tan@@ 549
yer 549
abor@@ 548
ham@@ 548
meters 548
scène 548
théorie 548
wall 548
aise 547
needed 547
rest 547
tor 547
américains 546
fast 546
médi@@ 546
o-@@ 546
radi@@ 546
rec@@ 546
v 546
result 545
tirer 545
alone 544
entre@@ 544
goal 544
self-@@ 544
ality 543
hum@@ 543
là-bas 543
oubli@@ 543
ressources 543
suivre 543
études 543
int 542
theory 542
tools 542
dar@@ 541
espère 541
lib@@ 541
produc@@ 541
fond 540
bons 539
brought 539
lé@@ 539
medical 539
soci@@ 539
forward 538
morning 538
taux 538
écrire 538
ement@@ 537
réel 537
tour 537
aw@@ 536
cle 536
acc@@ 535
chan@@ 535
journey 535
mental 535
ory 535
sun 535
ton@@ 535
ving 535
voice 535
isol@@ 534
océan 534
éch@@ 534
aine 533
bed 533
groupes 533
const@@ 532
creating 532
died 532
enc@@ 532
né@@ 532
tle 532
explain 531
fini 531
ront 531
ail@@ 530
intéress@@ 530
ordinateurs 530
représent@@ 530
troisième 530
university 530
z-vous 530
began 529
réalisé 529
groups 528
personal 528
pain 527
past 527
cit@@ 526
connected 526
domin@@ 526
kid 526
née 526
up@@ 526
cœur 525
evolution 525
journée 525
terri@@ 525
understanding 525
ans@@ 524
numbers 524
parties 524
cale 523
physical 523
attr@@ 522
digital 522
es-@@ 522
expliquer 522
fun 522
utilis@@ 522
utilisant 522
ram@@ 521
écr@@ 521
essayé 520
gènes 520
ish 520
reasons 520
secret 520
starting 520
girls 519
mauvais 519
moral 519
tée 519
associ@@ 518
pol@@ 518
pourrions 518
article 517
perspective 517
pes 517
ples 517
encour@@ 516
exam@@ 516
ning 516
perfect 516
allait 515
téléphone 515
vois 515
développer 514
gag@@ 514
generation 514
conscience 513
hold 513
online 513
religion 513
rend 513
domaine 512
faisait 512
300 511
atives 511
crimin@@ 511
designed 511
nobody 511
produ@@ 511
vivent 511
198@@ 510
classe 510
fils 510
pur@@ 510
strong 510
telling 510
je@@ 509
north 509
règles 509
sav@@ 508
combin@@ 507
espoir 507
ki@@ 507
program@@ 507
relationship 507
risque 507
sch@@ 507
security 507
vitesse 507
zones 507
oper@@ 506
raconter 506
reli@@ 506
resources 506
réfléchir 506
sem@@ 506
confiance 505
inqui@@ 505
ley 505
photo@@ 505
voitures 505
24 504
eri@@ 504
kin@@ 504
lam@@ 504
pren@@ 504
puis@@ 504
sam@@ 504
fly 503
likely 503
prot@@ 503
qualité 503
afghanistan 502
amount 502
assis 502
beyond 502
expériences 502
matin 502
quantité 502
bran@@ 501
chemin 501
forms 501
instant 501
travaillé 501
passion 500
moments 499
scientific 499
seeing 499
showed 499
voulait 499
a-@@ 498
box 498
ciens 498
papier 498
succès 498
atteindre 497
cut 497
langage 497
objet 497
od@@ 497
arrê@@ 496
dès 496
fear 496
fer 496
lég@@ 496
mét@@ 496
clear 495
dark 495
dom@@ 495
matière 495
verse 495
anyone 494
choice 494
developing 494
entend@@ 494
habitu@@ 494
lots 494
musi@@ 494
pictures 494
projets 494
ths 494
uns 494
whatever 494
collabor@@ 493
génération 493
rendu 493
ress@@ 493
bro@@ 492
cally 492
certaine 492
demand@@ 492
distance 492
fun@@ 492
gén@@ 492
largest 492
obs@@ 492
surtout 492
terrible 492
vic@@ 492
computers 491
giving 491
ign@@ 491
occu@@ 491
sexu@@ 491
board 490
lif@@ 490
ls 490
pauvres 490
quel@@ 490
sig@@ 490
tab@@ 490
approach 489
arti@@ 489
avi@@ 489
drugs 489
ear@@ 489
lived 489
pap@@ 489
sembl@@ 489
tend 489
approche 488
cé@@ 488
sitting 488
tenir 488
tt@@ 488
fication 487
modèles 487
sites 487
traitement 487
ying 487
constitu@@ 486
coun@@ 486
optimis@@ 486
venu 486
oc@@ 485
organis@@ 485
pin@@ 485
recherches 485
tap@@ 485
12@@ 484
allowed 484
arrière 484
develop 484
facebook 484
ha 484
ha@@ 484
meet 484
plant 484
short 484
utilisent 484
english 483
ill 483
industry 483
lose 483
rouge 483
zo@@ 483
diri@@ 482
gars 482
iner 482
iv@@ 482
ong 482
bonnes 481
chercher 481
dur@@ 481
exp@@ 481
influence 481
knows 481
perhaps 481
projects 481
rights 481
seem 481
sex 481
present 480
quelles 480
relations 480
terrain 480
accep@@ 479
capables 479
emer@@ 479
esp@@ 479
frag@@ 479
logique 479
modern 479
stay 479
bill 478
elisabeth 478
hab@@ 478
haven 478
medi@@ 478
ously 478
quant 478
rules 478
239263 477
buffard 477
ects 477
gone 477
iz@@ 477
rus@@ 477
similar 477
structures 477
teach 477
tendance 477
bâtiment 476
far@@ 476
seront 476
arrêter 475
dance 475
deep 475
distin@@ 475
playing 475
dan 474
observ@@ 474
radio 474
rôle 474
soli@@ 474
arriv@@ 473
changing 473
extraordinary 473
ports 473
results 473
sociaux 473
tells 473
vérité 473
abilité 472
di 472
histor@@ 472
loc@@ 472
ly@@ 472
re-@@ 472
ster 472
plants 471
rue 471
asking 470
cha@@ 470
les@@ 470
multi@@ 470
mé 470
parl@@ 470
quality 470
recently 470
êtres 470
crise 469
droits 469
découvrir 469
mc@@ 469
pon@@ 469
arg@@ 468
faite 468
général 468
hi 468
savent 468
sept 468
bras 467
meilleurs 467
monter 467
visage 467
3d 466
disant 466
répon@@ 466
central 465
imagination 465
lon@@ 465
rate 465
sum@@ 465
cherch@@ 464
climatique 464
politiques 464
pourriez 464
rées 464
ciel 463
general 463
choose 462
color 462
crée 462
hol@@ 462
mechan@@ 462
telle 462
effective 461
final 461
che@@ 460
fol@@ 460
az@@ 459
extrêmement 459
growing 459
lev@@ 459
objects 459
success 459
pouvaient 458
wer 458
17 457
contact 457
ennes 457
récemment 457
éco@@ 457
ected 456
experiment 456
human@@ 456
kes 456
listen 456
pho@@ 456
rester 456
acheter 455
bureau 455
conception 455
gol@@ 455
initi@@ 455
jobs 455
pers@@ 455
solar 455
vou@@ 455
capital 454
changements 454
nation 454
nent 454
tho@@ 454
truc 454
wor@@ 454
xi@@ 454
east 453
object 453
repres@@ 453
ases 452
gam@@ 452
industrie 452
neu@@ 452
ci 451
concer@@ 451
défi 451
eli@@ 451
fight 451
gal@@ 451
hour 451
moved 451
présent@@ 451
along 450
med 450
provi@@ 450
devrions 449
faits 449
must 449
perdu 449
wait 449
employ@@ 447
former 447
fabri@@ 446
gie 446
iez 445
miles 445
peine 445
product 445
aid 444
défin@@ 444
développ@@ 444
ically 444
vert 444
celui-ci 443
los 443
office 443
tion@@ 443
court 442
either 442
fascin@@ 442
inclu@@ 442
land@@ 442
loi 442
organisation 442
prochaine 442
q@@ 442
absolument 441
affec@@ 441
becomes 441
fall 441
id 441
mari@@ 441
pens@@ 441
reven@@ 441
sauv@@ 441
tar@@ 441
vend@@ 441
anglais 440
causes 440
celles 440
conclu@@ 440
expression 440
follow 440
fre@@ 440
humanité 440
revolution 440
rich 440
sein 440
sociétés 440
tomb@@ 440
wants 440
considé@@ 439
dur 439
qués 439
réussi 439
trai@@ 439
trucs 439
vie@@ 439
diff@@ 438
marcher 438
mobile 438
moyenne 438
raient 438
retour@@ 438
role 438
financi@@ 437
happiness 437
hydro@@ 437
médicaments 437
particulièrement 437
satis@@ 437
tra 437
éléments 437
ars 436
– 436
lé 435
plu@@ 435
représente 435
sounds 435
swe@@ 435
belle 434
chinese 434
individual 434
tas 434
win@@ 434
élec@@ 434
va@@ 433
progr@@ 432
période 432
série 432
teachers 432
arri@@ 431
creative 431
noir 431
ol 431
port 431
reçu 431
sac@@ 431
souris 431
tw@@ 431
améliorer 430
bomb@@ 430
chem@@ 430
entraî@@ 430
fix@@ 430
sé 430
techniques 430
étudier 430
available 429
baby 429
deli@@ 429
dispar@@ 429
fonctionn@@ 429
illustr@@ 429
ion 429
nations 429
ste@@ 429
activité 428
add 428
continuer 428
dri@@ 428
focus 428
material 428
organization 428
ouv@@ 428
préf@@ 428
révolution 428
a-t-il 427
arch@@ 427
mauvaise 427
pétrole 427
souhai@@ 427
virtu@@ 427
14@@ 426
ched 426
existence 426
route 426
shape 426
travaill@@ 426
bil@@ 425
charge 425
etats-unis 425
lab@@ 425
moyens 425
mul@@ 425
occup@@ 425
ours 425
région 425
atten@@ 424
explor@@ 424
infrastructure 424
lent 424
logi@@ 424
sensi@@ 424
tait 424
1,@@ 423
concentr@@ 423
est-il 423
incredibly 423
list 423
models 423
tent@@ 423
économ@@ 423
alement 422
crazy 422
ef 422
essay@@ 422
examples 422
guys 422
ina 422
isn 422
ple 422
vécu 422
class 421
distribu@@ 421
erie 421
exemples 421
obviously 421
absolutely 420
bre 420
bus 420
evidence 420
lea@@ 420
pire 420
sie 420
sym@@ 420
tex@@ 420
z-@@ 420
activity 419
ayant 419
bigger 419
college 419
dd@@ 419
drug 419
measure 419
migr@@ 419
performance 419
som@@ 419
ti 419
forc@@ 418
invent@@ 418
pla@@ 418
truth 418
ajou@@ 417
beau 417
conduc@@ 417
dead 417
forest 417
protect 417
réaliser 417
ster@@ 417
symbo@@ 417
u.@@ 417
cependant 416
crisis 416
gies 416
prépar@@ 415
tem@@ 415
écou@@ 415
ators 414
camera 414
complexe 414
graphique 414
nic@@ 414
rapide 414
brea@@ 413
dimensions 413
logy 413
ong@@ 413
reading 413
traver@@ 413
univers@@ 413
déf@@ 412
gé 412
involved 412
spread 412
cations 411
equ@@ 411
favorite 411
itaire 411
nom@@ 411
pic@@ 411
pt 411
series 411
she@@ 411
special 411
tors 411
élev@@ 411
laboratoire 410
month 410
vement 410
assu@@ 409
bonheur 409
couleur 409
excit@@ 409
extremely 409
flu@@ 409
mel@@ 409
ns 409
rencontré 409
scar@@ 409
x-@@ 409
ben@@ 408
entendre 408
experts 408
han 408
schools 408
twitter 408
autonom@@ 407
colon@@ 407
eaux 407
games 407
major 407
posed 407
ran@@ 407
usually 407
commen@@ 406
cru@@ 406
diver@@ 406
dream 406
ently 406
everywhere 406
fil 406
onne 406
products 406
tun@@ 406
écoles 406
accident 405
cycle 405
econom@@ 405
fau@@ 405
ged 405
however 405
lines 405
lt 405
ome 405
poverty 405
simply 405
speed 405
tiny 405
watch 405
writing 405
agriculture 404
among 404
anymore 404
aspect 404
ational 404
dre@@ 404
feeling 404
grav@@ 404
ize 404
ot@@ 404
ping 404
talks 404
viens 404
197@@ 403
25@@ 403
alli@@ 403
doute 403
gène 403
ready 403
star@@ 403
équ@@ 403
avère 402
croire 402
date 402
duc@@ 402
fem@@ 402
materials 402
nine 402
race 402
tically 402
wal@@ 402
alized 401
chap@@ 401
device 401
doctor 401
effect 401
individu@@ 401
mode 401
médias 401
permettre 401
stu@@ 401
surprise 401
tend@@ 401
trac@@ 401
vieux 401
compos@@ 400
embr@@ 400
esses 400
liste 400
proto@@ 400
current 399
four@@ 399
humanity 399
mont@@ 399
richard 399
trust 399
activ@@ 398
appelée 398
arm@@ 398
coll@@ 398
fundamental 398
indre 398
logie 398
record 398
teacher 398
utilisons 398
motiv@@ 397
potential 397
répondu 397
studies 397
atif 396
paix 396
ref@@ 396
sciences 396
strange 396
worth 396
bour@@ 395
conn@@ 395
gran@@ 395
lui-même 395
manger 395
pages 395
peace 395
proche 395
road 395
savais 395
serv@@ 395
starts 395
cultures 394
families 394
façons 394
non@@ 394
paul 394
sociale 394
totalement 394
uniquement 394
éro@@ 394
création 393
cultural 393
guess 393
huit 393
lesquelles 393
literally 393
park 393
sky 393
stress 393
suiv@@ 393
technique 393
walking 393
aiss@@ 392
alisation 392
break 392
endre 392
engag@@ 392
laissez-moi 392
offi@@ 392
transformer 392
écran 392
atte@@ 391
democracy 391
films 391
gues 391
pression 391
rés@@ 391
œu@@ 391
$ 390
efficace 390
envoyer 390
ka 390
nice 390
revenir 390
squ@@ 390
suddenly 390
tal 390
émer@@ 390
ach 389
anim@@ 389
basic 389
dly 389
idé@@ 389
itation 389
minds 389
ow@@ 389
progress 389
sli@@ 389
student 389
auparavant 388
dehors 388
dollar 388
démocratie 388
improve 388
invisible 388
signal 388
software 388
carbon 387
certainly 387
chant 387
chiffres 387
cis@@ 387
high-@@ 387
ized 387
liberté 387
pauvreté 387
pouss@@ 387
retour 387
ss 387
wn 387
cannot 386
cles 386
couple 386
deviennent 386
door 386
répondre 386
thu@@ 386
vacc@@ 386
45 385
brill@@ 385
exist 385
infec@@ 385
rép@@ 385
tests 385
wish 385
boy 384
carbone 384
dre 384
extraordinaire 384
feet 384
frapp@@ 384
lever 384
médecine 384
pensais 384
serious 384
speak 384
vraie 384
communities 383
conf@@ 383
reç@@ 383
sing 383
sw@@ 383
washington 383
waste 383
appli@@ 382
eye 382
laiss@@ 382
aging 381
classi@@ 381
ear 381
famous 381
peau 381
phones 381
song 381
total 381
tv 381
ave 380
avion 380
designers 380
discours 380
développé 380
essed 380
langue 380
star 380
étrang@@ 380
40@@ 379
aci@@ 379
américain 379
doctors 379
gence 379
littéralement 379
mass 379
ore@@ 379
ys 379
angle 378
enf@@ 378
habit@@ 378
pped 378
putting 378
screen 378
agent 377
ption 377
running 377
stars 377
cales 376
complicated 376
crime 376
dy@@ 376
familles 376
fran@@ 376
isé 376
predic@@ 376
regardé 376
ador@@ 375
connect 375
content 375
exciting 375
forêt 375
grew 375
incroyablement 375
lower 375
row 375
solaire 375
400 374
anyway 374
buildings 374
cellule 374
dig@@ 374
faster 374
integr@@ 374
sens@@ 374
square 374
suivante 374
tations 374
tin@@ 374
tôt 374
évidemment 374
apprentissage 373
arbres 373
compl@@ 373
due 373
hospital 373
importantes 373
including 373
james 373
messages 373
provo@@ 373
puissance 373
respect 373
sleep 373
appropri@@ 372
cien 372
commun 372
expensive 372
glace 372
longue 372
plantes 372
premières 372
professeur 372
quée 372
robo@@ 372
sang 372
sépar@@ 372
biolog@@ 371
camp 371
capit@@ 371
carto@@ 371
gas 371
hal@@ 371
hau@@ 371
lun@@ 371
parti 371
ridi@@ 371
traiter 371
ands 370
audi@@ 370
bres 370
co2 370
emb@@ 370
entrer 370
increase 370
memory 370
pensée 370
réseaux 370
suit 370
arts 369
celle-ci 369
communautés 369
enter 369
medicine 369
press 369
reti@@ 369
reux 369
thomas 369
2000 368
agir 368
aves 368
disons 368
effort 368
essi@@ 368
loved 368
notion 368
nov@@ 368
priv@@ 368
protection 368
sauver 368
trees 368
automati@@ 367
hypo@@ 367
reach 367
ser 367
ace 366
ades 366
connaiss@@ 366
directement 366
eric 366
geo@@ 366
gor@@ 366
jam@@ 366
pieces 366
protéger 366
racon@@ 366
recognize 366
worse 366
freedom 365
mise 365
net 365
sentiment 365
simples 365
treatment 365
vivant 365
caus@@ 364
dents 364
foot 364
lement 364
milli@@ 364
although 363
contrô@@ 363
espér@@ 363
fire 363
fié 363
gent 363
modi@@ 363
tiers 363
touch 363
wat@@ 363
wo@@ 363
cases 362
din@@ 362
enseign@@ 362
feu 362
permis 362
sun@@ 362
traditionn@@ 362
trom@@ 362
unfortunately 362
cer 361
distribution 361
hand@@ 361
income 361
tool 361
visual 361
électricité 361
cks 360
devait 360
diseases 360
fully 360
milit@@ 360
mod@@ 360
u.s. 360
acqu@@ 359
cket 359
financial 359
fou@@ 359
sit 359
soins 359
soir 359
trouvent 359
affaires 358
clim@@ 358
continent 358
corruption 358
galaxies 358
lead 358
matériaux 358
mur 358
ney 358
siez 358
tree 358
ure 358
bin@@ 357
dangerous 357
ered 357
glob@@ 357
génér@@ 357
lation 357
military 357
pied 357
ri 357
sell 357
sorts 357
35 356
destro@@ 356
issues 356
membres 356
microbes 356
réduire 356
transform@@ 356
haute 355
le-@@ 355
mit@@ 355
prennent 355
wind 355
alités 354
difficul@@ 354
excited 354
graphie 354
killed 354
possibilité 354
ries 354
taught 354
avez-vous 353
dites 353
except 353
hundred 353
ka@@ 353
publique 353
rar@@ 353
sc@@ 353
tas@@ 353
tuer 353
évolu@@ 353
23@@ 352
amélior@@ 352
anti-@@ 352
collective 352
commencent 352
electricity 352
itable 352
meaning 352
nuclear 352
oun@@ 352
t&apos; 352
toi 352
appear 351
au-delà 351
brains 351
cule 351
genes 351
laws 351
listening 351
origine 351
partage 351
smart 351
temp@@ 351
tical 351
étape 351
ationn@@ 350
chois@@ 350
effectivement 350
extérieur 350
hel@@ 350
interest 350
leg@@ 350
michael 350
ray@@ 350
age@@ 349
cartes 349
chent 349
cortex 349
gagner 349
kilomètres 349
private 349
raise 349
étonn@@ 349
chinois 348
cold 348
george 348
malgré 348
nant 348
portable 348
clearly 347
despite 347
direc@@ 347
fallait 347
higher 347
intérêt 347
ister 347
lit 347
path 347
spéci@@ 347
tension 347
introdu@@ 346
malheureusement 346
manque 346
sses 346
stimul@@ 346
tox@@ 346
treat 346
accu@@ 345
appréci@@ 345
aspects 345
avis 345
bank 345
bodies 345
context 345
discover 345
ides 345
isation 345
isent 345
kilometers 345
lois 345
masse 345
particularly 345
présente 345
reduce 345
algorith@@ 344
coût 344
ext@@ 344
healthy 344
imp@@ 344
jan@@ 344
math 344
remarqu@@ 344
trou@@ 344
weight 344
whe@@ 344
yp@@ 344
contexte 343
direct 343
fonction 343
gaz 343
nég@@ 343
payer 343
pit@@ 343
pratique 343
skin 343
zero 343
americans 342
avanc@@ 342
ba 342
gouvernements 342
issons 342
main@@ 342
mondial 342
period 342
pousser 342
suivant 342
sul@@ 342
tax@@ 342
travaillent 342
tées 342
24@@ 341
certainement 341
cité 341
conserv@@ 341
matique 341
numéro 341
prises 341
privil@@ 341
anderson 340
assembl@@ 340
courant 340
effets 340
intelligent 340
ium 340
liber@@ 340
morceau 340
notice 340
activis@@ 339
aim@@ 339
formation 339
individus 339
km 339
mourir 339
sources 339
trice 339
vag@@ 339
&amp; 338
citoyens 338
enregistr@@ 338
individuals 338
install@@ 338
museum 338
president 338
progrès 338
smo@@ 338
éti@@ 338
agri@@ 337
ide 337
myst@@ 337
named 337
nécessaire 337
professionn@@ 337
wife 337
écouter 337
élé@@ 337
african 336
ash@@ 336
choisir 336
compli@@ 336
entation 336
hit 336
lar 336
regu@@ 336
sité 336
traditional 336
voler 336
éviter 336
abandonn@@ 335
actuellement 335
auth@@ 335
bab@@ 335
ching 335
discu@@ 335
génial 335
intéressante 335
objectif 335
showing 335
vivons 335
agé 334
asi@@ 334
capitalis@@ 334
de-@@ 334
fré@@ 334
infin@@ 334
movie 334
nécess@@ 334
secondes 334
étoiles 334
according 333
astronom@@ 333
biology 333
conse@@ 333
désormais 333
governments 333
ken@@ 333
ote 333
safe 333
tiv@@ 333
tom@@ 333
tél@@ 333
bacteria 332
cian 332
interaction 332
perception 332
poids 332
van@@ 332
ball 331
bébé 331
chanson 331
hop@@ 331
lan@@ 331
magazine 331
march@@ 331
nam@@ 331
réponses 331
simpli@@ 331
stri@@ 331
tiens 331
-là 330
afri@@ 330
concevoir 330
ignor@@ 330
manu@@ 330
neurones 330
outil 330
sentir 330
training 330
utile 330
wonder 330
workers 330
anda 329
arm 329
eff@@ 329
mang@@ 329
moi-même 329
mée 329
que@@ 329
aurais 328
collaboration 328
foun@@ 328
graphic 328
naturel 328
présentation 328
biggest 327
clu@@ 327
dea@@ 327
diversity 327
dix 327
dor@@ 327
eth@@ 327
explore 327
irs 327
journalis@@ 327
merveilleux 327
observer 327
personnel 327
pun@@ 327
spécifi@@ 327
transformation 327
citizens 326
coin 326
danger 326
diversité 326
ean 326
ery 326
hôpital 326
kers 326
morts 326
ods 326
puissant 326
quar@@ 326
slow 326
vit 326
00 325
150 325
biologie 325
condu@@ 325
dge 325
effects 325
invented 325
kill 325
mur@@ 325
obvious 325
ouvert 325
physics 325
published 325
sons 325
13@@ 324
apport@@ 324
armes 324
berg 324
cir@@ 324
deven@@ 324
ect 324
eté 324
faible 324
lor@@ 324
recogni@@ 324
repli@@ 324
respec@@ 324
rire 324
trav@@ 324
zz@@ 324
collègues 323
dés 323
gouvern@@ 323
ited 323
profit 323
rup@@ 323
tter 323
win 323
anybody 322
appareil 322
budget 322
career 322
connaissance 322
costs 322
expect 322
immediately 322
ok@@ 322
seconds 322
stand 322
unes 322
196@@ 321
atifs 321
clin@@ 321
inspir@@ 321
inte 321
jet@@ 321
marine 321
new@@ 321
scre@@ 321
acti@@ 320
application 320
consci@@ 320
ep@@ 320
hér@@ 320
note 320
plastic 320
rédu@@ 320
sy@@ 320
allais 319
américaine 319
chef 319
co 319
ires 319
ko@@ 319
notes 319
opportunité 319
précé@@ 319
ressent@@ 319
sl@@ 319
towards 319
transport@@ 319
voient 319
19 318
aines 318
bag@@ 318
construc@@ 318
eter 318
fic@@ 318
gene 318
green@@ 318
ingly 318
island 318
libre 318
neurons 318
nés 318
rêve 318
shown 318
waiting 318
-je 317
abil@@ 317
allu@@ 317
ase 317
faux 317
ial 317
lau@@ 317
lien 317
moderne 317
mondi@@ 317
parlons 317
revenu 317
station 317
supposed 317
anna 316
carrière 316
commençons 316
conflict 316
enter@@ 316
ere 316
ese 316
mid@@ 316
organiz@@ 316
sustainable 316
tels 316
venant 316
visi@@ 316
beings 315
centi@@ 315
politics 315
skills 315
atom@@ 314
cover 314
décou@@ 314
efforts 314
ever@@ 314
faces 314
forget 314
ive 314
mathématiques 314
pourrais 314
sauf 314
tient 314
visible 314
ack 313
finir 313
hey 313
mobil@@ 313
nan@@ 313
ned 313
price 313
valeurs 313
clean 312
decisions 312
ell 312
essayons 312
investiss@@ 312
jer@@ 312
médecin 312
provide 312
suff@@ 312
tifs 312
useful 312
viend@@ 312
well-@@ 312
conver@@ 311
dessous 311
destin@@ 311
garder 311
genetic 311
ght@@ 311
leadership 311
mus@@ 311
person@@ 311
succe@@ 311
utilisation 311
décisions 310
invention 310
lo 310
passent 310
révél@@ 310
tourner 310
afraid 309
clairement 309
consider 309
fabriquer 309
frustr@@ 309
informatique 309
innov@@ 309
intervie@@ 309
origin@@ 309
stor@@ 309
ays 308
explorer 308
gg@@ 308
ima@@ 308
importants 308
influenc@@ 308
opération 308
ordre 308
orig@@ 308
pièces 308
pén@@ 308
somewhere 308
store 308
travel 308
vin@@ 308
2008 307
cate 307
colleagues 307
concerne 307
dam@@ 307
drive 307
envers 307
fantastic 307
lated 307
médecins 307
président 307
region 307
relationships 307
response 307
signifi@@ 307
vide 307
wea@@ 307
weren 307
wers 307
beauté 306
bing 306
biological 306
charles 306
proj@@ 306
sexe 306
written 306
ép@@ 306
beauty 305
biom@@ 305
closer 305
communicate 305
créativité 305
dés@@ 305
fli@@ 305
fondament@@ 305
hors 305
iller 305
iran 305
issant 305
kenya 305
ky 305
please 305
potentiel 305
spon@@ 305
style 305
étrange 305
75 304
acu@@ 304
aliser 304
amener 304
déplac@@ 304
eless 304
fourn@@ 304
inspiration 304
kept 304
om 304
stopped 304
survive 304
trop@@ 304
vit@@ 304
wil@@ 304
21 303
atteint 303
conduit 303
em 303
ent-ils 303
erai 303
géné@@ 303
hyper@@ 303
impro@@ 303
jac@@ 303
mark 303
pouvons-nous 303
tom 303
top@@ 303
tradu@@ 303
western 303
ête 303
ains 302
coû@@ 302
creativity 302
depend@@ 302
einstein 302
essaie 302
essentiellement 302
lesquels 302
nel 302
oblig@@ 302
passionn@@ 302
sev@@ 302
99 301
aît 301
demonstr@@ 301
diam@@ 301
discussion 301
dée 301
func@@ 301
han@@ 301
horiz@@ 301
issez 301
mes@@ 301
positions 301
scientist 301
sex@@ 301
silence 301
tea@@ 301
understood 301
devi@@ 300
gradu@@ 300
gram@@ 300
noire 300
pressure 300
tivity 300
vre 300
wit@@ 300
alive 299
arab@@ 299
back@@ 299
bord 299
clients 299
designer 299
exist@@ 299
ges@@ 299
original 299
quels 299
remarkable 299
river 299
tail 299
ès 299
atti@@ 298
by@@ 298
centr@@ 298
contrôler 298
divis@@ 298
durable 298
océans 298
propor@@ 298
riches 298
suivi 298
values 298
wed 298
ah@@ 297
campagne 297
challenges 297
further 297
lancé 297
majorité 297
mix@@ 297
plo@@ 297
tiennent 297
voulu 297
ène 297
ak@@ 296
allée 296
aver@@ 296
confron@@ 296
mâ@@ 296
regardons 296
serve 296
surr@@ 296
tran@@ 296
édi@@ 296
achieve 295
ash 295
attendre 295
cide 295
decide 295
devraient 295
document@@ 295
ern@@ 295
glass 295
grandi 295
nasa 295
ols 295
poisson 295
puissent 295
rencontr@@ 295
tol@@ 295
écriv@@ 295
absor@@ 294
aviez 294
complexes 294
décision 294
elements 294
eventually 294
laun@@ 294
lions 294
near 294
permettent 294
ques@@ 294
découverte 293
ily 293
imm@@ 293
logical 293
rare 293
robert 293
sign 293
tomber 293
user 293
éloign@@ 293
above 292
argument 292
armée 292
bleu 292
en-@@ 292
entièrement 292
gers 292
habitude 292
hiv 292
indeed 292
inspired 292
kets 292
played 292
preuve 292
adv@@ 291
dépend@@ 291
hot 291
lanc@@ 291
nement 291
older 291
organ@@ 291
quotidi@@ 291
revenus 291
seu@@ 291
seuls 291
spo@@ 291
steve 291
faisaient 290
fic 290
gle 290
issement 290
limit@@ 290
oph@@ 290
programmes 290
rant 290
rejo@@ 290
rise 290
standard 290
stone 290
tric@@ 290
architec@@ 289
conference 289
double 289
facilement 289
gratu@@ 289
honn@@ 289
marchés 289
mettent 289
networks 289
permet@@ 289
poissons 289
pom@@ 289
quali@@ 289
shu@@ 289
surviv@@ 289
tin 289
vidéos 289
apple 288
clé 288
entrepreneurs 288
eront 288
foundation 288
harvard 288
interface 288
specific 288
ège 288
answers 287
compréhension 287
consommation 287
instrument 287
mass@@ 287
net@@ 287
standing 287
allo@@ 286
amment 286
explique 286
helped 286
iers 286
isi@@ 286
leader 286
limites 286
logist 286
pping 286
véri@@ 286
acting 285
adore 285
auraient 285
bébés 285
canada 285
correspon@@ 285
cure 285
devenue 285
engineering 285
francisco 285
fy 285
legs 285
liv@@ 285
magnifique 285
neuf 285
occident@@ 285
onal 285
ple@@ 285
quartier 285
ray 285
réus@@ 285
text 285
thro@@ 285
via 285
vres 285
érieure 285
2010 284
27 284
acts 284
attack 284
cass@@ 284
chicago 284
difficiles 284
ert 284
flow 284
forte 284
kar@@ 284
mémoire 284
ole 284
proc@@ 284
programs 284
sus 284
ten 284
termin@@ 284
voulaient 284
descend@@ 283
exis@@ 283
fiction 283
himself 283
meilleures 283
oiseaux 283
particip@@ 283
pouvions 283
situations 283
étudi@@ 283
aces 282
actu@@ 282
appelons 282
aus@@ 282
celebr@@ 282
chair 282
gay 282
lets 282
lucky 282
montrent 282
peu@@ 282
rest@@ 282
sommet 282
transport 282
télé@@ 282
verrez 282
ained 281
blanc 281
cians 281
horrible 281
montr@@ 281
patterns 281
self 281
whose 281
î@@ 281
aiment 280
assurer 280
avoid 280
bateau 280
batt@@ 280
boun@@ 280
consciousness 280
cyber@@ 280
dant 280
feed 280
finding 280
identité 280
mac@@ 280
présenter 280
satellite 280
shared 280
terror@@ 280
trade 280
û@@ 280
accél@@ 279
affir@@ 279
appel 279
applications 279
artiste 279
bunch 279
demi 279
dol@@ 279
industrial 279
journal 279
lu 279
mountain 279
peuple 279
prati@@ 279
regardant 279
rep@@ 279
réc@@ 279
smaller 279
tum@@ 279
wood 279
éli@@ 279
artist 278
bactéries 278
compagnie 278
conç@@ 278
immédiatement 278
ish@@ 278
lin 278
lit@@ 278
mea@@ 278
pain@@ 278
temperature 278
vas@@ 278
agre@@ 277
amp 277
atures 277
choices 277
civil 277
connection 277
déclar@@ 277
floor 277
greatest 277
his@@ 277
inc@@ 277
london 277
mouvements 277
noticed 277
plastique 277
prêt 277
set@@ 277
sis 277
œil 277
appeler 276
champ 276
fal@@ 276
fascinating 276
favor@@ 276
lands 276
massive 276
popular 276
practice 276
puisque 276
reas@@ 276
rece@@ 276
rir 276
roo@@ 276
sir 276
y-@@ 276
alization 275
arrivent 275
ast 275
babies 275
besoins 275
connaissez 275
devais 275
encourage 275
fav@@ 275
funny 275
grad@@ 275
identity 275
limited 275
omb@@ 275
opinion 275
spi@@ 275
ssi@@ 275
tivement 275
tradition 275
watching 275
édu@@ 275
affaire 274
agree 274
appel@@ 274
archi@@ 274
atmosphère 274
balance 274
bois 274
dad 274
formed 274
lancer 274
magic 274
mom 274
mér@@ 274
neighborhood 274
pick 274
quit@@ 274
tit@@ 274
tivité 274
vote 274
ab 273
apporter 273
ards 273
au-dessus 273
commercial 273
curr@@ 273
départ 273
hear@@ 273
instruments 273
meeting 273
ous@@ 273
perdre 273
phénomène 273
planètes 273
prêts 273
reflec@@ 273
requ@@ 273
risques 273
soi 273
tim@@ 273
youtube 273
1,000 272
ams 272
aveu@@ 272
chau@@ 272
chée 272
decision 272
eux-mêmes 272
mam@@ 272
markets 272
moteur 272
numérique 272
rentr@@ 272
urban 272
émotions 272
évalu@@ 272
1.@@ 271
alle@@ 271
corpor@@ 271
différences 271
détermin@@ 271
email 271
exc@@ 271
génétique 271
hé@@ 271
ishing 271
join 271
knowing 271
party 271
regre@@ 271
respond 271
venus 271
walked 271
asse@@ 270
aven@@ 270
aware 270
bizarre 270
compare 270
concep@@ 270
conclusion 270
directly 270
eful 270
fron@@ 270
humaines 270
isant 270
jus@@ 270
mesurer 270
pieds 270
recycl@@ 270
related 270
sed 270
simul@@ 270
website 270
0-@@ 269
atmosphere 269
ato@@ 269
dest 269
dia@@ 269
intégr@@ 269
orches@@ 269
plans 269
studying 269
température 269
trag@@ 269
wel@@ 269
arbre 268
ately 268
auto-@@ 268
chambre 268
cier 268
courage 268
envoy@@ 268
lec@@ 268
milliard 268
nation@@ 268
planets 268
ral@@ 268
rassembl@@ 268
seraient 268
sû@@ 268
wealth 268
wr@@ 268
ads 267
blement 267
brings 267
chés 267
coeur 267
conséquences 267
ep 267
improvis@@ 267
intéresse 267
lig@@ 267
nez 267
print 267
rain@@ 267
réaction 267
shor@@ 267
teaching 267
violent 267
worst 267
œuvre 267
caméra 266
chacune 266
creates 266
effec@@ 266
experiments 266
france 266
garçon 266
logue 266
parlent 266
reg@@ 266
riche 266
secteur 266
successful 266
surprising 266
taient 266
thetic 266
valley 266
alternative 265
ange 265
christ@@ 265
connaissons 265
coup@@ 265
destruction 265
dio@@ 265
essaye 265
hed 265
larger 265
menti@@ 265
opposite 265
péri@@ 265
restaurant 265
speci@@ 265
thousand 265
tte 265
çant 265
élèves 265
ben 264
clai@@ 264
conçu 264
disaient 264
donnent 264
isse 264
li 264
logues 264
profondément 264
sco@@ 264
societies 264
sting 264
stop@@ 264
sérieux 264
term 264
transition 264
two-@@ 264
yed 264
bar 263
bit@@ 263
c. 263
conversations 263
differences 263
driving 263
ele@@ 263
entière 263
environmental 263
erve 263
essence 263
ful@@ 263
maisons 263
mi 263
opér@@ 263
peut-on 263
pressed 263
sionn@@ 263
tiss@@ 263
22 262
ancy 262
asse 262
couleurs 262
fonds 262
head@@ 262
heat 262
ops 262
parfait 262
pollution 262
rand@@ 262
suc@@ 262
traits 262
ust 262
boîte 261
cep@@ 261
cross@@ 261
degrees 261
diag@@ 261
fine 261
fit 261
i-@@ 261
paris 261
particules 261
regard@@ 261
report 261
trouver@@ 261
venue 261
égalité 261
2007 260
al-@@ 260
bert 260
chemical 260
concepts 260
contraire 260
custom@@ 260
dez 260
expec@@ 260
expériment@@ 260
gen 260
ide@@ 260
mostly 260
pig@@ 260
plat@@ 260
préci@@ 260
ron@@ 260
streets 260
suppose 260
three-@@ 260
twice 260
ventions 260
vé@@ 260
zing 260
évi@@ 260
aqu@@ 259
condition 259
darwin 259
dau@@ 259
envoyé 259
essing 259
famili@@ 259
fonctionner 259
intern@@ 259
lignes 259
mation 259
organizations 259
pleu@@ 259
posi@@ 259
raconte 259
ran 259
rie 259
récom@@ 259
summer 259
sures 259
200@@ 258
angeles 258
birds 258
commerci@@ 258
consu@@ 258
dons 258
earlier 258
issue 258
phrase 258
regar@@ 258
transpar@@ 258
crati@@ 257
côte 257
douleur 257
easily 257
electron@@ 257
monte 257
nucléaire 257
responsabilité 257
souven@@ 257
technologi@@ 257
brû@@ 256
cents 256
cerveaux 256
contenu 256
daughter 256
dinosau@@ 256
ib@@ 256
na 256
prend@@ 256
simil@@ 256
étudiant 256
address 255
adultes 255
airement 255
anger 255
batter@@ 255
chris@@ 255
chu@@ 255
consom@@ 255
decades 255
engagement 255
gés 255
hur@@ 255
joue 255
jud@@ 255
just@@ 255
logists 255
musée 255
passait 255
phase 255
recu@@ 255
totally 255
èle 255
élément 255
-year-old 254
birth 254
boston 254
critique 254
eusement 254
logiciel 254
mate 254
members 254
naissance 254
passage 254
prob@@ 254
sat 254
sick 254
spécialis@@ 254
univer@@ 254
véritable 254
ération 254
abeilles 253
aren 253
courir 253
crow@@ 253
diplô@@ 253
dog 253
dos 253
draw 253
laissé 253
nat@@ 253
ordin@@ 253
organismes 253
peter 253
poli@@ 253
principe 253
range 253
rier 253
ring 253
souviens 253
spiritu@@ 253
sujets 253
tableau 253
240535 252
agne 252
espaces 252
hole 252
inventé 252
leads 252
lieux 252
mené 252
moon 252
preuves 252
remarqué 252
vendre 252
you@@ 252
échou@@ 252
2009 251
boat 251
démar@@ 251
importantly 251
indépend@@ 251
respon@@ 251
te-@@ 251
ément 251
anywhere 250
emploi 250
enseignants 250
erreur 250
graph 250
imprim@@ 250
laisse 250
law@@ 250
paid 250
plas@@ 250
pp@@ 250
sorry 250
vibr@@ 250
élevé 250
énormes 250
21@@ 249
anxi@@ 249
apo@@ 249
bénéfi@@ 249
california 249
choisi 249
commerce 249
commit@@ 249
dedans 249
dil@@ 249
discovery 249
définition 249
ennu@@ 249
gry 249
membre 249
médicament 249
newsp@@ 249
none 249
onnement 249
phenomenon 249
policy 249
produced 249
remar@@ 249
rues 249
section 249
shel@@ 249
stes 249
suffering 249
sugges@@ 249
vin 249
vis 249
vér@@ 249
´ 249
600 248
ak 248
collap@@ 248
célèbre 248
cérébr@@ 248
def@@ 248
derniers 248
doub@@ 248
function 248
levels 248
lies 248
male 248
molécules 248
photograph@@ 248
pir@@ 248
produisent 248
rais@@ 248
recru@@ 248
responsibility 248
savait 248
see@@ 248
spending 248
surveillance 248
électrique 248
23 247
chances 247
concentrer 247
devices 247
diagno@@ 247
diminu@@ 247
dir 247
défis 247
détails 247
fying 247
gab@@ 247
iné 247
isés 247
oeu@@ 247
organisations 247
oxy@@ 247
recent 247
stique 247
studied 247
tier 247
volume 247
affi@@ 246
articles 246
becoming 246
candi@@ 246
connaissent 246
doubl@@ 246
ek 246
envie 246
expert 246
flying 246
hidden 246
iles 246
mic@@ 246
méthode 246
ported 246
prochaines 246
throughout 246
trau@@ 246
trouble 246
virtual 246
wan@@ 246
ya 246
195@@ 245
boo@@ 245
bought 245
boys 245
connections 245
cuisine 245
dans@@ 245
definition 245
disco@@ 245
ef@@ 245
emotions 245
faisais 245
isons 245
kel@@ 245
m. 245
plaisir 245
poin@@ 245
thes 245
trick 245
émotionn@@ 245
états 245
étudié 245
ancien 244
ban 244
bg 244
bâtiments 244
cam@@ 244
chercheurs 244
complexité 244
compétences 244
devoir 244
differently 244
habitants 244
ick 244
ii 244
jon@@ 244
len@@ 244
minim@@ 244
patri@@ 244
rappelle 244
saf@@ 244
sorti 244
sper@@ 244
union 244
yl@@ 244
ède 244
alo@@ 243
antibio@@ 243
appl@@ 243
battre 243
combat 243
consequences 243
est-à-dire 243
exploration 243
financ@@ 243
instinc@@ 243
islam@@ 243
ll 243
manif@@ 243
ny 243
ouais 243
ouest 243
ouvrir 243
prime 243
rempl@@ 243
represent 243
studio 243
tam@@ 243
étab@@ 243
éth@@ 243
aison 242
augmenter 242
comfortable 242
dence 242
dr. 242
démo@@ 242
grandis@@ 242
londres 242
necessary 242
one-@@ 242
pattern 242
pensait 242
television 242
tus 242
tâche 242
zen 242
èmes 242
abilities 241
adam 241
atu@@ 241
ball@@ 241
benefits 241
broad@@ 241
chimiques 241
commun@@ 241
complexity 241
dizaines 241
déc@@ 241
imag@@ 241
invol@@ 241
lune 241
naturelle 241
pleine 241
politi@@ 241
rai 241
tech 241
worry 241
800 240
accro@@ 240
atic 240
bouger 240
cham@@ 240
critical 240
démocrati@@ 240
following 240
gâ@@ 240
ight 240
legal 240
loo@@ 240
magi@@ 240
molecules 240
mén@@ 240
régions 240
seemed 240
teen@@ 240
ètre 240
bees 239
bird 239
chaîne 239
failure 239
genome 239
hasard 239
haw@@ 239
high@@ 239
inno@@ 239
iphone 239
lights 239
marketing 239
narr@@ 239
pel@@ 239
précis 239
religi@@ 239
repe@@ 239
servir 239
sharing 239
struc@@ 239
ètes 239
65 238
aids 238
ation@@ 238
collection 238
curi@@ 238
easier 238
fe 238
gin@@ 238
gré 238
interact 238
invest 238
ises 238
lack 238
let@@ 238
lève 238
meant 238
occasion 238
occuper 238
sing@@ 238
teau 238
tempor@@ 238
vol 238
acte 237
aie 237
amaz@@ 237
appr@@ 237
barri@@ 237
chang@@ 237
conduire 237
devenus 237
dies 237
europé@@ 237
experiences 237
finance 237
parten@@ 237
reconn@@ 237
rule 237
stati@@ 237
acceler@@ 236
accessible 236
ails 236
appu@@ 236
cau@@ 236
emotional 236
evol@@ 236
evolved 236
excep@@ 236
gagné 236
ghts 236
incroyables 236
matic 236
oxygen 236
responsible 236
spaces 236
trou 236
accompl@@ 235
analo@@ 235
arriver@@ 235
character 235
connaître 235
essential 235
fantastique 235
giant 235
graphy 235
patho@@ 235
quo@@ 235
venait 235
zéro 235
allés 234
amus@@ 234
chimpanz@@ 234
dan@@ 234
down@@ 234
female 234
industri@@ 234
manières 234
martin 234
mp 234
predict 234
toire 234
verre 234
willing 234
abstr@@ 233
alu@@ 233
ancient 233
apply 233
bridge 233
café 233
calls 233
essentially 233
peti@@ 233
possibilités 233
roul@@ 233
résol@@ 233
second@@ 233
therefore 233
vih 233
échantill@@ 233
artistes 232
asie 232
british 232
calcul 232
class@@ 232
conflit 232
conten@@ 232
diplom@@ 232
dési@@ 232
détec@@ 232
event 232
fighting 232
fusion 232
kil@@ 232
matériel 232
oxygène 232
pare 232
protec@@ 232
prê@@ 232
rab@@ 232
rencontre 232
scen@@ 232
soyez 232
sphere 232
10,000 231
abo@@ 231
auquel 231
cape 231
cognitive 231
complete 231
compon@@ 231
dreams 231
farmers 231
guer 231
gérer 231
pus@@ 231
rég@@ 231
00@@ 230
banque 230
elle-même 230
exclu@@ 230
ey@@ 230
ills 230
iraq 230
jane 230
launched 230
mati@@ 230
microscope 230
mères 230
neur@@ 230
noirs 230
oi@@ 230
populations 230
quées 230
rej@@ 230
rencontrer 230
sculp@@ 230
statistiques 230
tester 230
vice 230
work@@ 230
astr@@ 229
brown 229
culturel@@ 229
débat 229
iron@@ 229
profond 229
t-on 229
tué 229
arrivée 228
artists 228
coffee 228
colère 228
compared 228
correc@@ 228
decade 228
focused 228
franch@@ 228
gps 228
iti@@ 228
offer 228
organisms 228
pakistan 228
philosophi@@ 228
proches 228
ritu@@ 228
speech 228
tim 228
wa@@ 228
civi@@ 227
cross 227
dr 227
déchets 227
eding 227
glu@@ 227
hen@@ 227
indian 227
insi@@ 227
interactions 227
intr@@ 227
may@@ 227
nous-mêmes 227
paraly@@ 227
post-@@ 227
prototype 227
pure 227
récup@@ 227
shot 227
sign@@ 227
suffis@@ 227
trouvez 227
télévision 227
ution 227
academ@@ 226
communiquer 226
covered 226
drag@@ 226
ei@@ 226
identify 226
institute 226
interpre@@ 226
itaires 226
manipul@@ 226
nie 226
piano 226
rythme 226
separ@@ 226
susp@@ 226
thes@@ 226
track 226
trial 226
vention 226
évident 226
agers 225
alie 225
authenti@@ 225
avance 225
bie 225
bure@@ 225
cadre 225
comb@@ 225
concernant 225
descri@@ 225
débu@@ 225
fonctionnent 225
igne 225
ira 225
propos@@ 225
rêves 225
soign@@ 225
surprised 225
tain@@ 225
villages 225
wear 225
évolué 225
aliment@@ 224
alph@@ 224
amène 224
bientôt 224
bly 224
determin@@ 224
emplois 224
graph@@ 224
insectes 224
mas 224
movements 224
navig@@ 224
opportunities 224
organized 224
passed 224
pile 224
promo@@ 224
sai@@ 224
telles 224
tours 224
usage 224
vel@@ 224
aimer@@ 223
broken 223
bruit 223
campaign 223
capacités 223
define 223
dynam@@ 223
grade 223
génome 223
helps 223
mauvaises 223
micro-@@ 223
missing 223
oit 223
principal 223
ressembl@@ 223
sle@@ 223
t-elle 223
émissions 223
éner@@ 223
airs 222
ass 222
augmente 222
character@@ 222
comment@@ 222
contro@@ 222
découv@@ 222
fou 222
invest@@ 222
investment 222
offici@@ 222
ois 222
particles 222
sand@@ 222
search 222
shi@@ 222
sible 222
sto@@ 222
travaillons 222
télé 222
wonder@@ 222
ack@@ 221
ario 221
augmentation 221
brother 221
cas@@ 221
connais 221
ct 221
ering 221
european 221
informa@@ 221
neighb@@ 221
ologi@@ 221
ounded 221
quence 221
satur@@ 221
scol@@ 221
sida 221
slide 221
task 221
trem@@ 221
vieill@@ 221
étend@@ 221
2005 220
analyse 220
curios@@ 220
dangereux 220
eco@@ 220
exists 220
familiar 220
forment 220
identifier 220
maths 220
negative 220
ologie 220
onner 220
phili@@ 220
plong@@ 220
promise 220
quête 220
religious 220
stre@@ 220
town 220
trajec@@ 220
addition 219
assur@@ 219
attribu@@ 219
auto@@ 219
californie 219
chien 219
color@@ 219
créatures 219
diab@@ 219
dure 219
déplacer 219
détru@@ 219
est-@@ 219
flu 219
fuel 219
gender 219
habitat 219
hier 219
kee@@ 219
ken 219
lutte 219
musul@@ 219
perce@@ 219
poly@@ 219
prize 219
professional 219
raised 219
rid 219
russi@@ 219
règle 219
réci@@ 219
scr@@ 219
shares 219
shouldn 219
ward 219
yellow 219
étiez 219
alize 218
associated 218
billions 218
blu@@ 218
cooper@@ 218
décennies 218
educ@@ 218
empê@@ 218
enci@@ 218
extreme 218
formidable 218
garçons 218
héros 218
option 218
pyram@@ 218
rel 218
turning 218
wearing 218
48@@ 217
ajouter 217
ama 217
appeared 217
asia 217
chim@@ 217
creatures 217
décrit 217
effici@@ 217
entrée 217
eries 217
fur@@ 217
impressionn@@ 217
john@@ 217
measu@@ 217
mètre 217
rich@@ 217
récol@@ 217
tele@@ 217
veu@@ 217
22@@ 216
aud@@ 216
bilité 216
cloud 216
différemment 216
décider 216
effon@@ 216
efs 216
ending 216
equal 216
graphe 216
kid@@ 216
levé 216
nigeria 216
parfaitement 216
principes 216
putation 216
responsable 216
rock 216
rooms 216
sociales 216
sted 216
stic 216
toucher 216
truc@@ 216
vering 216
angl@@ 215
blind 215
cellu@@ 215
chirurgi@@ 215
classique 215
considérer 215
drop 215
enfance 215
fields 215
forever 215
intervention 215
islam 215
istic 215
matters 215
mettez 215
musli@@ 215
mène 215
passant 215
possibility 215
sse 215
statu@@ 215
ut 215
vrai@@ 215
yo@@ 215
èrement 215
écar@@ 215
26 214
accor@@ 214
acier 214
antarc@@ 214
ater 214
bale@@ 214
bé@@ 214
collect 214
compliqué 214
cosmo@@ 214
describe 214
documents 214
gn@@ 214
hô@@ 214
illusion 214
jambes 214
juli@@ 214
objectifs 214
ological 214
sold 214
subject 214
tel@@ 214
theater 214
transform 214
téléphones 214
wards 214
éte@@ 214
actuelle 213
alimentaire 213
appareils 213
cris@@ 213
gh 213
graphi@@ 213
istant 213
pati@@ 213
researchers 213
timate 213
titre 213
trained 213
twe@@ 213
various 213
visit 213
vor@@ 213
wer@@ 213
window 213
36@@ 212
autrement 212
compu@@ 212
corner 212
domaines 212
electric 212
erreurs 212
fis@@ 212
hair 212
maman 212
mouth 212
painting 212
pauvre 212
préfé@@ 212
quantit@@ 212
remarquable 212
slightly 212
surgery 212
tly 212
treated 212
unité 212
visite 212
économiques 212
2011 211
amen@@ 211
below 211
benefit 211
ce-@@ 211
connexion 211
eill@@ 211
employés 211
enting 211
escent 211
expres@@ 211
ez-@@ 211
fir@@ 211
insul@@ 211
lée 211
motivation 211
pass 211
profonde 211
proud 211
recher@@ 211
return 211
sector 211
seriously 211
significa@@ 211
tribu@@ 211
vac@@ 211
échec 211
&apos;@@ 210
2,@@ 210
achet@@ 210
arms 210
avancer 210
aître 210
bush 210
cev@@ 210
classes 210
creation 210
depression 210
descen@@ 210
dimension 210
dirait 210
goo@@ 210
grosse 210
honest 210
institution 210
ital 210
liter@@ 210
mari 210
obama 210
oceans 210
procé@@ 210
puissante 210
rê@@ 210
sey 210
sters 210
syl@@ 210
équilibre 210
32 209
ait-il 209
allaient 209
ander@@ 209
apart 209
basis 209
brilliant 209
consum@@ 209
dynamique 209
dépend 209
erez 209
froid 209
géo@@ 209
intellectu@@ 209
mariage 209
monit@@ 209
niveaux 209
ons-@@ 209
riez 209
septembre 209
sugg@@ 209
trait 209
tton 209
épou@@ 209
ablement 208
adults 208
ahead 208
alex@@ 208
begins 208
change@@ 208
coast 208
connaissances 208
dry 208
edge 208
equipment 208
exchange 208
exposition 208
hai@@ 208
ingénieurs 208
ière 208
mons 208
nourr@@ 208
obtenez 208
phins 208
principles 208
sen 208
server 208
similaire 208
soutien 208
survivre 208
séqu@@ 208
ug@@ 208
ably 207
accept 207
ayons 207
brand 207
cad@@ 207
card 207
chocol@@ 207
chron@@ 207
confi@@ 207
cous@@ 207
crucial 207
empêcher 207
entour@@ 207
ffe 207
fle@@ 207
forêts 207
fémin@@ 207
investissement 207
management 207
muscle 207
muscles 207
offre 207
perte 207
sexual 207
stade 207
sty@@ 207
35@@ 206
36 206
aches 206
biologique 206
bone 206
chev@@ 206
childhood 206
conservation 206
exhi@@ 206
expl@@ 206
liens 206
meter 206
morceaux 206
oire 206
ouver@@ 206
participate 206
pole 206
possibles 206
presse 206
prochain 206
rivière 206
sert 206
sports 206
supplément@@ 206
tir 206
tric 206
voulions 206
accoun@@ 205
after@@ 205
brésil 205
care@@ 205
climat 205
consumption 205
danse 205
deter@@ 205
diction 205
engine 205
fallu 205
fournir 205
frère 205
meur@@ 205
moment-là 205
nationale 205
nur@@ 205
observe 205
obtenu 205
polio 205
populaire 205
reconnaître 205
stratégie 205
tables 205
thanks 205
thy 205
tue 205
venez 205
aisse 204
aries 204
caract@@ 204
changent 204
competition 204
considered 204
debate 204
efficaces 204
finished 204
flux 204
hou@@ 204
immeu@@ 204
malaria 204
managed 204
mille 204
mortalité 204
oli@@ 204
principalement 204
rappel@@ 204
slo@@ 204
stable 204
stupi@@ 204
volunte@@ 204
augment@@ 203
bits 203
dirais 203
domes@@ 203
dépression 203
events 203
expos@@ 203
fasse 203
filled 203
husband 203
increasing 203
method 203
mich@@ 203
noise 203
onto 203
opportunités 203
pouvez-vous 203
princip@@ 203
publié 203
sif 203
sphère 203
strategy 203
suffisamment 203
trouvons 203
waves 203
aig@@ 202
annu@@ 202
catastrop@@ 202
couche 202
davantage 202
demandez 202
engage 202
ework 202
heureusement 202
montagne 202
obstacles 202
parlait 202
productive 202
retourner 202
shop 202
thèse 202
victimes 202
addi@@ 201
anta 201
ap 201
artifici@@ 201
chauff@@ 201
chol@@ 201
conseil 201
câ@@ 201
described 201
drap@@ 201
eled 201
eraient 201
fabul@@ 201
followed 201
hé 201
innovations 201
insects 201
invite 201
lav@@ 201
microsoft 201
mique 201
moindre 201
nav@@ 201
opened 201
radical 201
sky@@ 201
tera 201
thinks 201
tie 201
tionnaire 201
wee@@ 201
épar@@ 201
95 200
accur@@ 200
announ@@ 200
apprend 200
artificial 200
ayed 200
bility 200
bron@@ 200
cial 200
cid@@ 200
convaincre 200
desire 200
ears 200
edu@@ 200
express 200
helping 200
itent 200
ja@@ 200
lettres 200
lycée 200
mettons 200
mothers 200
murs 200
press@@ 200
principle 200
pâ@@ 200
rain 200
sommeil 200
tombe 200
volont@@ 200
vouloir 200
47 199
agissent 199
aissent 199
asp@@ 199
brazil 199
calement 199
circul@@ 199
correct 199
dép@@ 199
gestion 199
géni@@ 199
inves@@ 199
invited 199
loss 199
mouse 199
més 199
obten@@ 199
org@@ 199
prop@@ 199
précisément 199
quote 199
ral 199
rappeler 199
read@@ 199
regard 199
ressemblent 199
s-je 199
sculpture 199
sour@@ 199
tenu 199
usine 199
utilisés 199
accidents 198
appellent 198
apprennent 198
arc@@ 198
arrived 198
association 198
atoires 198
capture 198
chaos 198
eur@@ 198
exponenti@@ 198
fall@@ 198
grand-@@ 198
lux@@ 198
maj@@ 198
match 198
nar@@ 198
ond 198
paras@@ 198
philosoph@@ 198
propose 198
présence 198
représentent 198
richesse 198
régu@@ 198
sion@@ 198
stick 198
vulnér@@ 198
walls 198
advantage 197
amazon 197
anding 197
animation 197
arrête 197
begin 197
chaud 197
club 197
colors 197
comportements 197
confir@@ 197
constantly 197
drôle 197
fill 197
forced 197
ford 197
formu@@ 197
généralement 197
insur@@ 197
lating 197
lesson 197
magie 197
mary 197
nulle 197
offrir 197
rav@@ 197
recor@@ 197
réelle 197
statistics 197
tonnes 197
weapons 197
écl@@ 197
.000 196
auteur 196
communications 196
courbe 196
coûte 196
dessin 196
esthé@@ 196
foreign 196
gates 196
immense 196
ined 196
internationale 196
kill@@ 196
lic@@ 196
lying 196
master 196
mathematics 196
mener 196
mexico 196
minus@@ 196
ordinary 196
participer 196
perfectly 196
perman@@ 196
permettez-moi 196
possibilities 196
possède 196
ressentir 196
rose 196
s. 196
semblent 196
statisti@@ 196
steps 196
tered 196
vautier 196
aged 195
antici@@ 195
attitude 195
bia 195
chain 195
comprennent 195
convain@@ 195
devriez 195
essayez 195
exu@@ 195
fais@@ 195
flor@@ 195
foc@@ 195
forming 195
fé@@ 195
garde 195
individu 195
ingénierie 195
itting 195
jec@@ 195
ki 195
licen@@ 195
mates 195
on-@@ 195
personnelle 195
plane 195
potenti@@ 195
probable 195
professeurs 195
pêche 195
rais 195
somme 195
sortie 195
sudden 195
throw 195
unit 195
échapp@@ 195
élimin@@ 195
île 195
250 194
29 194
33 194
arguments 194
até 194
bang 194
check 194
conflits 194
consiste 194
contient 194
daily 194
dense 194
essenti@@ 194
faudr@@ 194
feedback 194
flight 194
frontières 194
gée 194
interro@@ 194
ix 194
mili@@ 194
parent 194
prisonn@@ 194
prosp@@ 194
rendent 194
reve@@ 194
sn@@ 194
soin 194
tais 194
trie 194
ultimately 194
vaut 194
volonté 194
wow 194
year-old 194
ald 193
anci@@ 193
arrivés 193
ason 193
bec@@ 193
blanche 193
circuit 193
expansion 193
fabrication 193
facts 193
fore@@ 193
gene@@ 193
goals 193
intense 193
letter 193
leçon 193
lè@@ 193
menace 193
ners 193
options 193
plaît 193
pê@@ 193
revient 193
secrets 193
sta@@ 193
vast 193
èse 193
écoute 193
26@@ 192
achiev@@ 192
adult 192
africains 192
amené 192
bin 192
bringing 192
caractéristiques 192
cking 192
congo 192
constant 192
cue 192
cuis@@ 192
deeply 192
dynamic 192
découvertes 192
enseignement 192
factory 192
fam@@ 192
houses 192
leaving 192
miss@@ 192
nourrir 192
orient 192
participation 192
prevent 192
reaction 192
refuge@@ 192
rhy@@ 192
risks 192
ron 192
simulation 192
sister 192
solved 192
sombre 192
talent 192
terres 192
tissu 192
tissue 192
traffic 192
urban@@ 192
énormément 192
équi@@ 192
account 191
actor 191
amin@@ 191
ani@@ 191
aspir@@ 191
blog 191
catég@@ 191
convince 191
degree 191
develop@@ 191
dign@@ 191
dying 191
décrire 191
england 191
exo@@ 191
french 191
greater 191
hall 191
lic 191
multi-@@ 191
orph@@ 191
parc 191
persu@@ 191
pes@@ 191
phant 191
pm 191
rentrer 191
rural 191
sequence 191
yor@@ 191
-ci 190
ancest@@ 190
apr@@ 190
avan@@ 190
categ@@ 190
church 190
communi@@ 190
comprend 190
consommat@@ 190
conventi@@ 190
créent 190
cô@@ 190
désir 190
erons 190
essais 190
fair 190
fix 190
illu@@ 190
modu@@ 190
musical 190
parking 190
prostitu@@ 190
ram 190
recevoir 190
sifs 190
spring 190
vier 190
whereas 190
atlan@@ 189
atrice 189
catch 189
cens@@ 189
cent@@ 189
deman@@ 189
disponibles 189
doigts 189
donnée 189
engineers 189
equivalent 189
erais 189
flies 189
inju@@ 189
ja 189
labo 189
merveilleuse 189
mr. 189
noms 189
parlant 189
prev@@ 189
prior@@ 189
psych@@ 189
retrouver 189
stru@@ 189
suffit 189
sy 189
territ@@ 189
verte 189
activités 188
anciens 188
argue 188
ceux-@@ 188
co-@@ 188
conscious 188
convinced 188
dame 188
detail 188
existent 188
explains 188
fie 188
gotten 188
investir 188
jun@@ 188
landscape 188
manhattan 188
merveill@@ 188
meurent 188
mom@@ 188
participants 188
possé@@ 188
professor 188
rang@@ 188
remer@@ 188
sable 188
sangu@@ 188
sel 188
slowly 188
vrais 188
weird 188
adver@@ 187
agents 187
anthropo@@ 187
appreci@@ 187
aur@@ 187
bo 187
bouche 187
cess@@ 187
chons 187
copy 187
enseigner 187
facil@@ 187
holding 187
japan 187
japon 187
locaux 187
mathemati@@ 187
portables 187
pron@@ 187
publ@@ 187
rus 187
soldiers 187
them@@ 187
tries 187
° 187
affect 186
angleterre 186
bass@@ 186
bol@@ 186
compag@@ 186
compren@@ 186
considér@@ 186
control@@ 186
coordin@@ 186
culaire 186
dimensional 186
directeur 186
ero@@ 186
fell 186
forests 186
générations 186
interprét@@ 186
itu@@ 186
itude 186
marque 186
meu@@ 186
morale 186
multipli@@ 186
nouv@@ 186
ots 186
refl@@ 186
rio 186
sensation 186
signaux 186
tains 186
tens 186
travaillant 186
trib@@ 186
té@@ 186
victims 186
28 185
38@@ 185
act@@ 185
arrêté 185
atique 185
bâ@@ 185
cercle 185
chiffre 185
demi-@@ 185
experiment@@ 185
fram@@ 185
heads 185
lettre 185
paysage 185
placed 185
pont 185
proté@@ 185
quitté 185
régime 185
sely 185
speaking 185
stem 185
unis 185
voices 185
wave 185
épidémie 185
.com 184
30@@ 184
ac 184
acted 184
agré@@ 184
angi@@ 184
ank 184
annon@@ 184
appelait 184
atoire 184
cans 184
cherche 184
coca@@ 184
contin@@ 184
efficient 184
effray@@ 184
essentiel 184
explosion 184
fenêtre 184
frank 184
ghana 184
iments 184
intelligents 184
introduce 184
jor@@ 184
ku@@ 184
married 184
names 184
pai@@ 184
pau@@ 184
radiation 184
rely 184
sim@@ 184
stanford 184
texte 184
thesis 184
tter@@ 184
vues 184
zu@@ 184
écriture 184
éter 184
accumul@@ 183
afford 183
aper 183
aujourd 183
bain 183
beaux 183
bers 183
connue 183
dations 183
demand 183
déb@@ 183
exposé 183
fas@@ 183
fondation 183
foot@@ 183
frères 183
grave 183
gées 183
hea@@ 183
ignorance 183
insec@@ 183
invent 183
ished 183
ket 183
lour@@ 183
low-@@ 183
maps 183
maxim@@ 183
mentale 183
mm 183
moy@@ 183
necessarily 183
nommé 183
paradig@@ 183
sain@@ 183
signe 183
stupid 183
survival 183
tine 183
travailleurs 183
utilisée 183
ym@@ 183
zer@@ 183
équivalent 183
48 182
analysis 182
beh@@ 182
conférences 182
desert 182
facteurs 182
faim 182
glo@@ 182
held 182
higgs 182
ient 182
independent 182
laissez 182
mour@@ 182
movies 182
nes@@ 182
orange 182
partage@@ 182
phon@@ 182
reu@@ 182
sant 182
sh 182
soldats 182
straight 182
threat@@ 182
tien 182
universal 182
van 182
visit@@ 182
wol@@ 182
yesterday 182
244060 181
acheté 181
anonym@@ 181
bread 181
calcu@@ 181
cardiaque 181
chaleur 181
cé 181
célébr@@ 181
dirigeants 181
durée 181
failed 181
fera 181
fish@@ 181
ght 181
ige 181
jar@@ 181
jardin 181
keys 181
laugh@@ 181
objec@@ 181
pierre 181
publics 181
recorded 181
scanner 181
sensor@@ 181
simu@@ 181
sport 181
supply 181
survie 181
tail@@ 181
target 181
topic 181
traverser 181
trique 181
tron 181
témo@@ 181
ve-@@ 181
2006 180
aded 180
amusant 180
ander 180
bition 180
cards 180
collis@@ 180
constamment 180
dess@@ 180
dients 180
dérou@@ 180
employees 180
enjo@@ 180
estab@@ 180
ferait 180
fif@@ 180
grat@@ 180
hil@@ 180
intain 180
labor@@ 180
matis@@ 180
roman@@ 180
royaume-uni 180
shoes 180
simpl@@ 180
stuck 180
technical 180
utiles 180
acteur 179
adulte 179
boulot 179
connecter 179
continué 179
dessin@@ 179
déterminer 179
dévelop@@ 179
emissions 179
entou@@ 179
epidemic 179
explan@@ 179
gren@@ 179
guar@@ 179
highly 179
inspire 179
institu@@ 179
internation@@ 179
istance 179
long@@ 179
nig@@ 179
normally 179
occident 179
pounds 179
prenant 179
prouv@@ 179
push 179
saving 179
suppos@@ 179
surge@@ 179
sûrement 179
texas 179
toil@@ 179
videos 179
336211 178
attaque 178
belles 178
britanni@@ 178
cage 178
chass@@ 178
circle 178
collè@@ 178
cos@@ 178
cristiana 178
cus@@ 178
debout 178
dente 178
disais 178
doigt 178
embarrass@@ 178
fund 178
generations 178
hearing 178
inventer 178
iquement 178
ization 178
jen@@ 178
joy 178
langues 178
lever@@ 178
lier 178
limite 178
minoli 178
photograph 178
pollen 178
pollu@@ 178
rè@@ 178
sar@@ 178
t-ils 178
typical 178
yn@@ 178
youn@@ 178
érieur 178
2,000 177
42 177
cente 177
closed 177
excell@@ 177
fonctionnement 177
hing 177
homes 177
intitu@@ 177
irak 177
itablement 177
jaz@@ 177
jim 177
lati@@ 177
marriage 177
multiple 177
ore 177
passionate 177
planning 177
plante 177
power@@ 177
process@@ 177
protég@@ 177
recev@@ 177
requires 177
riv@@ 177
sentence 177
silicon 177
soutenir 177
souvenir 177
tis 177
actif 176
ama@@ 176
anten@@ 176
appear@@ 176
aurons 176
avoc@@ 176
clinique 176
exprimer 176
feels 176
gency 176
guide 176
harmon@@ 176
illi@@ 176
ji@@ 176
k. 176
mono@@ 176
now@@ 176
organes 176
paint 176
premièrement 176
purpose 176
quitter 176
remote 176
sand 176
sts 176
tat@@ 176
tile 176
tude 176
veget@@ 176
worried 176
arry 175
breast 175
civilisation 175
concre@@ 175
details 175
efficacité 175
ferme 175
fourth 175
gon@@ 175
joué 175
netto@@ 175
nécessaires 175
observation 175
ology 175
portée 175
protéines 175
psychia@@ 175
sebastian 175
signals 175
strugg@@ 175
tandis 175
tomorrow 175
touche 175
tural 175
vêtements 175
27@@ 174
44 174
beach 174
biens 174
box@@ 174
clock 174
cogni@@ 174
demain 174
depends 174
director 174
divi@@ 174
frais 174
gall@@ 174
hate 174
interview 174
jouent 174
languages 174
matériau 174
miracle 174
miss 174
nobel 174
reur 174
sensitive 174
small@@ 174
thir@@ 174
thr@@ 174
trons 174
utilisateurs 174
vet@@ 174
20th 173
37 173
absence 173
ague 173
aimons 173
alzheimer 173
argu@@ 173
bay 173
bet 173
bi 173
bénéfici@@ 173
ced 173
clinical 173
contra@@ 173
department 173
detect 173
disponible 173
dop@@ 173
enh@@ 173
ent-@@ 173
feuille 173
fourmis 173
generate 173
gos 173
increasingly 173
joie 173
jour@@ 173
justi@@ 173
mathematical 173
otherwise 173
partag@@ 173
pensées 173
poss@@ 173
principale 173
random 173
regardent 173
represents 173
responsables 173
rément 173
separate 173
spati@@ 173
sub-@@ 173
terres@@ 173
trials 173
ven 173
wikipedia 173
élè@@ 173
ôtre 173
acteurs 172
advanced 172
auront 172
carbur@@ 172
cave 172
centres 172
chant@@ 172
colum@@ 172
combine 172
crai@@ 172
dirige@@ 172
empty 172
escal@@ 172
esprits 172
frequ@@ 172
gging 172
ging 172
gou@@ 172
intuition 172
ko 172
laser 172
leaves 172
littér@@ 172
majeu@@ 172
malade 172
metho@@ 172
nec@@ 172
organic 172
penses 172
phil@@ 172
porté 172
projec@@ 172
propriété 172
quantum 172
treat@@ 172
vois@@ 172
2003 171
alisé 171
asks 171
australia 171
autom@@ 171
cami@@ 171
civil@@ 171
coo@@ 171
enormous 171
environnement@@ 171
fondamentalement 171
gne 171
heureuse 171
infl@@ 171
israel 171
lentement 171
letters 171
légèrement 171
negoti@@ 171
obser@@ 171
octo@@ 171
orders 171
parado@@ 171
passés 171
photographi@@ 171
pluie 171
pourra 171
pouviez 171
primer 171
protein 171
prove 171
sad 171
shar@@ 171
sui@@ 171
surpris 171
sustain@@ 171
tively 171
trices 171
users 171
wid@@ 171
émo@@ 171
étoile 171
85 170
ayez 170
aéro@@ 170
aî@@ 170
bis@@ 170
boug@@ 170
bref 170
cheap 170
comport@@ 170
conc@@ 170
concert 170
contempor@@ 170
correctement 170
doc@@ 170
essive 170
eus 170
exerci@@ 170
fiant 170
gap 170
goût 170
ica 170
implications 170
incar@@ 170
intéressé 170
ith 170
normalement 170
olym@@ 170
onné 170
peri@@ 170
physiques 170
pointe 170
reuse 170
satellites 170
saved 170
story@@ 170
strate@@ 170
straté@@ 170
thin@@ 170
électronique 170
affected 169
andrew 169
avantage 169
chat 169
clou@@ 169
combinaison 169
degrés 169
deuxièmement 169
devaient 169
escl@@ 169
exact 169
exception 169
friend@@ 169
ghter 169
générale 169
hide 169
inequality 169
isée 169
philanthro@@ 169
réveill@@ 169
semblait 169
spac@@ 169
stre 169
toilettes 169
tourne 169
utilisées 169
visibles 169
whit@@ 169
zes 169
érir 169
aming 168
amou@@ 168
arabe 168
civilization 168
classroom 168
concentration 168
controlled 168
docteur 168
dow 168
défense 168
démi@@ 168
désert 168
eton 168
factors 168
gar 168
gdp 168
geni@@ 168
gold 168
irr@@ 168
itage 168
itement 168
menson@@ 168
molecule 168
montagnes 168
opti@@ 168
pib 168
profon@@ 168
réussir 168
révolu@@ 168
serez 168
smell 168
smith 168
tured 168
wings 168
électriques 168
bea@@ 167
bonjour 167
cides 167
cil 167
congrès 167
count 167
déclen@@ 167
eas@@ 167
emment 167
ex 167
horri@@ 167
héli@@ 167
implan@@ 167
intéressantes 167
lap@@ 167
manifes@@ 167
mexique 167
nano@@ 167
paying 167
préserv@@ 167
queue 167
quez 167
ressor@@ 167
soil 167
sorti@@ 167
threat 167
vaste 167
vr@@ 167
aining 166
athan 166
aï@@ 166
basé 166
cameras 166
cious 166
circuits 166
crimes 166
côtés 166
drawing 166
er-@@ 166
honte 166
intention 166
intu@@ 166
ior 166
lait 166
lunch 166
nées 166
passons 166
pharmaceu@@ 166
previous 166
respi@@ 166
ships 166
struggle 166
telescope 166
warming 166
étaire 166
1000 165
arro@@ 165
bande 165
brothers 165
cain 165
chers 165
chées 165
demandent 165
dist@@ 165
enjoy 165
exécu@@ 165
faç@@ 165
fruit 165
galaxy 165
largement 165
là-dessus 165
molécule 165
normale 165
noy@@ 165
nutri@@ 165
obtient 165
od 165
oir 165
personnage 165
poetry 165
polici@@ 165
replace 165
resol@@ 165
sees 165
significant 165
souches 165
st-@@ 165
sum 165
séquence 165
tar 165
traitements 165
typi@@ 165
utilisez 165
wake 165
2004 164
aidé 164
altitude 164
ancing 164
angers 164
aperçu 164
bless@@ 164
coûts 164
dh 164
dialogue 164
enem@@ 164
ennem@@ 164
essayant 164
gueur 164
iling 164
journaliste 164
larg@@ 164
lee 164
mess@@ 164
mountains 164
oivent 164
pensaient 164
prisons 164
rempli@@ 164
réun@@ 164
sca@@ 164
thoughts 164
théâtre 164
wondering 164
énergé@@ 164
70@@ 163
aille 163
ancienne 163
bed@@ 163
bien-être 163
brou@@ 163
centrale 163
compagnies 163
couv@@ 163
devrais 163
disaster 163
détes@@ 163
ember 163
fishing 163
football 163
govern@@ 163
gram 163
grippe 163
handi@@ 163
innovative 163
intérêts 163
isra@@ 163
jet 163
kore@@ 163
mach@@ 163
mani@@ 163
open@@ 163
orb@@ 163
oxford 163
puzzle 163
ressembler 163
selling 163
tube 163
unknown 163
vast@@ 163
venti@@ 163
voire 163
yo 163
apped 162
aurions 162
bataille 162
campus 162
carefully 162
cheveux 162
citation 162
consac@@ 162
désolé 162
eating 162
exag@@ 162
glaci@@ 162
historique 162
ink 162
iss 162
member 162
mesur@@ 162
miro@@ 162
neutr@@ 162
nin@@ 162
nouvel 162
pois@@ 162
profound 162
red@@ 162
refus@@ 162
routes 162
réduit 162
référence 162
schizoph@@ 162
somehow 162
soudain 162
stery 162
swim@@ 162
thérapie 162
tort 162
wisdom 162
ènes 162
100,000 161
airplane 161
auxquels 161
axe 161
blancs 161
broo@@ 161
caused 161
cked 161
client 161
considère 161
coté 161
cu 161
democratic 161
dinner 161
duced 161
envis@@ 161
estin@@ 161
faus@@ 161
franc@@ 161
gan@@ 161
hip@@ 161
honor 161
jaune 161
lumières 161
mesures 161
mile 161
ode 161
partis 161
poign@@ 161
processes 161
prote@@ 161
puts 161
refu@@ 161
rot@@ 161
tian 161
translation 161
vieille 161
appears 160
attacks 160
auriez 160
australie 160
autism 160
ballo@@ 160
camp@@ 160
composition 160
dable 160
damage 160
dessiner 160
diagnosti@@ 160
discipl@@ 160
dispos@@ 160
grand-mère 160
initiative 160
investig@@ 160
link 160
logiques 160
maintenir 160
mets 160
mécan@@ 160
mélang@@ 160
pa 160
pathy 160
phants 160
protected 160
prouver 160
résolution 160
réunion 160
sagesse 160
score 160
symme@@ 160
talents 160
tise 160
viande 160
yers 160
2001 159
adapter 159
arme 159
beat 159
bible 159
block 159
curious 159
defined 159
drogue 159
déjeuner 159
enz@@ 159
extinction 159
extra 159
ference 159
golf 159
illir 159
lande 159
layer 159
mail 159
mammif@@ 159
manage 159
meat 159
mousti@@ 159
mè@@ 159
mécanique 159
players 159
precis@@ 159
prét@@ 159
quick 159
réser@@ 159
sacrifi@@ 159
senti@@ 159
symé@@ 159
tes-vous 159
therapy 159
veill@@ 159
étapes 159
étranger 159
augh 158
avons-nous 158
break@@ 158
bud@@ 158
carry 158
centers 158
everyday 158
feelings 158
guerres 158
itarian 158
joueurs 158
kly 158
mage 158
mim@@ 158
minister 158
mises 158
mix 158
mortality 158
méthodes 158
oeil 158
ota 158
pack@@ 158
passée 158
player 158
poésie 158
prends 158
pris@@ 158
privée 158
propriétés 158
respir@@ 158
roll 158
rwanda 158
similaires 158
sity 158
sophisti@@ 158
steven 158
stupé@@ 158
super-@@ 158
techni@@ 158
triste 158
viet@@ 158
étudie 158
évè@@ 158
accepter 157
administration 157
aimer 157
amine 157
angles 157
belief 157
charbon 157
chimie 157
chromo@@ 157
complet 157
conséquent 157
currently 157
denti@@ 157
descendre 157
document 157
drones 157
elling 157
fellow 157
fluor@@ 157
inform@@ 157
itali@@ 157
itive 157
liqui@@ 157
maîtr@@ 157
modé@@ 157
ouvre 157
plani@@ 157
poem 157
pousse 157
quons 157
ros@@ 157
souffr@@ 157
tern@@ 157
toit 157
tt 157
wars 157
700 156
amie 156
aying 156
chemistry 156
condi@@ 156
croient 156
danger@@ 156
daniel 156
devions 156
drink 156
décennie 156
détecter 156
empi@@ 156
enregist@@ 156
entrepreneur 156
extin@@ 156
faith 156
gique 156
ienne 156
impres@@ 156
joe 156
leg 156
load 156
longues 156
matiques 156
ministre 156
neighbor@@ 156
nets 156
pense@@ 156
propri@@ 156
quelques-uns 156
rev@@ 156
rions-nous 156
stabil@@ 156
stream 156
surfaces 156
technologique 156
transforme 156
tro 156
unies 156
viruses 156
voyager 156
éclair@@ 156
étique 156
événement 156
admi@@ 155
ancer 155
bac@@ 155
baseball 155
chaussures 155
combu@@ 155
comprends 155
dam 155
débarrass@@ 155
démonstration 155
foie 155
grandmother 155
grou@@ 155
mathémati@@ 155
need@@ 155
nervous 155
operating 155
parall@@ 155
ressemblait 155
réussite 155
skel@@ 155
spea@@ 155
spir@@ 155
stronger 155
tubes 155
venaient 155
çons 155
biles 154
cine 154
concerned 154
coral 154
correspond 154
dat 154
dose 154
egyp@@ 154
engineer 154
ests 154
experienced 154
extraordinaires 154
frontière 154
funding 154
fur 154
fus@@ 154
implique 154
inking 154
journaux 154
mans 154
nombres 154
organiser 154
privé 154
promis 154
quasiment 154
quatrième 154
revolu@@ 154
rouges 154
réchauffement 154
sending 154
sérieusement 154
trous 154
versions 154
çait 154
érie 154
5,000 153
amy 153
arab 153
army 153
aut 153
baiss@@ 153
bear 153
believ@@ 153
cock@@ 153
croyons 153
discipline 153
dness 153
définir 153
ez-moi 153
germany 153
hôpitaux 153
lié 153
mai@@ 153
parole 153
particulière 153
performan@@ 153
poor@@ 153
poème 153
repas 153
requins 153
roads 153
réflexion 153
sue 153
suggests 153
terminer 153
till@@ 153
vélo 153
zi@@ 153
120 152
acking 152
alise 152
ancêtres 152
antly 152
asses 152
attraper 152
biologi@@ 152
centu@@ 152
civile 152
coal 152
comfort 152
commencez 152
compétition 152
connus 152
counter@@ 152
discus@@ 152
engager 152
essions 152
fascinant 152
ff 152
hadn 152
kr@@ 152
lessons 152
library 152
pollin@@ 152
properties 152
ramener 152
rements 152
rene@@ 152
régl@@ 152
sis@@ 152
smile 152
spin@@ 152
spécial 152
travaux 152
ving@@ 152
émission 152
-up 151
anny 151
audit@@ 151
aux@@ 151
battery 151
brian 151
carré 151
chirur@@ 151
civ@@ 151
claire 151
cules 151
fonctions 151
fortune 151
gang 151
gul@@ 151
happ@@ 151
immer@@ 151
influ@@ 151
kh@@ 151
kins 151
liked 151
matern@@ 151
metaphor 151
métaphore 151
parfaite 151
partner 151
plate 151
platform 151
play@@ 151
presence 151
profits 151
shapes 151
soi@@ 151
thre@@ 151
tious 151
troubles 151
tâches 151
unless 151
visions 151
écri@@ 151
église 151
émis@@ 151
évo@@ 151
œurs 151
abon@@ 150
appliquer 150
bell 150
blan@@ 150
bott@@ 150
champs 150
characters 150
chr@@ 150
conscient 150
dames 150
dise 150
flexible 150
foi 150
garden 150
grain 150
graphiques 150
infirmi@@ 150
inspiré 150
interagir 150
jeu@@ 150
journalist 150
jump 150
navi@@ 150
nor 150
pairs 150
path@@ 150
pea@@ 150
pengu@@ 150
pier@@ 150
pleasure 150
porting 150
probl@@ 150
prédire 150
puissants 150
ren 150
ror 150
réfugiés 150
sides 150
standards 150
symp@@ 150
thèses 150
titude 150
traditions 150
transmission 150
transparent 150
électro@@ 150
équipement 150
50@@ 149
activities 149
actors 149
ala 149
allant 149
allemagne 149
alé@@ 149
assemble 149
assi@@ 149
bibliothèque 149
cat 149
celui-là 149
cend@@ 149
complète 149
connecté 149
crit@@ 149
deb@@ 149
designing 149
décid@@ 149
déplo@@ 149
ecu@@ 149
eling 149
encies 149
exper@@ 149
extrême 149
fail@@ 149
forestation 149
gore 149
hackers 149
hauteur 149
holes 149
ingénieur 149
instructions 149
intellig@@ 149
intri@@ 149
majority 149
menac@@ 149
montrant 149
nel@@ 149
oles 149
ouverture 149
philosop@@ 149
portent 149
promis@@ 149
reci@@ 149
roof 149
sovi@@ 149
specifically 149
stock 149
terait 149
to-@@ 149
tory 149
voi@@ 149
windows 149
administr@@ 148
agissait 148
aigu@@ 148
bage 148
believed 148
bob 148
champi@@ 148
chec@@ 148
clar@@ 148
crip@@ 148
defin@@ 148
directions 148
driver 148
dî@@ 148
economics 148
ela 148
fiée 148
iens 148
intes 148
ints 148
ived 148
lady 148
laire 148
lecture 148
lique 148
marin 148
médicaux 148
nai@@ 148
nose 148
paci@@ 148
placement 148
prepar@@ 148
rassembler 148
released 148
rol@@ 148
signed 148
stock@@ 148
syri@@ 148
tain 148
tumor 148
vehicle 148
wild 148
établir 148
80@@ 147
alism 147
brun@@ 147
croit 147
dessins 147
disparu 147
entends 147
essai 147
eting 147
exer@@ 147
forth 147
générer 147
harder 147
hasn 147
hotel 147
housing 147
illage 147
losing 147
mir@@ 147
modernes 147
molecular 147
outcome 147
ouverte 147
pic 147
positifs 147
puissions 147
qua@@ 147
quartiers 147
rat 147
ro 147
roy@@ 147
résu@@ 147
sac 147
scann@@ 147
shap@@ 147
singes 147
some@@ 147
spatial 147
stephen 147
tissus 147
vaccin@@ 147
variation 147
épi@@ 147
31 146
acked 146
amor@@ 146
applied 146
araig@@ 146
bag 146
balle 146
ble@@ 146
blogs 146
bét@@ 146
caught 146
champign@@ 146
compati@@ 146
emerging 146
fiés 146
foss@@ 146
ices 146
intellectual 146
jack 146
japanese 146
kevin 146
ladies 146
northern 146
opérations 146
ound 146
prison@@ 146
publicité 146
quet 146
radio@@ 146
remain 146
restric@@ 146
smart@@ 146
sms 146
surpren@@ 146
th-@@ 146
voisins 146
vous-même 146
87 145
apparemment 145
appell@@ 145
attaquer 145
aurez 145
benjam@@ 145
chimpanzés 145
chin@@ 145
ciels 145
corri@@ 145
emprun@@ 145
enthousias@@ 145
envelop@@ 145
environments 145
ethiop@@ 145
evil 145
fondamentale 145
français 145
globale 145
holo@@ 145
hormon@@ 145
japon@@ 145
labor 145
lad@@ 145
leçons 145
maire 145
médical 145
naturellement 145
poste 145
réparer 145
scén@@ 145
se-@@ 145
shoul@@ 145
than@@ 145
underwater 145
vague 145
versus 145
véhicules 145
équip@@ 145
1990 144
2.@@ 144
acceptable 144
actual 144
actuel 144
alimentation 144
citiz@@ 144
créée 144
derek 144
déli@@ 144
edi@@ 144
ethni@@ 144
even@@ 144
extrait 144
fruits 144
galaxie 144
gather@@ 144
gentlemen 144
hallucin@@ 144
hypothèse 144
impul@@ 144
ket@@ 144
mélange 144
nick 144
overwhel@@ 144
py@@ 144
received 144
rome 144
sarah 144
situ@@ 144
spectacle 144
synchron@@ 144
tiles 144
tionary 144
attendez 143
background 143
bases 143
bill@@ 143
bouteille 143
breath 143
capacity 143
click 143
cliniques 143
connaît 143
cons@@ 143
continents 143
contrairement 143
core 143
dots 143
empre@@ 143
equality 143
excellent 143
farm 143
globe 143
gy 143
ham 143
incenti@@ 143
industrielle 143
infection 143
ition 143
jack@@ 143
jones 143
kilos 143
lay@@ 143
lumin@@ 143
midi 143
molé@@ 143
ooh 143
orities 143
pix@@ 143
positif 143
pull 143
rale 143
relativement 143
sahar@@ 143
sep@@ 143
sinon 143
suggère 143
terrorism 143
terrorisme 143
totale 143
transformé 143
unlike 143
vente 143
visages 143
visuel 143
vivants 143
wide 143
william 143
échange 143
ôme 143
21st 142
attend 142
ax@@ 142
axis 142
bleue 142
citer 142
commis@@ 142
compter 142
courag@@ 142
créons 142
defense 142
dinosaures 142
discussions 142
dogs 142
eds 142
empathie 142
endem@@ 142
fold 142
gel@@ 142
ght-@@ 142
heav@@ 142
hospitals 142
libér@@ 142
liquide 142
locale 142
observé 142
oiseau 142
ony 142
opening 142
oppos@@ 142
pot 142
relevant 142
reward 142
seaux 142
spe@@ 142
underneath 142
zan@@ 142
2012 141
analyser 141
augmenté 141
bee 141
cheval 141
cident@@ 141
circulation 141
consist@@ 141
contrain@@ 141
deviend@@ 141
dictions 141
donnez 141
ello 141
finger 141
gift 141
génie 141
hero 141
hollywood 141
inner 141
iture 141
kinson 141
lle 141
magasin 141
magique 141
organs 141
pers 141
religions 141
résili@@ 141
rév@@ 141
schéma 141
scott 141
signs 141
soy@@ 141
stein 141
sult@@ 141
ts@@ 141
um@@ 141
yme 141
édie 141
œur 141
accomplir 140
albu@@ 140
alities 140
ande 140
app 140
ath 140
atl@@ 140
bactéri@@ 140
beat@@ 140
behaviors 140
bubble 140
challeng@@ 140
configu@@ 140
discrimin@@ 140
donnant 140
dépar@@ 140
ebola 140
ecosystem 140
emmener 140
entirely 140
fbi 140
fi 140
gles 140
hurt 140
liés 140
mange@@ 140
micros@@ 140
moder@@ 140
mol@@ 140
naturally 140
organisme 140
origami 140
panneaux 140
peinture 140
politicians 140
practical 140
quantique 140
remplacer 140
retraite 140
robu@@ 140
roi 140
sentiments 140
session 140
spectacul@@ 140
suicide 140
séri@@ 140
tan 140
transmettre 140
variations 140
épau@@ 140
accou@@ 139
africa@@ 139
ailles 139
architect 139
arrang@@ 139
atoms 139
canc@@ 139
chiens 139
chimique 139
dark@@ 139
electrical 139
eve 139
fermi@@ 139
intelligen@@ 139
leading 139
long-term 139
mammo@@ 139
muni@@ 139
opin@@ 139
partners 139
ping@@ 139
redu@@ 139
rési@@ 139
sea@@ 139
subst@@ 139
system@@ 139
tenter 139
ts-@@ 139
vaccine 139
venture 139
winter 139
ysi@@ 139
67@@ 138
allem@@ 138
architecte 138
art@@ 138
autis@@ 138
cement 138
clip 138
composants 138
cour 138
courte 138
dimin@@ 138
ence@@ 138
fossil 138
gravité 138
gun 138
honnête 138
jeff 138
lan 138
magnifiques 138
mainten@@ 138
manag@@ 138
mark@@ 138
mention 138
messieurs 138
ont-ils 138
poche 138
remettre 138
roots 138
seat 138
souvenirs 138
surprenant 138
surveill@@ 138
systé@@ 138
sélec@@ 138
teeth 138
terminé 138
ttes 138
vertical 138
web@@ 138
yn 138
étonnant 138
2050 137
29@@ 137
a. 137
actifs 137
aident 137
aitre 137
basi@@ 137
bright 137
croyez 137
dir@@ 137
dét@@ 137
escence 137
exploitation 137
fossiles 137
grapher 137
grati@@ 137
inde@@ 137
installation 137
isto@@ 137
magné@@ 137
metal 137
mistake 137
moteurs 137
obé@@ 137
onie 137
permanent 137
personnages 137
pertin@@ 137
pie 137
plate@@ 137
predat@@ 137
quiconque 137
ration 137
restent 137
ried 137
singing 137
symptoms 137
tombé 137
tremendous 137
vas 137
writer 137
ître 137
0 136
ballon 136
bel 136
cambridge 136
captur@@ 136
chea@@ 136
combattre 136
dealing 136
description 136
désesp@@ 136
flag 136
inspi@@ 136
jeter 136
me-@@ 136
mentioned 136
monu@@ 136
moore 136
moun@@ 136
open-source 136
ority 136
parach@@ 136
passe-t-il 136
pause 136
perç@@ 136
pete 136
pourrai@@ 136
propag@@ 136
quette 136
records 136
représentation 136
retrouve 136
résistance 136
sharks 136
sit@@ 136
slu@@ 136
sm@@ 136
sommes-nous 136
substance 136
tionner 136
ush 136
vienne 136
za 136
ze@@ 136
écosystème 136
46 135
55 135
absolute 135
ainement 135
aisons 135
aliz@@ 135
aper@@ 135
atch 135
beg@@ 135
clean@@ 135
couverture 135
dait 135
desper@@ 135
ee 135
fantas@@ 135
fat@@ 135
finish 135
heroes 135
ien 135
ignent 135
illumin@@ 135
impos@@ 135
intuitive 135
manipu@@ 135
mondes 135
nutrition 135
of@@ 135
ough 135
oux 135
pacifique 135
pair 135
partenaires 135
pd@@ 135
pourcentage 135
pouv@@ 135
pre-@@ 135
publiques 135
reached 135
resource 135
rétro@@ 135
savaient 135
serons 135
sher@@ 135
spectrum 135
stric@@ 135
titudes 135
trine 135
verb@@ 135
véhicule 135
watts 135
worlds 135
économies 135
1960 134
1980 134
accepté 134
added 134
adolescents 134
avantages 134
baisse 134
bam@@ 134
certi@@ 134
cible 134
culaires 134
dispositif 134
détruire 134
emotion 134
expected 134
facteur 134
greg@@ 134
has@@ 134
injec@@ 134
inva@@ 134
isez 134
lifes@@ 134
mann 134
mirror 134
modifier 134
nerveux 134
occa@@ 134
ondes 134
opar@@ 134
opy 134
prepared 134
rh@@ 134
savions 134
scene 134
shark 134
siècles 134
status 134
symptômes 134
tane@@ 134
terroristes 134
testing 134
écoutez 134
69@@ 133
72 133
alisée 133
ani 133
any@@ 133
atomes 133
attaques 133
atterr@@ 133
bes@@ 133
bottle 133
camér@@ 133
chemicals 133
cident 133
cieux 133
colonies 133
diagnostic 133
disparaître 133
dorm@@ 133
feuilles 133
garage 133
healthcare 133
howard 133
ini 133
institut 133
israël 133
lion 133
mic 133
mike 133
milk 133
monsi@@ 133
négoci@@ 133
pareil 133
printing 133
programm@@ 133
rati@@ 133
reconnaissance 133
restaurants 133
réguli@@ 133
shir@@ 133
siège 133
tz 133
vole 133
végét@@ 133
was@@ 133
éduca@@ 133
étr@@ 133
38 132
adesh 132
aimé 132
aises 132
anniversaire 132
attrap@@ 132
bicy@@ 132
bomb 132
caf@@ 132
camps 132
cevoir 132
chefs 132
cise 132
congress 132
deliver 132
dia 132
escopes 132
eues 132
fashion 132
fati@@ 132
fes@@ 132
gli@@ 132
heavy 132
ignore 132
intégrer 132
inég@@ 132
jug@@ 132
ker@@ 132
location 132
mandel@@ 132
monté 132
mécanisme 132
média 132
oug@@ 132
panneau 132
phin 132
portrait 132
pratiques 132
précision 132
q 132
realiz@@ 132
seat@@ 132
seign@@ 132
shan@@ 132
strength 132
sélection 132
trace 132
transforma@@ 132
téléphon@@ 132
évén@@ 132
ôt 132
39 131
assistance 131
bad@@ 131
clés 131
colo@@ 131
conséquence 131
créatif 131
cycl@@ 131
dions 131
distr@@ 131
empire 131
fabriqué 131
flott@@ 131
fête 131
graduate 131
illegal 131
kin 131
kitchen 131
lag@@ 131
levez 131
là-dedans 131
mun@@ 131
naturelles 131
ought 131
peac@@ 131
permettant 131
photographie 131
probabilité 131
profondeur 131
présents 131
rates 131
renouvel@@ 131
revie@@ 131
s-là 131
sale 131
sophisticated 131
subj@@ 131
traité 131
translat@@ 131
affron@@ 130
automobile 130
bot@@ 130
chute 130
competi@@ 130
connexions 130
céré@@ 130
dep@@ 130
ecs 130
evolutionary 130
examin@@ 130
fant@@ 130
frau@@ 130
gain 130
hec@@ 130
hopefully 130
it-@@ 130
lang@@ 130
migration 130
minis@@ 130
moves 130
numéri@@ 130
pation 130
practi@@ 130
regi@@ 130
relatively 130
ry@@ 130
scal@@ 130
shirt 130
sight 130
thers 130
unexpected 130
éni@@ 130
45@@ 129
agno@@ 129
algorithms 129
bles@@ 129
bun@@ 129
conflic@@ 129
cuse 129
enda 129
feder@@ 129
gment 129
hat@@ 129
instru@@ 129
interests 129
killing 129
king@@ 129
kne@@ 129
mo 129
motor 129
phénom@@ 129
placer 129
quad@@ 129
regular 129
remain@@ 129
soud@@ 129
stations 129
tch 129
traite 129
unusual 129
ute 129
vehic@@ 129
voila 129
wash@@ 129
bow@@ 128
chicken 128
cript 128
exercise 128
fewer 128
ghten@@ 128
gigan@@ 128
goods 128
highest 128
horse 128
ingre@@ 128
linked 128
point@@ 128
pons 128
producing 128
property 128
reco@@ 128
safety 128
smar@@ 128
southern 128
stern 128
water@@ 128
alternatives 127
black@@ 127
chip 127
dom 127
fail 127
ivent 127
keeping 127
mad 127
oral 127
permission 127
physically 127
puiss@@ 127
release 127
suring 127
tale 127
terr@@ 127
ôle 127
ada 126
beli@@ 126
businesses 126
cast 126
centage 126
euro@@ 126
f-@@ 126
harv@@ 126
là-@@ 126
percep@@ 126
powers 126
regions 126
sandwich 126
shift 126
steel 126
turb@@ 126
+ 125
battle 125
birth@@ 125
buying 125
cancers 125
conven@@ 125
croiss@@ 125
cruci@@ 125
distric@@ 125
falls 125
ft 125
increas@@ 125
industries 125
infr@@ 125
motifs 125
plays 125
post 125
ramen@@ 125
tag@@ 125
ular 125
ël 125
.. 124
aly@@ 124
ame 124
archit@@ 124
australi@@ 124
chaî@@ 124
combination 124
entertain@@ 124
ety 124
near@@ 124
poster 124
proposition 124
quanti@@ 124
resear@@ 124
sci@@ 124
stood 124
suscepti@@ 124
ware 124
watched 124
weather 124
woo@@ 124
authority 123
cap 123
carol@@ 123
cry@@ 123
deeper 123
dings 123
escope 123
instantan@@ 123
introduced 123
makers 123
mb 123
motion 123
obstac@@ 123
prac@@ 123
seri@@ 123
thri@@ 123
toy 123
demo@@ 122
ees 122
environn@@ 122
impacts 122
lock 122
mirac@@ 122
pad 122
pein@@ 122
pend 122
préc@@ 122
quat@@ 122
trage@@ 122
valuable 122
vation 122
adol@@ 121
blocks 121
cable 121
flexi@@ 121
follo@@ 121
gang@@ 121
include 121
ira@@ 121
ld 121
pointed 121
total@@ 121
trillion 121
vivi@@ 121
ailed 120
designs 120
deu@@ 120
doctor@@ 120
eria 120
facing 120
hill 120
house@@ 120
igh@@ 120
oning 120
util@@ 120
vulnerable 120
abeth 119
broke 119
béné@@ 119
cardia@@ 119
celle-@@ 119
hang@@ 119
plann@@ 119
spectac@@ 119
therap@@ 119
truly 119
44@@ 118
amoun@@ 118
brow@@ 118
caractéris@@ 118
diet 118
increased 118
mathé@@ 118
orie 118
pon 118
stea@@ 118
stun@@ 118
suggest 118
tradi@@ 118
tron@@ 118
éma 118
aug@@ 117
bet@@ 117
britain 117
chans@@ 117
cing 117
citoy@@ 117
eted 117
eue 117
figures 117
infrastruc@@ 117
k-@@ 117
personally 117
sad@@ 117
spl@@ 117
stro@@ 117
techno@@ 117
bby 116
camer@@ 116
fen@@ 116
figu@@ 116
free@@ 116
gy@@ 116
key@@ 116
kilom@@ 116
mean@@ 116
phenomen@@ 116
spirit 116
stand@@ 116
tionally 116
voudr@@ 116
wher@@ 116
a.@@ 115
bir@@ 115
bom@@ 115
cle@@ 115
driven 115
dun@@ 115
décl@@ 115
nei@@ 115
oy@@ 115
peut-@@ 115
reuses 115
soft 115
whom 115
circumst@@ 114
drives 114
ems 114
ening 114
estation 114
figured 114
mau@@ 114
narrative 114
oid 114
ounds 114
raising 114
require 114
afgh@@ 113
aps 113
cutting 113
emp@@ 113
grown 113
perspec@@ 113
rions 113
solving 113
stoc@@ 113
wai@@ 113
auv@@ 112
burn 112
existing 112
i.@@ 112
issait 112
manufacturing 112
matéri@@ 112
secon@@ 112
secre@@ 112
ski@@ 112
spr@@ 112
boute@@ 111
claim 111
collea@@ 111
guer@@ 111
immen@@ 111
ped 111
sage 111
traî@@ 111
détail@@ 110
gaz@@ 110
geor@@ 110
igno@@ 110
interes@@ 110
laptop 110
op 110
tioning 110
à-@@ 110
aling 109
behavi@@ 109
buil@@ 109
chiff@@ 109
compas@@ 109
dres 109
emis@@ 109
endu 109
ennent 109
fortunately 109
him@@ 109
listen@@ 109
minu@@ 109
one@@ 109
swit@@ 109
tac@@ 109
angel@@ 108
anima@@ 108
arily 108
aser 108
bloo@@ 108
chil@@ 108
journ@@ 108
proce@@ 108
sop@@ 108
électron@@ 108
adolesc@@ 107
aph@@ 107
betti 107
bizar@@ 107
buff@@ 107
independ@@ 107
naturel@@ 107
preci@@ 107
prési@@ 107
septem@@ 107
servi@@ 107
staff 107
tements 107
usa 107
cated 106
eure 106
extrê@@ 106
forts 106
hard@@ 106
hell 106
nuclé@@ 106
pop 106
poun@@ 106
primary 106
required 106
runs 106
stat@@ 106
underst@@ 106
volu@@ 106
worker 106
66@@ 105
aft 105
computing 105
extra@@ 105
forma@@ 105
great@@ 105
inher@@ 105
meaningful 105
plai@@ 105
success@@ 105
swi@@ 105
wise 105
élo@@ 105
curité 104
democr@@ 104
ells 104
ghting 104
goû@@ 104
in-@@ 104
izing 104
manufactu@@ 104
oli 104
powered 104
proper@@ 104
èmement 104
an-@@ 103
bble 103
calling 103
conque 103
crash 103
credit 103
entrepren@@ 103
i-même 103
intro@@ 103
iting 103
refer@@ 103
signific@@ 103
vely 103
chor@@ 102
ength 102
fresh 102
fundamentally 102
hood 102
ities 102
joh@@ 102
spoke 102
warm 102
willi@@ 102
228293 101
billi@@ 101
breaking 101
certa@@ 101
différ@@ 101
décri@@ 101
eures 101
generally 101
gir@@ 101
leon@@ 101
lifetime 101
maî@@ 101
monter@@ 101
partici@@ 101
processing 101
“ 101
angu@@ 100
congr@@ 100
cord 100
engaged 100
enthousi@@ 100
professi@@ 100
répar@@ 100
xim@@ 100
anger@@ 99
ardo 99
awful 99
commenc@@ 99
craft 99
fel@@ 99
ingéni@@ 99
l-@@ 99
potentially 99
réf@@ 99
tape 99
tenti@@ 99
étu@@ 99
11@@ 98
arly 98
cky 98
ee@@ 98
illing 98
quelques-@@ 98
spot 98
strai@@ 98
traveling 98
variety 98
wire 98
65@@ 97
and-@@ 97
lish 97
onom@@ 97
resp@@ 97
” 97
améli@@ 96
anon@@ 96
confidence 96
delà 96
désor@@ 96
fici@@ 96
illed 96
picked 96
précis@@ 96
sement 96
sets 96
band 95
communic@@ 95
dama@@ 95
exac@@ 95
mement 95
oned 95
proch@@ 95
relative 95
rey 95
tech@@ 95
typically 95
who@@ 95
œ@@ 95
atement 94
carrying 94
neg@@ 94
nia 94
requi@@ 94
thérap@@ 94
walks 94
worldwide 94
1916658 93
ception 93
cy 93
effectively 93
entir 93
héro@@ 93
magas@@ 93
magaz@@ 93
naiss@@ 93
partment 93
setting 93
surpris@@ 93
ètres 93
ît 93
abe@@ 92
anced 92
compét@@ 92
conv@@ 92
cope 92
fonc@@ 92
ource 92
tum 92
well@@ 92
accessi@@ 91
américa@@ 91
awareness 91
cali@@ 91
demment 91
décr@@ 91
eters 91
fairly 91
long-@@ 91
pétro@@ 91
quences 91
sively 91
ï 91
ased 90
auté 90
consider@@ 90
dus 90
encoun@@ 90
ener@@ 90
fortun@@ 90
particuli@@ 90
reach@@ 90
remo@@ 90
tempt 90
thou@@ 90
# 89
atis@@ 89
atory 89
au-@@ 89
boî@@ 89
compan@@ 89
dimen@@ 89
emo@@ 89
mê@@ 89
onger 89
stac@@ 89
survey 89
temper@@ 89
travail@@ 89
troisi@@ 89
usual 89
dee@@ 88
efficac@@ 88
hero@@ 88
océ@@ 88
puzz@@ 88
restaur@@ 88
search@@ 88
voil@@ 88
éris@@ 88
alg@@ 87
elle-@@ 87
ine@@ 87
less@@ 87
possibly 87
rapidly 87
respons@@ 87
ryth@@ 87
stitu@@ 87
tér@@ 87
writ@@ 87
z-moi 87
enty 86
ffi@@ 86
frame 86
kno@@ 86
mesu@@ 86
ppe 86
prés@@ 86
scho@@ 86
sier 86
vill@@ 86
érence 86
… 86
din 85
fab@@ 85
heal@@ 85
immédi@@ 85
ington 85
photographs 85
popu@@ 85
switch 85
austr@@ 84
differ@@ 84
hospit@@ 84
hus@@ 84
ids 84
nearly 84
norm@@ 84
tempér@@ 84
vul@@ 84
bacter@@ 83
desp@@ 83
eil 83
grap@@ 83
lais@@ 83
lay 83
num@@ 83
sag@@ 83
upon 83
wired 83
acks 82
cultu@@ 82
démie 82
esh 82
ind 82
inté@@ 82
mex@@ 82
royau@@ 82
á@@ 82
catastr@@ 81
gla@@ 81
normal@@ 81
pos 81
rying 81
scientifi@@ 81
soldi@@ 81
ston 81
americ@@ 80
ano 80
auc@@ 80
couver@@ 80
evi@@ 80
famil@@ 80
heu@@ 80
itié 80
ose 80
rivi@@ 80
circu@@ 79
fla@@ 79
tes-@@ 79
whenever 79
èce 79
bâti@@ 78
chal@@ 78
health@@ 78
immedi@@ 78
stom@@ 78
vered 78
braz@@ 77
communaut@@ 77
dress 77
hav@@ 77
lir 77
nou@@ 77
ride 77
scep@@ 77
shif@@ 77
uti@@ 77
bling 76
fru@@ 76
jau@@ 76
mouv@@ 76
occur@@ 76
oms 76
round 76
til 76
uni 76
vulner@@ 76
vê@@ 76
acro@@ 75
atmosp@@ 75
convainc@@ 75
dp 75
emplo@@ 75
life@@ 75
pack 75
pend@@ 75
pharmac@@ 75
réfl@@ 75
titu@@ 75
are@@ 74
awesome 74
célè@@ 74
ign 74
perform 74
réchauff@@ 74
agnes 73
artifi@@ 73
automo@@ 73
ender 73
fortable 73
futu@@ 73
perf@@ 73
rur@@ 73
trip 73
vertes 73
weal@@ 73
ü@@ 73
ches@@ 72
chic@@ 72
contex@@ 72
ec 72
enn@@ 72
libr@@ 72
loir 72
ox@@ 72
perfec@@ 72
siè@@ 72
world@@ 72
ã@@ 72
compéti@@ 71
corru@@ 71
etting 71
ich 71
meth@@ 71
run@@ 71
tabl@@ 71
traf@@ 71
won@@ 71
524687 70
dats 70
keyser 70
kit@@ 70
onnes 70
ply 70
popul@@ 70
roughly 70
érences 70
formid@@ 69
mption 69
solu@@ 69
équili@@ 69
ape 68
farm@@ 68
ided 68
import@@ 68
iness 68
len 68
year-@@ 68
beauti@@ 67
epi@@ 67
equi@@ 67
ghtly 67
nas@@ 67
orm@@ 67
pace 67
del 66
extraordin@@ 66
hore 66
lear@@ 66
profi@@ 66
atur@@ 65
compréhen@@ 65
consid@@ 65
déci@@ 65
ech 65
icon 65
relev@@ 65
surve@@ 65
tils 65
altern@@ 64
arian 64
embl@@ 64
etry 64
extrem@@ 64
gau@@ 64
laboratory 64
midd@@ 64
pak@@ 64
profond@@ 64
sionate 64
stan@@ 64
copes 63
definitely 63
dru@@ 63
epidem@@ 63
exi@@ 63
nee@@ 63
tough 63
í@@ 63
investi@@ 62
lem@@ 62
valu@@ 62
wiki@@ 62
çu 62
eth 61
feu@@ 61
know@@ 61
sat@@ 61
usement 61
chir@@ 60
exem@@ 60
métap@@ 60
natu@@ 60
shall 60
@ 59
beau@@ 59
caux 59
espo@@ 59
failu@@ 59
laisse@@ 59
lywood 59
pedia 59
rele@@ 59
spé@@ 59
what@@ 59
culp@@ 58
ésie 58
andre@@ 57
atively 57
chur@@ 57
dation 57
instruc@@ 57
succ@@ 57
survi@@ 57
trical 57
vau@@ 57
étés 57
ö@@ 57
ativité 56
complet@@ 56
ival@@ 56
low@@ 56
tec@@ 56
vous-@@ 56
wall@@ 56
ètement 56
get@@ 55
inning 55
lik@@ 55
phen@@ 55
wis@@ 55
épo@@ 55
anz@@ 54
ave@@ 54
dow@@ 54
nous-@@ 54
ould 54
réfugi@@ 54
régi@@ 54
train@@ 54
çais 54
adul@@ 53
ativity 53
bibli@@ 53
bic@@ 53
istan 53
istr@@ 53
itely 53
museu@@ 53
seem@@ 53
ause 52
aving 52
democrati@@ 52
environ@@ 52
esc@@ 52
lem 52
récu@@ 52
zaines 52
campaig@@ 51
desc@@ 51
décis@@ 51
itures 51
particu@@ 51
roug@@ 51
volun@@ 51
appe@@ 50
major@@ 50
neaux 50
responsi@@ 50
reté 50
voul@@ 50
ó@@ 50
chen 49
dialo@@ 49
iop@@ 49
ois@@ 49
transi@@ 49
mov@@ 48
nies 48
recy@@ 48
sacri@@ 48
écu@@ 48
ñ@@ 48
aband@@ 47
ado@@ 47
brit@@ 47
fres@@ 47
fundament@@ 47
iel 47
magnifi@@ 47
strat@@ 47
thè@@ 47
busin@@ 46
cog@@ 46
commer@@ 46
dows 46
enorm@@ 46
factu@@ 46
materi@@ 46
nour@@ 46
perfor@@ 46
tionne 46
tune 46
vern@@ 46
) 45
bén@@ 45
procha@@ 45
eric@@ 44
heure@@ 44
remark@@ 44
aria 43
entiss@@ 43
lites 43
open-@@ 43
r. 43
tely 43
bien-@@ 42
ceau 42
eils 42
experienc@@ 42
gger 42
issu@@ 42
peop@@ 42
sof@@ 42
complex@@ 41
oce@@ 41
osau@@ 41
rough@@ 41
sever@@ 41
steph@@ 41
ômes 41
ativement 40
champ@@ 40
désol@@ 40
incre@@ 40
monstr@@ 40
natur@@ 40
previ@@ 40
psychi@@ 40
rière 40
sudd@@ 40
tish 40
tiz@@ 40
toward 40
écon@@ 40
aster 39
clear@@ 39
eces 39
enreg@@ 39
métho@@ 39
négo@@ 39
plé@@ 39
bli@@ 38
chets 38
coff@@ 38
engine@@ 38
expéri@@ 38
profess@@ 38
somme@@ 38
studi@@ 38
annivers@@ 37
com 37
cée 37
derni@@ 37
envir@@ 37
fossi@@ 37
gentlem@@ 37
sust@@ 37
with@@ 37
yel@@ 37
² 37
âtre 37
fashi@@ 36
marri@@ 36
nucl@@ 36
rapid@@ 36
trilli@@ 36
tting 36
tually 36
anneau 35
dden 35
intellec@@ 35
knowle@@ 35
mente 35
pale 35
présen@@ 35
titles 35
239@@ 34
ebr@@ 34
elop@@ 34
inging 34
quan@@ 34
quasi@@ 34
zar@@ 34
chaus@@ 33
empath@@ 33
extre@@ 33
heur 33
presid@@ 33
sands 33
thom@@ 33
wear@@ 33
worl@@ 33
_ 32
bibliothè@@ 32
cidents 32
efully 32
erre 32
passe-@@ 32
through@@ 32
tâ@@ 32
dai@@ 31
ease 31
ester@@ 31
hosp@@ 31
psy@@ 31
résou@@ 31
ë 31
exions 30
hap@@ 30
intér@@ 30
‘ 30
* 29
child@@ 29
obs 29
sympt@@ 29
achi@@ 28
antages 28
moment-@@ 28
other@@ 28
tau@@ 28
tell@@ 28
there@@ 28
timately 28
andis 27
avail@@ 27
ceaux 27
disponi@@ 27
insp@@ 27
réfu@@ 27
apes 26
avel 26
biblio@@ 26
gent@@ 26
gott@@ 26
mémo@@ 26
suj@@ 26
surger@@ 26
ancs 25
belo@@ 25
brilli@@ 25
fair@@ 25
infir@@ 25
lam 25
particul@@ 25
rase 25
ree 25
rw@@ 25
á 25
exion 24
lors@@ 24
premi@@ 24
renouv@@ 24
ww@@ 24
240@@ 23
accompli@@ 23
ense 23
eties 23
lent@@ 23
obj@@ 23
plément@@ 23
préhen@@ 23
shou@@ 23
till 23
volon@@ 23
éto@@ 23
dres@@ 22
meaning@@ 22
ough@@ 22
plea@@ 22
sophis@@ 22
çon 22
avid 21
benef@@ 21
diffi@@ 21
ead 21
hic@@ 21
ë@@ 21
110@@ 20
abs@@ 20
call@@ 20
célé@@ 20
ebo@@ 20
grés 20
huma@@ 20
notic@@ 20
pacifi@@ 20
scape 20
specifi@@ 20
vidé@@ 20
weir@@ 20
è 20
électri@@ 20
ackers 19
clas@@ 19
démonstr@@ 19
eness 19
expan@@ 19
vide@@ 19
califor@@ 18
deca@@ 18
plains 18
¨ 18
améri@@ 17
bile 17
cept 17
déjeu@@ 17
eux-@@ 17
sear@@ 17
anni@@ 16
deuxi@@ 16
disci@@ 16
hundre@@ 16
lars 16
mexic@@ 16
tricité 16
twit@@ 16
û 16
™ 16
ats-@@ 15
design@@ 15
déj@@ 15
folks 15
histo@@ 15
quatri@@ 15
urity 15
volution 15
éro 15
décen@@ 14
evolu@@ 14
resul@@ 14
staf@@ 14
tot@@ 14
usu@@ 14
à@@ 14
èces 14
ô 14
246@@ 13
mément 13
ousness 13
possi@@ 13
( 12
absolu@@ 12
cace 12
circum@@ 12
colle@@ 12
convinc@@ 12
médica@@ 12
anthro@@ 11
conséqu@@ 11
list@@ 11
mortal@@ 11
médec@@ 11
nifi@@ 11
tidi@@ 11
wom@@ 11
year@@ 11
énor@@ 11
́ 11
antage 10
convers@@ 10
emble 10
endro@@ 10
excel@@ 10
expen@@ 10
fren@@ 10
hère 10
ince 10
instance 10
micha@@ 10
nomb@@ 10
pouvi@@ 10
pres 10
selves 10
stly 10
véhic@@ 10
ä@@ 10
1665@@ 9
228@@ 9
ameri@@ 9
intelli@@ 9
langu@@ 9
sional 9
www.@@ 9
½ 9
êt 9
€ 9
antan@@ 8
consi@@ 8
kev@@ 8
lumi@@ 8
mes-@@ 8
modè@@ 8
tez-moi 8
£ 8
æ@@ 8
ć 8
adu@@ 7
awar@@ 7
bey@@ 7
chrom@@ 7
divers@@ 7
grow@@ 7
iment@@ 7
isco 7
lise 7
pharm@@ 7
syst@@ 7
ted.com 7
tex 7
ø@@ 7
​ 7
afghan@@ 6
apprentiss@@ 6
docu@@ 6
ein 6
feed@@ 6
intel@@ 6
necess@@ 6
nér@@ 6
pie@@ 6
proces@@ 6
quic@@ 6
sebas@@ 6
symptom@@ 6
wich 6
º@@ 6
126 5
adem@@ 5
aujour@@ 5
diffé@@ 5
dément 5
effi@@ 5
espr@@ 5
face@@ 5
mosp@@ 5
oud 5
relation@@ 5
ustr@@ 5
victi@@ 5
véhicu@@ 5
vél@@ 5
ween 5
your@@ 5
® 5
ú 5
263 4
^ 4
ativ@@ 4
cec@@ 4
chac@@ 4
dn 4
hallu@@ 4
maladi@@ 4
opportun@@ 4
phén@@ 4
poni@@ 4
pover@@ 4
preu@@ 4
raid 4
rote 4
schiz@@ 4
tuni@@ 4
w.@@ 4
wester@@ 4
ó 4
ù 4
ȇ@@ 4
อ@@ 4
211 3
352 3
artic@@ 3
beso@@ 3
capac@@ 3
effic@@ 3
fore 3
fronti@@ 3
heim@@ 3
heimer 3
incroy@@ 3
instein 3
meill@@ 3
omen@@ 3
possibil@@ 3
princi@@ 3
prun@@ 3
quarti@@ 3
résult@@ 3
satel@@ 3
souv@@ 3
tice 3
tty 3
veau 3
 3
 3
êts 3
-hu@@ 2
408 2
adminis@@ 2
anglet@@ 2
ats-unis 2
celui-@@ 2
elis@@ 2
enthou@@ 2
goti@@ 2
hatt@@ 2
how@@ 2
inte@@ 2
jap@@ 2
japan@@ 2
leader@@ 2
mif@@ 2
parfai@@ 2
patter@@ 2
pital 2
probab@@ 2
ref 2
remment 2
 2
¥ 2
© 2
­ 2
¾ 2
à-dire 2
â 2
échan@@ 2
érap@@ 2
ü 2
ā@@ 2
ė@@ 2
ī@@ 2
ย 2
ร 2
่ 2
‹ 2
› 2
� 2
&#@@ 1
336@@ 1
535 1
astruc@@ 1
aupar@@ 1
certain@@ 1
cid 1
confl@@ 1
demon@@ 1
doig@@ 1
ellite 1
erreu@@ 1
espec@@ 1
europ@@ 1
ext 1
feel@@ 1
fiel@@ 1
gion 1
grâ@@ 1
hig@@ 1
hôpit@@ 1
indivi@@ 1
manhatt@@ 1
mauv@@ 1
oiles 1
ood 1
pauv@@ 1
quelques@@ 1
royaume-@@ 1
sieurs 1
softw@@ 1
tiana 1
tremend@@ 1
typic@@ 1
velop@@ 1
yea@@ 1
zheimer 1
{ 1
~ 1
 1
¡ 1
± 1
³ 1
µ 1
å 1
å@@ 1
æ 1
ì@@ 1
í 1
î 1
ò@@ 1
ø 1
ú@@ 1
ā 1
č@@ 1
ě@@ 1
ī 1
ł@@ 1
ň@@ 1
ō@@ 1
ś 1
š@@ 1
ū@@ 1
̐ 1
ع@@ 1
ق@@ 1
ل 1
م@@ 1
و@@ 1
ị@@ 1
√ 1
你 1
葱 1
送 1
madeupword0000 0
